.	-2.22544
<s>	0
</s>	0
<unk>	0
▁a	-3.84506
▁tom	-3.86046
▁i	-3.98345
'	-3.99927
?	-4.09383
▁the	-4.18912
▁to	-4.23902
s	-4.31775
▁you	-4.38023
▁de	-4.39221
▁no	-4.47208
▁que	-4.48654
▁la	-4.63251
t	-4.73448
▁¿	-4.78789
▁el	-4.80313
▁me	-4.8488
▁is	-4.85103
,	-4.88368
▁he	-4.9831
▁en	-4.99207
▁es	-5.04598
▁un	-5.19104
▁it	-5.29165
▁in	-5.34685
▁	-5.37471
▁mary	-5.37993
▁of	-5.43026
▁that	-5.43392
▁se	-5.48723
▁was	-5.52593
n	-5.53722
▁él	-5.59108
▁do	-5.61875
▁lo	-5.63365
▁have	-5.67833
▁una	-5.679
▁this	-5.68174
▁my	-5.6995
▁por	-5.72909
▁for	-5.80045
▁she	-5.82485
▁we	-5.82605
▁what	-5.86125
▁su	-5.88837
▁mi	-5.92904
▁con	-5.94381
▁los	-5.94761
▁don	-5.95201
▁can	-5.95574
▁está	-5.97385
▁are	-5.9931
▁be	-6.00665
▁le	-6.01089
▁ella	-6.02397
▁his	-6.03228
m	-6.05452
▁did	-6.07906
▁your	-6.08161
▁on	-6.11981
▁para	-6.16198
▁with	-6.16225
▁want	-6.16242
▁al	-6.18249
▁has	-6.19079
▁and	-6.23695
▁not	-6.24901
▁y	-6.2548
▁te	-6.26297
▁like	-6.26748
▁know	-6.29898
▁más	-6.30647
▁las	-6.30747
▁at	-6.37803
▁him	-6.39028
▁there	-6.46921
▁go	-6.4723
▁they	-6.49271
re	-6.49413
▁tu	-6.51008
d	-6.52065
▁yo	-6.53737
▁her	-6.5384
ll	-6.54624
▁qué	-6.56953
ó	-6.59169
▁will	-6.63839
▁time	-6.66425
▁estoy	-6.66991
ed	-6.67357
▁how	-6.68761
▁muy	-6.69107
▁esta	-6.7174
▁very	-6.71789
▁had	-6.71851
▁eso	-6.73046
▁este	-6.73249
▁tiene	-6.73756
ve	-6.74924
▁all	-6.7736
▁del	-6.78377
▁here	-6.79014
▁estaba	-6.79445
▁up	-6.79696
▁about	-6.79864
a	-6.81234
▁quiero	-6.82162
qué	-6.8292
▁think	-6.8335
▁si	-6.83374
▁tengo	-6.84669
!	-6.85347
▁fue	-6.85396
▁casa	-6.86759
▁aquí	-6.87333
▁get	-6.8943
▁out	-6.89753
▁when	-6.90359
▁as	-6.9241
▁hacer	-6.92525
▁from	-6.93424
ing	-6.93494
te	-6.93691
▁como	-6.94514
▁if	-6.96173
▁were	-6.98619
▁who	-6.99655
▁one	-6.99753
▁son	-6.99838
▁come	-7.01277
▁ha	-7.01869
▁an	-7.0461
▁could	-7.05137
▁todo	-7.05457
▁algo	-7.05938
▁esto	-7.06663
▁doesn	-7.07622
▁going	-7.08407
▁would	-7.08408
▁tiempo	-7.08923
▁by	-7.08994
▁gusta	-7.1132
▁see	-7.12141
▁why	-7.12466
o	-7.13538
▁good	-7.14119
▁favor	-7.14566
▁tan	-7.17546
▁ir	-7.19119
▁please	-7.19168
▁should	-7.19301
▁so	-7.20577
▁nada	-7.20607
▁just	-7.20785
▁todos	-7.21705
▁been	-7.2173
▁where	-7.21969
▁hay	-7.22056
▁puedo	-7.22079
▁era	-7.22081
▁need	-7.22302
▁let	-7.23087
▁cuando	-7.2443
▁boston	-7.24872
▁tell	-7.25211
▁vez	-7.2532
▁bien	-7.27733
▁mucho	-7.27742
▁help	-7.29799
▁more	-7.29978
mos	-7.30428
▁puede	-7.3182
▁but	-7.33154
▁now	-7.33912
▁than	-7.34082
▁never	-7.36008
▁ellos	-7.36244
▁ser	-7.36428
por	-7.36565
▁us	-7.36756
es	-7.37055
▁car	-7.38077
▁some	-7.38339
▁sé	-7.38533
▁solo	-7.38971
me	-7.39378
▁something	-7.39812
▁got	-7.40757
▁too	-7.40976
▁take	-7.41469
▁nunca	-7.41818
▁mañana	-7.4208
▁day	-7.43293
▁much	-7.43801
▁am	-7.44137
▁last	-7.44439
▁trabajo	-7.4467
▁¡	-7.46036
▁money	-7.47419
▁creo	-7.47514
▁home	-7.49766
▁work	-7.50283
▁dijo	-7.50444
▁ahora	-7.50638
▁dinero	-7.50823
▁people	-7.51113
▁sus	-7.51871
▁hablar	-7.51975
▁dos	-7.53701
▁ya	-7.5379
▁había	-7.54756
é	-7.5584
▁pero	-7.56074
▁tomás	-7.56964
▁back	-7.57591
▁día	-7.60938
▁soy	-7.62187
▁our	-7.62656
▁hace	-7.63034
▁really	-7.63533
▁house	-7.63641
▁siempre	-7.63859
▁nos	-7.64301
▁ese	-7.64362
▁book	-7.64501
▁many	-7.64656
▁said	-7.64735
▁went	-7.64756
▁están	-7.65164
▁told	-7.65513
▁libro	-7.65678
▁must	-7.6607
▁o	-7.66238
▁give	-7.66982
▁any	-7.6783
▁poco	-7.68682
▁lot	-7.6964
▁anything	-7.69722
▁haber	-7.69918
▁hoy	-7.70145
▁man	-7.70417
▁thought	-7.70871
▁today	-7.71153
▁say	-7.71282
▁does	-7.71619
▁quiere	-7.71724
▁eat	-7.71726
▁school	-7.71838
▁new	-7.72056
▁make	-7.72229
▁room	-7.72371
▁voy	-7.72434
▁only	-7.73002
▁va	-7.73065
▁french	-7.73511
▁ver	-7.73676
▁mejor	-7.73701
▁nadie	-7.74241
▁two	-7.74483
▁esa	-7.74924
▁made	-7.75479
▁años	-7.75785
▁always	-7.76203
ly	-7.76229
ta	-7.76547
▁tú	-7.77008
▁speak	-7.77188
no	-7.77289
▁estar	-7.77587
▁right	-7.77815
▁long	-7.78207
▁father	-7.78207
▁tarde	-7.78334
se	-7.78368
▁idea	-7.7844
▁sabe	-7.7887
▁demasiado	-7.79351
▁francés	-7.7948
▁john	-7.79608
▁quería	-7.79633
e	-7.79917
▁maría	-7.80382
▁padre	-7.80519
▁"	-7.81753
▁tenía	-7.8309
▁every	-7.83285
▁three	-7.83399
▁love	-7.83469
▁parece	-7.83789
▁hizo	-7.83935
▁may	-7.83984
▁old	-7.846
▁antes	-7.85234
▁tienes	-7.86266
▁estás	-7.87051
▁mis	-7.87284
▁tres	-7.8746
▁night	-7.87759
▁well	-7.87762
▁debería	-7.88739
▁wanted	-7.89286
▁still	-7.89724
▁off	-7.89896
▁look	-7.89917
▁noche	-7.91219
▁tomorrow	-7.91731
▁talk	-7.91989
▁won	-7.92167
▁before	-7.92605
-	-7.9275
▁asked	-7.92994
dónde	-7.93002
▁hora	-7.93675
▁over	-7.95082
▁sin	-7.95439
▁left	-7.95571
▁put	-7.95896
▁way	-7.96138
▁usted	-7.96299
▁dog	-7.96313
r	-7.96527
▁eres	-7.97172
▁sobre	-7.97392
▁or	-7.98129
▁little	-7.98782
▁leave	-7.99067
▁nothing	-7.9925
▁ti	-7.99483
▁uno	-7.99977
▁verdad	-8.00197
▁job	-8.00205
▁mí	-8.00236
▁perro	-8.00648
y	-8.00849
▁ayer	-8.00989
▁saw	-8.01144
▁comer	-8.01155
▁yesterday	-8.01458
▁hombre	-8.01614
▁live	-8.01753
▁again	-8.01766
▁estado	-8.01905
▁after	-8.01938
cómo	-8.02541
▁into	-8.03164
▁puedes	-8.03791
▁years	-8.03815
▁down	-8.03886
▁better	-8.04209
▁vida	-8.0484
▁debe	-8.05155
▁english	-8.05862
▁mother	-8.05864
▁everything	-8.06533
▁alguna	-8.06605
▁nuevo	-8.07115
▁find	-8.07115
▁necesito	-8.07211
▁buy	-8.07218
quién	-8.07232
▁inglés	-8.07717
▁stay	-8.08182
▁came	-8.09586
▁read	-8.09743
le	-8.09761
▁happy	-8.09949
do	-8.1006
▁días	-8.10488
▁play	-8.11233
▁first	-8.11702
▁decir	-8.13614
▁coche	-8.13849
▁todavía	-8.14074
ok	-8.14085
▁next	-8.14209
▁gente	-8.14209
▁mismo	-8.14589
▁hecho	-8.14595
▁life	-8.14752
▁tenemos	-8.15142
▁understand	-8.15598
▁believe	-8.1585
▁other	-8.15887
▁nosotros	-8.16039
▁problema	-8.16151
▁así	-8.16743
▁children	-8.17341
▁ask	-8.17387
▁madre	-8.18124
▁hard	-8.19401
▁gustaría	-8.19619
▁them	-8.19852
cuál	-8.19888
▁alguien	-8.20054
▁pensé	-8.20198
▁semana	-8.20645
▁these	-8.2153
▁stop	-8.22057
▁call	-8.22149
▁plan	-8.22453
▁keep	-8.2263
mente	-8.23085
▁morning	-8.23116
▁friends	-8.23131
▁bought	-8.23515
▁wants	-8.24061
▁sabía	-8.24813
▁problem	-8.24889
on	-8.24945
▁door	-8.24962
▁name	-8.25274
▁feel	-8.25573
▁otra	-8.25873
▁habitación	-8.25931
▁puerta	-8.26328
▁their	-8.26462
▁used	-8.2655
▁pasado	-8.26557
▁buen	-8.26731
▁quieres	-8.26785
▁estamos	-8.26858
▁doing	-8.27063
▁deberías	-8.27608
▁escuela	-8.28199
▁ever	-8.28372
gún	-8.28408
lo	-8.28486
▁después	-8.28617
▁away	-8.28677
▁dónde	-8.29729
cuánto	-8.2982
▁friend	-8.29823
▁gave	-8.30318
▁cosas	-8.30875
▁casi	-8.30948
▁podría	-8.31037
▁doctor	-8.31071
▁soon	-8.31447
▁quién	-8.31776
▁mundo	-8.31809
▁1	-8.32386
▁late	-8.32468
▁amigos	-8.32948
▁happened	-8.33196
▁sure	-8.33334
▁remember	-8.35438
▁feliz	-8.35783
▁bus	-8.36365
▁fuera	-8.36376
▁saber	-8.36492
▁ayuda	-8.36896
▁niños	-8.37012
▁difícil	-8.37298
cuándo	-8.37568
▁año	-8.37583
▁lost	-8.37677
▁veces	-8.38054
▁allí	-8.381
▁year	-8.38177
▁hacerlo	-8.38393
▁already	-8.38515
▁tus	-8.38649
▁cómo	-8.39159
▁pronto	-8.39444
▁sea	-8.40047
á	-8.40075
▁auto	-8.40438
▁turn	-8.40569
▁niño	-8.40748
▁enough	-8.40854
▁alone	-8.40864
▁show	-8.40931
▁boy	-8.41233
▁water	-8.41469
▁week	-8.41477
▁teacher	-8.41484
▁otro	-8.41712
▁heard	-8.41731
▁ni	-8.41876
▁seguro	-8.41974
▁married	-8.42285
▁best	-8.42655
▁without	-8.42773
▁menos	-8.4283
ble	-8.42885
▁dio	-8.42974
▁even	-8.43226
▁bad	-8.43454
▁comprar	-8.43524
▁wrong	-8.43735
."	-8.43923
▁agua	-8.43971
▁busy	-8.44016
▁buena	-8.44054
▁mal	-8.44178
cause	-8.44466
▁amigo	-8.44656
▁beautiful	-8.44715
▁desde	-8.44733
▁muchos	-8.44963
▁bed	-8.45727
▁realmente	-8.45753
que	-8.45837
▁hear	-8.45893
▁cold	-8.46208
▁try	-8.46358
▁things	-8.46447
▁looking	-8.46899
▁visto	-8.46954
▁often	-8.46965
▁found	-8.47072
▁comida	-8.47457
▁party	-8.47979
▁same	-8.48476
▁ciudad	-8.48481
▁done	-8.48656
▁vi	-8.48982
▁ahí	-8.48989
▁conmigo	-8.49244
▁nuestro	-8.49244
▁habla	-8.49247
▁thing	-8.49768
▁wait	-8.5005
0	-8.50389
▁podía	-8.50539
▁vino	-8.50595
de	-8.50931
▁persona	-8.51175
puedo	-8.5137
▁food	-8.51377
▁sólo	-8.51589
▁brother	-8.51621
▁nombre	-8.51628
cada	-8.51698
▁seen	-8.51731
▁train	-8.518
▁ten	-8.51944
▁use	-8.53159
▁person	-8.53312
▁looks	-8.53469
▁knew	-8.53718
▁everyone	-8.5399
▁gran	-8.54263
▁personas	-8.54524
▁big	-8.54526
▁todas	-8.54527
▁hermano	-8.54601
▁café	-8.54801
▁fiesta	-8.54904
▁answer	-8.54933
en	-8.55287
▁tren	-8.55556
▁vas	-8.55794
▁hope	-8.56119
▁open	-8.56152
▁coffee	-8.56171
▁tired	-8.56457
▁hotel	-8.56658
▁tener	-8.56831
▁toda	-8.57168
▁dice	-8.57288
▁knows	-8.57594
▁wish	-8.57776
▁true	-8.57861
▁being	-8.58244
▁australia	-8.5833
▁contigo	-8.58968
▁while	-8.58969
▁haciendo	-8.5897
▁drink	-8.59331
▁lugar	-8.59823
▁learn	-8.5989
▁around	-8.60109
▁someone	-8.60113
▁likes	-8.60255
▁letter	-8.60265
▁carta	-8.60392
▁watch	-8.60399
▁les	-8.60645
tuvo	-8.60941
▁suficiente	-8.61162
▁tanto	-8.61172
▁japan	-8.61552
▁profesor	-8.61934
▁once	-8.62181
▁japón	-8.62431
▁which	-8.62431
▁girl	-8.62918
▁hospital	-8.63244
▁yet	-8.63321
▁clase	-8.63513
▁cama	-8.63923
▁acerca	-8.64361
▁pay	-8.64697
▁policía	-8.64724
▁salir	-8.64812
▁world	-8.65413
▁leer	-8.65421
▁mind	-8.65421
▁cuenta	-8.66269
▁few	-8.66324
▁sleep	-8.66441
▁muchas	-8.66476
▁bueno	-8.66691
is	-8.66725
▁nuestra	-8.66879
▁grande	-8.66901
▁books	-8.66979
most	-8.6762
▁libros	-8.67711
▁died	-8.6802
▁momento	-8.68529
▁kind	-8.68715
▁study	-8.69015
▁own	-8.69019
▁place	-8.69196
▁diez	-8.69427
▁days	-8.69544
▁write	-8.69713
▁most	-8.70246
▁truth	-8.70693
▁young	-8.7076
▁care	-8.70832
▁sister	-8.71009
▁those	-8.71012
ther	-8.71468
▁pasó	-8.71697
▁cerca	-8.71919
▁each	-8.71977
▁siento	-8.72305
▁hermana	-8.7231
▁parents	-8.72648
▁walk	-8.72751
▁talking	-8.7284
▁rápido	-8.72955
▁seems	-8.72989
▁another	-8.73279
ando	-8.73364
ndo	-8.73564
▁lunch	-8.73604
▁happen	-8.73744
▁tv	-8.73935
▁lunes	-8.73935
estás	-8.74057
▁family	-8.74265
▁teléfono	-8.74265
▁hijo	-8.74634
▁espero	-8.74641
▁looked	-8.74884
▁getting	-8.75299
▁vive	-8.75414
os	-8.75538
▁padres	-8.75571
▁anyone	-8.75599
▁great	-8.756
▁monday	-8.7567
▁tried	-8.76269
▁problemas	-8.76284
▁afraid	-8.76606
▁pudo	-8.7661
▁early	-8.76611
▁familia	-8.7674
▁historia	-8.76813
▁fui	-8.76872
▁ago	-8.76893
▁anoche	-8.76967
▁dejó	-8.76969
▁sido	-8.77158
▁both	-8.77225
▁aún	-8.77693
▁hate	-8.78064
▁mujer	-8.78247
▁vivir	-8.78501
▁rain	-8.78514
▁vamos	-8.78526
tienes	-8.78759
▁duran	-8.78839
▁mine	-8.78869
▁acuerdo	-8.79008
▁también	-8.79009
▁tienen	-8.79287
until	-8.79455
▁trabajar	-8.79537
▁difficult	-8.79663
▁puso	-8.79709
▁joven	-8.79892
▁together	-8.80058
▁jugar	-8.80394
▁gustan	-8.80398
▁cat	-8.80481
▁nueva	-8.80493
▁cosa	-8.8052
▁mayor	-8.80688
▁horas	-8.81001
▁child	-8.81461
▁venir	-8.81825
▁murió	-8.82173
▁estaban	-8.82271
▁else	-8.82339
▁dinner	-8.82531
▁country	-8.83251
▁angry	-8.83252
▁wife	-8.83256
▁coming	-8.83999
quieres	-8.84031
▁aprender	-8.84136
▁cinco	-8.84343
▁donde	-8.84355
l	-8.84543
▁entre	-8.85064
▁favorite	-8.85077
▁since	-8.85322
▁dije	-8.8543
▁yourself	-8.85816
▁hice	-8.85817
▁pregunta	-8.85994
▁hurt	-8.86036
▁parte	-8.86096
▁dejar	-8.86103
▁himself	-8.86188
▁tomar	-8.86235
▁nadar	-8.86512
▁nobody	-8.86936
puedes	-8.86946
▁question	-8.87022
▁mano	-8.87046
▁haven	-8.87314
▁encontrar	-8.87419
▁five	-8.87728
▁han	-8.87772
▁hours	-8.87775
▁mesa	-8.87786
▁playing	-8.87893
▁ocupado	-8.87918
▁accidente	-8.87959
▁meeting	-8.88012
▁wouldn	-8.88514
▁pasar	-8.88948
▁phone	-8.89082
▁might	-8.89213
▁temprano	-8.89214
▁table	-8.89235
▁hand	-8.89364
▁gato	-8.89463
▁matter	-8.89466
▁televisión	-8.89597
▁bastante	-8.89598
▁viene	-8.89849
▁everybody	-8.89984
?"	-8.90352
▁menudo	-8.90376
▁ayudar	-8.90436
▁meet	-8.90688
▁mucha	-8.90751
▁llegar	-8.91178
▁estudiar	-8.91504
▁sorry	-8.91546
▁gracias	-8.91581
▁police	-8.91934
▁easy	-8.91937
▁piano	-8.91937
▁such	-8.91956
▁necesita	-8.92072
▁accident	-8.92117
has	-8.92191
▁month	-8.92229
▁fácil	-8.92236
▁visit	-8.92275
▁volver	-8.92507
▁reading	-8.92549
▁lleva	-8.93036
▁start	-8.93121
▁pidió	-8.93127
▁under	-8.93128
▁camino	-8.93128
▁dormir	-8.93135
▁sí	-8.93179
▁eating	-8.93448
▁japanese	-8.93531
▁última	-8.94227
▁swim	-8.94333
▁aren	-8.94638
▁nice	-8.94659
▁lives	-8.94749
▁says	-8.95091
▁trying	-8.95299
as	-8.95352
er	-8.95496
▁solía	-8.95562
▁far	-8.95607
▁algunos	-8.95688
▁fire	-8.95825
▁mientra	-8.95961
▁d	-8.96522
▁waiting	-8.96524
▁trouble	-8.97008
▁estación	-8.97271
▁park	-8.97285
▁minutos	-8.97344
▁ve	-8.97385
▁dar	-8.97439
▁wonder	-8.975
▁drive	-8.97983
▁office	-8.98002
▁cansado	-8.98081
▁decided	-8.9811
▁finished	-8.98148
▁called	-8.98415
▁dicho	-8.98457
▁started	-8.9901
▁minutes	-8.99055
▁students	-8.99349
▁sola	-8.99495
▁será	-8.99541
▁fuerte	-8.99695
▁podemos	-8.99828
▁small	-9.00142
▁razón	-9.00155
▁miedo	-9.00586
la	-9.00737
▁thank	-9.008
▁lado	-9.00826
▁estos	-9.00862
▁important	-9.00915
verdad	-9.00966
▁myself	-9.01015
▁station	-9.01019
▁tonight	-9.01036
▁story	-9.01448
▁preguntó	-9.01456
▁país	-9.01817
having	-9.02314
▁colegio	-9.02319
▁woman	-9.0232
▁ran	-9.02323
▁tipo	-9.02348
▁ready	-9.02404
▁conozco	-9.02758
▁felt	-9.02767
▁alto	-9.029
▁window	-9.03233
▁importante	-9.0328
▁error	-9.03611
▁met	-9.03615
▁radio	-9.03642
▁frío	-9.03642
▁arrived	-9.0371
▁shoes	-9.03766
ía	-9.04172
i	-9.04525
▁sick	-9.04535
▁hablando	-9.04568
▁music	-9.0492
▁city	-9.04981
▁vio	-9.05223
▁importa	-9.05334
emos	-9.05402
▁zapatos	-9.05487
▁ventana	-9.05495
▁red	-9.05625
▁change	-9.05803
▁usually	-9.05897
▁estuvo	-9.05995
0.	-9.0616
▁pretty	-9.06796
▁hot	-9.06831
▁hijos	-9.072
▁música	-9.07253
▁oficina	-9.07253
▁working	-9.07257
▁word	-9.07396
▁ate	-9.07565
▁pienso	-9.07714
▁da	-9.07952
▁compró	-9.08177
▁fun	-9.08472
▁goes	-9.08597
▁anymore	-9.08642
▁china	-9.08645
▁haya	-9.0868
▁película	-9.08751
▁fast	-9.09077
▁hubiera	-9.09109
▁llegó	-9.09125
▁quisiera	-9.09128
▁ustedes	-9.09346
▁cabeza	-9.09579
▁town	-9.09588
▁gone	-9.09661
▁punto	-9.09694
ar	-9.09782
▁estudiantes	-9.09949
▁fin	-9.10028
▁large	-9.10127
▁deja	-9.10182
▁needs	-9.10353
▁rich	-9.10542
▁tal	-9.10705
sabes	-9.10712
▁homework	-9.11001
▁enjoy	-9.11009
▁broke	-9.11088
▁spend	-9.11142
▁reloj	-9.11409
▁christmas	-9.11479
▁picture	-9.11629
▁mistake	-9.11717
▁cualquier	-9.11842
▁bicicleta	-9.1196
▁único	-9.1196
▁tennis	-9.1196
▁reunión	-9.11987
▁fueron	-9.12019
▁seis	-9.12629
▁eyes	-9.1294
▁primera	-9.13022
▁di	-9.13235
▁contra	-9.13277
▁ojos	-9.13308
▁juntos	-9.13328
▁six	-9.13423
▁esperar	-9.13495
▁plane	-9.1354
ba	-9.13598
▁game	-9.13599
▁movie	-9.13614
▁near	-9.13901
nos	-9.14035
▁run	-9.14084
▁baby	-9.14399
▁media	-9.14589
▁language	-9.14592
▁times	-9.14674
▁nin	-9.14675
▁high	-9.14881
▁breakfast	-9.14894
▁esperando	-9.14907
▁dream	-9.14996
▁ido	-9.15089
00	-9.15124
▁afternoon	-9.15391
▁quite	-9.1549
▁misma	-9.15898
▁forget	-9.15994
▁edad	-9.1633
▁tenis	-9.16388
▁fumar	-9.16396
▁esposa	-9.164
▁stupid	-9.16897
▁finish	-9.17285
▁creer	-9.17367
hay	-9.17452
▁song	-9.17702
▁quien	-9.17924
▁unidos	-9.18004
▁viejo	-9.18161
▁sueño	-9.18169
▁class	-9.18738
▁río	-9.18945
▁buscando	-9.18948
▁hair	-9.18968
▁queda	-9.19119
▁canción	-9.19615
▁caja	-9.19724
▁war	-9.19836
▁somos	-9.19943
▁advice	-9.19984
▁conducir	-9.19992
▁estados	-9.20014
▁against	-9.20021
▁debo	-9.20104
▁bring	-9.20508
▁summer	-9.20513
▁listen	-9.20574
▁pasa	-9.20785
▁haga	-9.20886
▁river	-9.21034
▁follow	-9.21034
▁interesting	-9.21048
▁ganas	-9.21118
▁cake	-9.21328
▁comes	-9.21428
▁guerra	-9.21563
▁present	-9.21641
▁chico	-9.21868
▁verte	-9.2196
▁bajo	-9.22044
▁caught	-9.22095
▁compré	-9.22096
▁pueda	-9.22408
▁palabra	-9.22409
▁smoking	-9.22639
▁close	-9.22841
ever	-9.22938
▁fish	-9.23079
▁escribir	-9.23083
▁lived	-9.23125
▁salió	-9.2317
▁fell	-9.23191
▁number	-9.23487
▁ra	-9.23557
▁began	-9.23709
▁milk	-9.23717
▁studying	-9.23873
▁face	-9.23876
▁verano	-9.24027
▁número	-9.24037
▁perder	-9.24107
▁through	-9.24251
▁along	-9.24263
▁kill	-9.24641
▁parecía	-9.24802
▁avión	-9.25347
▁longer	-9.25404
▁llave	-9.25714
▁taxi	-9.26262
▁tienda	-9.26262
▁respuesta	-9.26272
▁oído	-9.26282
not	-9.26423
▁cree	-9.26481
▁sabes	-9.26513
▁sol	-9.26583
▁calle	-9.26723
▁re	-9.26862
▁free	-9.2687
▁b	-9.2699
▁pueden	-9.2699
▁weather	-9.27015
▁veo	-9.2713
▁full	-9.27383
▁cuarto	-9.27576
▁lejos	-9.27577
▁dólares	-9.2758
▁autobús	-9.28141
▁leche	-9.28157
▁iba	-9.28424
▁manera	-9.28544
▁interesante	-9.28548
▁chica	-9.28551
▁dolor	-9.28567
▁sería	-9.28734
▁later	-9.28884
▁pensar	-9.28998
▁bebé	-9.29106
▁chance	-9.29124
▁perdido	-9.2928
▁older	-9.29337
í	-9.29447
▁médico	-9.29699
▁short	-9.2979
▁navidad	-9.29855
▁terminar	-9.29943
▁watching	-9.30048
▁hour	-9.30305
▁kept	-9.30433
▁death	-9.30438
▁cierto	-9.30477
▁sit	-9.30482
▁america	-9.30566
▁mean	-9.3067
▁usar	-9.30776
▁secret	-9.31
▁box	-9.31401
▁juego	-9.31476
▁snow	-9.31817
▁pelo	-9.32017
▁makes	-9.3209
▁age	-9.32278
▁bit	-9.32617
▁living	-9.32779
▁ropa	-9.32779
▁mío	-9.32982
da	-9.3306
▁street	-9.33264
▁thinking	-9.3334
▁cut	-9.3335
▁dark	-9.33363
▁capaz	-9.33437
▁killed	-9.33509
▁tree	-9.33881
▁quedó	-9.33999
▁sat	-9.34055
▁light	-9.34339
▁oír	-9.34345
▁ven	-9.34549
▁parque	-9.34596
▁vos	-9.34611
▁esté	-9.348
▁pie	-9.34903
▁llevar	-9.34949
▁enfermo	-9.35182
▁clean	-9.35555
▁loves	-9.35619
▁encanta	-9.35688
▁vivo	-9.35711
▁student	-9.35723
ninguna	-9.35792
▁became	-9.35798
▁encontré	-9.35827
be	-9.3596
▁hands	-9.36011
está	-9.36086
▁spoke	-9.36405
▁surprised	-9.3648
▁sometimes	-9.36514
▁end	-9.3659
▁cámara	-9.36942
▁libre	-9.36953
ado	-9.36962
▁regalo	-9.36968
▁hurry	-9.37022
▁part	-9.37038
▁die	-9.37293
▁stand	-9.37482
▁hija	-9.37572
▁daughter	-9.37587
▁bicycle	-9.37644
▁forgot	-9.37644
▁hungry	-9.37644
▁white	-9.37654
▁vaya	-9.378
▁par	-9.37802
▁seem	-9.3783
▁trust	-9.38153
▁camera	-9.3822
▁computer	-9.38224
▁perdió	-9.38269
▁muerte	-9.3827
▁born	-9.38276
▁dollars	-9.38404
▁preguntas	-9.38453
c	-9.38535
▁mak	-9.38614
▁manos	-9.38645
▁entender	-9.38846
▁pude	-9.38899
▁cuidado	-9.38903
▁york	-9.38906
▁cara	-9.3906
▁questions	-9.39171
▁quit	-9.39458
▁tokyo	-9.3953
▁stopped	-9.39537
▁luz	-9.39551
▁estas	-9.39638
▁miss	-9.39725
▁listo	-9.39989
▁real	-9.40129
▁vacaciones	-9.40168
▁wine	-9.40266
▁forma	-9.40479
taking	-9.40809
▁realidad	-9.40811
▁glad	-9.41411
▁store	-9.41426
▁consejo	-9.4145
▁company	-9.41453
▁spent	-9.41453
▁pequeño	-9.41455
▁calor	-9.41461
▁duro	-9.41561
▁news	-9.41945
▁tocar	-9.41973
▁sos	-9.41974
▁hambre	-9.42103
▁acá	-9.42103
▁beber	-9.42234
▁careful	-9.42719
▁hold	-9.42774
▁secreto	-9.42853
ra	-9.42959
al	-9.43116
▁lie	-9.43259
▁birthday	-9.43414
▁pregunto	-9.43418
▁cuanto	-9.43426
▁ojal	-9.43435
▁primero	-9.43585
▁culpa	-9.43666
▁queremos	-9.437
able	-9.43742
▁moment	-9.43904
▁falta	-9.43922
▁terrible	-9.44049
▁posible	-9.44049
▁drunk	-9.44076
▁tokio	-9.44077
▁banco	-9.44077
▁vuelta	-9.44104
▁niña	-9.44106
▁espera	-9.44182
▁e	-9.44603
▁dead	-9.4477
▁hit	-9.44939
▁necesitas	-9.45114
▁rest	-9.45422
▁déjame	-9.45442
▁extraño	-9.45459
▁viaje	-9.45468
▁10	-9.45781
▁saying	-9.45959
tom	-9.46074
▁odio	-9.46091
▁flores	-9.46112
▁siquiera	-9.46121
▁largo	-9.46142
▁whe	-9.46219
clock	-9.46283
▁cocina	-9.46386
▁tea	-9.46533
▁trabaja	-9.46564
▁clothes	-9.46776
▁hombres	-9.46788
▁entiendo	-9.46846
▁malo	-9.47073
▁hagas	-9.47084
▁cost	-9.47341
▁behind	-9.47455
▁cumpleaños	-9.47457
▁equipo	-9.47461
▁rico	-9.47529
▁become	-9.47539
▁van	-9.4756
▁llama	-9.47758
▁cena	-9.4776
▁flowers	-9.47922
▁beer	-9.48042
▁ruido	-9.48094
▁hiciste	-9.4814
▁terminado	-9.48161
▁empezó	-9.48168
▁volvió	-9.48189
▁sing	-9.48207
▁crees	-9.48702
▁haci	-9.48788
▁business	-9.48837
▁cerveza	-9.48839
▁suerte	-9.4884
▁tío	-9.48844
▁novia	-9.48917
▁recuerdo	-9.48922
▁entrar	-9.49231
▁oportunidad	-9.49468
▁japonés	-9.49541
▁té	-9.49607
▁cuatro	-9.50243
▁perros	-9.50316
▁cantar	-9.50532
an	-9.50713
▁touch	-9.50752
▁dur	-9.50756
▁pagar	-9.50816
ween	-9.50952
▁head	-9.50967
▁justo	-9.51069
▁canadian	-9.51074
▁building	-9.51083
▁foto	-9.51085
▁dogs	-9.51284
▁piensa	-9.51426
▁speaking	-9.515
▁árbol	-9.51601
▁others	-9.51643
▁compañía	-9.51666
▁próximo	-9.51666
▁expensive	-9.51668
▁catch	-9.51676
▁eaten	-9.51798
▁send	-9.5185
▁changed	-9.519
▁prefer	-9.51925
▁helped	-9.52082
▁stayed	-9.52185
▁trip	-9.5229
▁girlfriend	-9.52391
▁haré	-9.52428
▁wearing	-9.52466
▁lengua	-9.52534
▁works	-9.52536
▁estudiante	-9.52546
▁allá	-9.52744
▁os	-9.52745
▁black	-9.5311
▁possible	-9.53111
▁vista	-9.53111
▁nieve	-9.53116
▁pensando	-9.53125
▁dress	-9.53648
▁final	-9.53717
▁advise	-9.53786
▁uncle	-9.53841
▁wrote	-9.53849
▁jamás	-9.5385
ste	-9.53939
▁four	-9.53998
▁asunto	-9.54006
▁paper	-9.54008
▁key	-9.54019
▁esperaba	-9.54188
▁golf	-9.54566
▁reason	-9.54743
▁sunday	-9.54756
▁cuánto	-9.54789
▁team	-9.54836
▁palabras	-9.54881
▁aconsej	-9.54902
▁bet	-9.54963
▁cook	-9.55101
▁decidió	-9.55318
▁travel	-9.55384
▁quieras	-9.55398
▁gets	-9.55457
▁speaks	-9.55477
▁bank	-9.55477
▁tarea	-9.55505
▁otros	-9.55606
aron	-9.558
▁conoce	-9.55932
▁blame	-9.5595
▁color	-9.56002
podrías	-9.56079
▁break	-9.56149
▁estaré	-9.56175
▁pain	-9.56504
▁única	-9.56814
▁outside	-9.56829
▁order	-9.569
▁dame	-9.56916
▁strange	-9.57492
▁cuándo	-9.57664
▁pan	-9.57689
▁mujeres	-9.57718
▁puesto	-9.57788
▁worked	-9.57791
▁cup	-9.57791
▁extranjero	-9.57797
▁visitar	-9.57801
▁tall	-9.57901
▁estará	-9.58164
▁acaba	-9.58208
▁anybody	-9.58335
▁women	-9.58335
▁running	-9.58336
▁examen	-9.58346
amos	-9.58532
▁canadiense	-9.58571
▁heart	-9.5894
▁asleep	-9.59105
▁edificio	-9.59105
▁herself	-9.59105
▁famous	-9.59107
▁necesitamos	-9.59248
▁ice	-9.59319
▁equivocado	-9.59332
▁eran	-9.59398
▁whole	-9.59506
▁thinks	-9.59597
▁oí	-9.59648
▁needed	-9.59649
▁lose	-9.59868
▁dentro	-9.5988
▁último	-9.5988
▁perdí	-9.59886
▁salud	-9.5995
▁lista	-9.59966
▁amor	-9.59979
▁vestido	-9.60108
▁pequeña	-9.60131
▁point	-9.60153
▁different	-9.60618
▁biblioteca	-9.60661
▁taza	-9.60662
▁fuego	-9.60711
▁glasses	-9.6072
▁noise	-9.60888
▁escuchar	-9.60938
▁carne	-9.60957
▁debemos	-9.6097
▁apena	-9.61348
▁strong	-9.61403
▁decisión	-9.61448
▁floor	-9.61449
▁dangerous	-9.6145
▁diccionario	-9.61687
▁sound	-9.61744
▁baseball	-9.62242
▁quickly	-9.62253
▁paid	-9.6226
▁tenido	-9.62267
▁caminar	-9.623
▁bag	-9.62534
ron	-9.62975
▁llover	-9.63006
▁dictionary	-9.63042
▁éxito	-9.63042
▁library	-9.63044
▁exactly	-9.63047
▁trabajando	-9.63069
▁montón	-9.63075
▁offer	-9.63088
▁least	-9.63106
▁move	-9.63129
▁raining	-9.63264
▁popular	-9.63574
▁air	-9.6364
▁telephone	-9.63693
▁crazy	-9.63849
▁sombrero	-9.63849
▁poder	-9.63851
▁quieren	-9.64171
▁sale	-9.645
▁explain	-9.64537
▁aquel	-9.64618
▁conseguir	-9.64653
▁fútbol	-9.64662
▁lluvia	-9.64662
▁exactamente	-9.64674
▁interested	-9.64691
▁loved	-9.6476
▁empezar	-9.64821
▁mala	-9.64883
▁primer	-9.65116
▁worry	-9.65384
▁jardín	-9.65481
▁proud	-9.65481
▁club	-9.65483
▁hide	-9.65506
▁agree	-9.65663
▁restaurant	-9.6568
▁restaurante	-9.65824
▁win	-9.66034
▁pass	-9.66148
▁return	-9.66184
▁alrededor	-9.66238
▁safe	-9.66264
▁cayó	-9.6631
▁frente	-9.66317
▁weight	-9.6641
▁gatos	-9.66599
▁waited	-9.66714
▁takes	-9.66732
▁treinta	-9.67141
▁sitio	-9.67144
▁encontró	-9.67149
▁sentido	-9.67159
▁errores	-9.67264
▁decirle	-9.67346
▁favorito	-9.675
▁blanco	-9.67504
▁haría	-9.67534
▁cenar	-9.67611
▁cats	-9.67692
▁words	-9.67816
▁poor	-9.67921
▁poner	-9.67935
▁health	-9.67947
▁concert	-9.67982
▁siete	-9.67982
▁front	-9.67983
▁baño	-9.67986
▁"¿	-9.6799
▁pensaba	-9.67991
▁llorar	-9.67998
▁entonces	-9.68016
▁thirty	-9.68041
▁men	-9.68076
▁muerto	-9.68373
▁played	-9.68575
▁loco	-9.68583
g	-9.68684
▁cry	-9.68736
▁certain	-9.68829
▁probabl	-9.68829
▁guitarra	-9.68836
▁leyendo	-9.68844
▁atención	-9.68857
▁concierto	-9.68864
"	-9.68913
▁severa	-9.6893
▁camisa	-9.69207
▁inteligente	-9.69234
▁tenga	-9.69252
u	-9.69303
eres	-9.69327
▁sal	-9.6938
▁mistakes	-9.69412
▁mad	-9.6948
▁guitar	-9.69676
▁béisbol	-9.69684
▁television	-9.69684
▁umbrella	-9.69684
▁swimming	-9.69684
ada	-9.69694
▁dijiste	-9.69694
▁mira	-9.69704
▁seven	-9.69711
▁clases	-9.69974
▁problems	-9.69996
▁evening	-9.70022
cuánta	-9.70057
ited	-9.70135
▁pens	-9.70171
▁sigue	-9.70258
▁result	-9.70349
▁broken	-9.7039
▁garden	-9.70423
▁glass	-9.70481
▁wear	-9.70522
▁peligro	-9.70534
▁miró	-9.70548
▁lucky	-9.70564
▁deal	-9.70851
▁walked	-9.70874
▁opened	-9.7094
▁dormido	-9.70956
▁ganar	-9.71106
el	-9.71268
▁paraguas	-9.71415
▁prefiero	-9.71415
▁half	-9.71418
▁jugando	-9.71423
▁pasando	-9.71464
ción	-9.71579
▁seemed	-9.71602
▁caso	-9.71836
▁abogado	-9.71853
▁aire	-9.71949
▁guess	-9.72222
▁almuerzo	-9.72292
▁dirección	-9.72292
▁road	-9.72292
▁estudiando	-9.72304
▁finally	-9.72345
▁venga	-9.7236
▁estuve	-9.72533
▁shirt	-9.72798
▁movies	-9.72854
▁peor	-9.73106
▁somebody	-9.73177
▁cuesta	-9.73184
▁pasada	-9.73204
▁side	-9.73216
▁missed	-9.73389
▁llamar	-9.73581
▁seguir	-9.73587
▁choice	-9.73619
▁talked	-9.73936
▁nuestros	-9.74068
rought	-9.74071
▁comió	-9.74071
▁husband	-9.74077
▁entró	-9.74077
▁animales	-9.7412
cabo	-9.74138
▁dime	-9.74184
▁sad	-9.74233
▁mía	-9.74323
▁abuelo	-9.74558
ate	-9.74666
▁expect	-9.74751
▁quizá	-9.74971
▁universidad	-9.74971
▁figure	-9.74972
▁feeling	-9.75001
▁vendrá	-9.75074
▁haz	-9.75105
▁sell	-9.75136
▁apple	-9.75529
▁minute	-9.75531
▁sent	-9.75805
▁clear	-9.75837
▁lying	-9.75884
▁driver	-9.75956
▁shut	-9.75978
▁states	-9.76077
▁smoke	-9.76206
▁learned	-9.76275
▁patient	-9.76333
▁rules	-9.76616
▁accept	-9.76659
▁realize	-9.76783
▁either	-9.76798
▁llamó	-9.76798
▁situación	-9.76798
▁siendo	-9.76818
▁estaría	-9.77079
▁estabas	-9.77359
▁attention	-9.77724
▁deberes	-9.77753
▁rato	-9.77758
▁forward	-9.77815
▁meat	-9.77865
▁viven	-9.779
▁barco	-9.78258
▁estúpido	-9.78265
▁lawyer	-9.78272
▁peso	-9.78281
▁pedí	-9.78419
vas	-9.78522
▁thanks	-9.78645
▁danger	-9.78657
▁rompió	-9.78658
▁habría	-9.78661
▁completamente	-9.78662
▁animals	-9.7876
▁crying	-9.78764
▁arm	-9.78915
▁fine	-9.79086
▁seeing	-9.79092
▁hat	-9.79129
▁control	-9.79145
▁wall	-9.79237
▁ok	-9.793
▁pick	-9.7949
▁piensas	-9.79554
▁driving	-9.79602
▁opinión	-9.79602
▁situation	-9.79602
▁mamá	-9.79609
▁feed	-9.79644
▁paris	-9.79664
▁visited	-9.79898
▁vale	-9.79903
▁boys	-9.79991
▁lago	-9.80012
▁arrive	-9.80037
▁promise	-9.80051
▁wash	-9.80089
▁case	-9.80326
▁playa	-9.80467
▁test	-9.8047
▁leaving	-9.80554
▁twice	-9.80554
▁winter	-9.80555
▁vacation	-9.80555
▁share	-9.80555
▁desk	-9.80561
▁finalmente	-9.80589
▁solve	-9.80607
▁fishing	-9.80724
▁digas	-9.80775
▁irme	-9.80839
▁llev	-9.80873
▁drinking	-9.80875
▁decision	-9.8109
▁mar	-9.81142
▁minuto	-9.81187
▁responder	-9.81259
▁dance	-9.81337
▁pudiera	-9.81515
▁invierno	-9.81517
▁imposible	-9.81518
▁terminó	-9.81523
▁p	-9.81556
▁sala	-9.81606
▁invited	-9.8161
▁trata	-9.81644
▁llevaba	-9.81647
▁pen	-9.81654
▁known	-9.81922
▁hermosa	-9.82145
▁cambiar	-9.82232
▁parís	-9.82487
▁ocupada	-9.8249
▁address	-9.82493
▁completely	-9.825
▁papá	-9.82501
▁probablemente	-9.82501
▁beach	-9.82505
▁grandfather	-9.82508
▁sentó	-9.82632
▁lake	-9.82637
▁ello	-9.8297
turned	-9.83117
▁peligroso	-9.83118
▁seat	-9.83123
to	-9.83134
puede	-9.83271
▁causa	-9.83274
▁normal	-9.83406
▁vaso	-9.83457
▁blue	-9.83467
▁excuse	-9.83467
▁suppose	-9.83467
▁traffic	-9.83467
▁airport	-9.83467
▁ocurrió	-9.83476
▁duele	-9.83489
rank	-9.83741
▁closed	-9.83742
▁kids	-9.84004
▁medio	-9.84083
▁pedir	-9.84111
▁second	-9.8412
▁mountain	-9.84149
▁resolver	-9.84175
aba	-9.84417
▁divertido	-9.84457
▁worried	-9.84458
▁pieza	-9.84459
▁ayudarte	-9.84692
▁sleeping	-9.84768
▁montaña	-9.85157
▁ticket	-9.85158
▁pase	-9.85359
▁papel	-9.8539
▁boca	-9.85426
▁aeropuerto	-9.85457
▁cuchillo	-9.85457
▁próxima	-9.85457
▁atrás	-9.85458
▁carro	-9.85553
▁alive	-9.85597
▁meses	-9.85662
▁learning	-9.85793
▁pena	-9.858
▁triste	-9.86155
▁ship	-9.86191
▁per	-9.86358
▁abroad	-9.86467
▁shopping	-9.86467
▁hubo	-9.86471
▁intentando	-9.86477
▁mayoría	-9.865
▁younger	-9.86509
▁weekend	-9.87175
▁guy	-9.87221
▁kiss	-9.87252
▁kitchen	-9.87487
▁londres	-9.87487
▁voz	-9.87487
▁abrió	-9.87488
▁cine	-9.87488
▁knife	-9.8749
▁london	-9.87491
▁desearía	-9.87499
▁estábamos	-9.87508
▁venido	-9.87509
▁lamento	-9.87539
▁vayas	-9.87559
▁promised	-9.87647
▁viajar	-9.87687
▁mantener	-9.87731
▁casado	-9.87833
▁eggs	-9.8794
▁worth	-9.87963
▁capital	-9.88069
tú	-9.88121
▁esos	-9.88157
crees	-9.88171
▁less	-9.8826
▁simple	-9.88457
▁writing	-9.88518
▁llegué	-9.88518
▁comido	-9.88519
▁ambos	-9.88521
ro	-9.88632
▁singing	-9.88661
▁hiciera	-9.89142
▁abrir	-9.89334
▁fight	-9.89418
▁empieza	-9.8956
▁traje	-9.89635
▁sense	-9.8971
▁passed	-9.89718
▁recordar	-9.89819
▁tie	-9.89947
▁huevos	-9.90021
▁diga	-9.90026
▁opinion	-9.90269
▁partido	-9.90336
▁dejes	-9.90463
▁serious	-9.90574
▁wake	-9.90613
▁escritorio	-9.90613
▁suele	-9.90636
▁worse	-9.90647
▁hiding	-9.90662
▁ideas	-9.90676
▁tenés	-9.90782
▁manzanas	-9.90838
▁doubt	-9.90877
▁though	-9.90945
querés	-9.91192
▁morir	-9.91279
▁esas	-9.91303
▁alta	-9.91384
▁machine	-9.91394
▁manzana	-9.91449
▁begin	-9.91457
▁success	-9.91673
▁impossible	-9.91676
▁corriendo	-9.91677
▁abrigo	-9.91678
▁siguió	-9.9168
▁sitting	-9.91718
▁suelo	-9.9173
▁respecto	-9.91733
▁dile	-9.91774
▁also	-9.91799
▁grandes	-9.91887
▁llaves	-9.92036
ya	-9.92065
▁apples	-9.92129
▁cocinar	-9.92366
tiene	-9.92463
▁silla	-9.92516
▁except	-9.9275
▁medicine	-9.92752
▁soccer	-9.92752
▁written	-9.92752
▁coat	-9.92752
▁hablo	-9.92755
▁desayuno	-9.92756
▁hacía	-9.9276
▁intentó	-9.92762
▁bailar	-9.92771
▁carry	-9.92775
▁listening	-9.92948
▁pareces	-9.93327
▁lleno	-9.93638
▁bird	-9.93641
▁contar	-9.93718
▁amable	-9.93775
▁estuviera	-9.93842
▁aquella	-9.93869
▁sun	-9.93877
▁tendrá	-9.93897
▁serio	-9.93918
▁saben	-9.93928
▁consider	-9.94181
▁chicos	-9.94306
tion	-9.94365
▁derecho	-9.9473
▁afuera	-9.94784
▁clima	-9.94845
▁bebe	-9.94906
▁foreign	-9.94923
▁corazón	-9.94938
▁propia	-9.94938
▁siguiente	-9.94938
▁caliente	-9.94938
▁trató	-9.94938
▁jefe	-9.94941
▁funciona	-9.95004
unque	-9.95091
▁liked	-9.95271
para	-9.95284
▁taken	-9.95415
▁gas	-9.95445
▁matar	-9.95584
▁fotos	-9.95841
▁rojo	-9.95846
▁piece	-9.95873
▁ninguno	-9.96049
▁cielo	-9.96049
▁detrás	-9.96049
▁felices	-9.96053
▁ocho	-9.96056
▁supongo	-9.96138
▁expected	-9.96202
alguna	-9.9669
▁past	-9.96831
ha	-9.96873
▁paciente	-9.96943
▁chocolate	-9.96957
▁mensaje	-9.96957
▁chair	-9.96978
▁teach	-9.96997
▁count	-9.97057
▁happens	-9.97077
▁save	-9.9708
▁church	-9.97172
▁viendo	-9.97176
▁olvidó	-9.97185
▁quedarme	-9.97232
▁noticias	-9.97235
▁comprado	-9.97355
▁months	-9.97466
▁salt	-9.97563
▁dicen	-9.97623
▁irse	-9.9763
▁cause	-9.97862
▁waste	-9.97901
▁tierra	-9.98098
▁message	-9.98121
▁brazo	-9.98146
▁precio	-9.98148
▁foot	-9.98206
▁iré	-9.98252
▁smart	-9.98308
▁iglesia	-9.98309
▁sky	-9.98309
▁francia	-9.98309
▁éste	-9.98309
▁mirando	-9.98332
▁confiar	-9.98408
▁walking	-9.98644
▁american	-9.98689
▁amo	-9.98812
podría	-9.98957
▁languages	-9.99007
▁public	-9.99125
▁keys	-9.99191
▁torta	-9.99193
▁caro	-9.99239
▁horse	-9.99304
▁diciendo	-9.99459
▁bread	-9.99459
▁segura	-9.99485
▁favorita	-9.99516
▁ball	-9.99523
▁correcto	-9.99667
▁france	-9.99719
▁correr	-9.99854
▁girls	-9.99876
▁querés	-9.99996
▁perfect	-10.0022
▁quiera	-10.003
▁quedé	-10.0036
or	-10.0039
▁animal	-10.0043
▁sentence	-10.0046
▁contento	-10.0047
▁tras	-10.0054
▁gun	-10.0056
▁across	-10.0062
▁thousand	-10.0062
▁comiendo	-10.0062
▁easily	-10.0062
▁poca	-10.0063
▁shop	-10.0063
▁pescado	-10.0065
▁mil	-10.0074
▁pared	-10.0088
con	-10.0097
▁pictures	-10.0143
▁hermanos	-10.0149
▁smile	-10.0149
▁fault	-10.0164
▁negro	-10.0166
▁periódico	-10.0167
▁domingo	-10.0168
▁join	-10.0178
▁empleo	-10.018
▁necesario	-10.018
▁shot	-10.018
▁boss	-10.018
▁escribió	-10.0181
▁novio	-10.0181
▁comenzó	-10.0182
▁refused	-10.0185
▁pretend	-10.0188
▁ves	-10.0208
▁lend	-10.0214
▁happening	-10.0214
▁reglas	-10.0218
cia	-10.0232
▁cuál	-10.0245
▁sounds	-10.0255
▁llega	-10.028
▁abierta	-10.0282
us	-10.0287
▁osaka	-10.0299
▁choose	-10.0299
▁sacó	-10.0299
▁suena	-10.0299
▁habló	-10.0299
▁pueblo	-10.0299
▁boyfriend	-10.03
▁normalmente	-10.0303
▁carefully	-10.0307
▁necesitaba	-10.0307
▁law	-10.0309
▁domingos	-10.031
▁dejado	-10.0312
▁estés	-10.0315
▁gana	-10.0315
▁remind	-10.0322
▁nació	-10.0379
▁surprise	-10.0389
est	-10.0403
▁voice	-10.0406
▁vuelve	-10.0407
▁piso	-10.0407
▁pizza	-10.0407
▁amiga	-10.0408
▁anciano	-10.0409
▁bath	-10.0412
▁significa	-10.0414
▁prisa	-10.042
▁almorzar	-10.042
▁leído	-10.0421
▁novela	-10.0422
▁quedarse	-10.0424
▁inside	-10.0431
▁cream	-10.0466
▁warm	-10.0476
▁usa	-10.0502
▁novel	-10.052
▁noticia	-10.0534
▁parar	-10.054
▁enemy	-10.0541
▁hicieron	-10.0541
▁claro	-10.0542
▁simplemente	-10.0545
▁pon	-10.0551
▁ride	-10.0588
▁pas	-10.0595
▁quiet	-10.0603
▁verme	-10.0604
▁date	-10.0608
▁honest	-10.0614
▁yours	-10.0653
▁hundred	-10.0657
▁pobre	-10.0658
▁quedar	-10.0659
▁college	-10.0665
▁future	-10.0665
▁tarta	-10.0665
▁chinese	-10.0665
▁ayudó	-10.0666
▁campo	-10.0667
iendo	-10.067
▁contó	-10.0672
vimos	-10.0674
▁c	-10.0697
less	-10.072
▁cartas	-10.0726
▁echar	-10.0734
▁escrito	-10.0746
▁remain	-10.0773
▁president	-10.0785
▁heavy	-10.079
▁asiento	-10.0791
▁somewhere	-10.0791
▁suddenly	-10.0791
▁slowly	-10.0792
▁fear	-10.0792
▁evitar	-10.0792
▁vosotros	-10.0793
▁llegado	-10.0793
▁demás	-10.0796
▁laughed	-10.0799
th	-10.0801
▁cooking	-10.0806
ncluso	-10.0885
▁sign	-10.0887
▁gustaba	-10.0896
▁escape	-10.0902
▁difference	-10.0906
▁caballo	-10.0913
▁eye	-10.0915
▁couple	-10.0916
▁encontrado	-10.0916
▁marry	-10.0917
▁policeman	-10.0917
▁translate	-10.0917
▁cita	-10.0918
▁américa	-10.092
▁presidente	-10.0921
▁standing	-10.0936
▁sentía	-10.0936
▁varia	-10.0942
▁stolen	-10.0944
▁buenos	-10.0954
▁decirme	-10.096
ás	-10.0986
acaso	-10.0995
▁wor	-10.1
▁fat	-10.1025
▁llegue	-10.1036
▁helado	-10.1038
▁borracho	-10.104
▁bridge	-10.1041
▁propio	-10.1042
▁newspaper	-10.1043
▁empty	-10.1045
▁actually	-10.1046
▁humor	-10.1049
▁escribe	-10.1052
▁failed	-10.1053
▁entered	-10.1055
▁none	-10.1056
▁beat	-10.1069
▁fuimos	-10.1069
▁escucha	-10.1086
▁entiende	-10.1132
▁ama	-10.1148
in	-10.1154
▁fix	-10.1162
▁rock	-10.117
▁regret	-10.1172
▁querría	-10.1173
▁twenty	-10.1174
▁azúcar	-10.1174
▁experiencia	-10.1174
▁lloviendo	-10.1174
▁earth	-10.1175
▁necessary	-10.1175
▁marido	-10.1175
▁eight	-10.1175
▁idioma	-10.1175
▁blood	-10.1175
▁verdaderamente	-10.1175
▁mouth	-10.1177
▁habrá	-10.1177
▁pesar	-10.1177
▁estudia	-10.1186
▁pescar	-10.1187
▁shower	-10.1192
▁green	-10.1233
▁correct	-10.1236
▁semanas	-10.1256
▁experience	-10.129
▁puente	-10.1302
▁prison	-10.1304
▁dejé	-10.1306
▁futuro	-10.1306
▁nervous	-10.1306
▁público	-10.1306
▁funny	-10.1306
▁daño	-10.1306
▁acostumbrado	-10.1306
▁check	-10.1306
▁prueba	-10.1307
▁casó	-10.1307
▁price	-10.1308
▁smell	-10.1308
▁sugar	-10.1308
bajo	-10.1318
▁paseo	-10.1322
▁limpiar	-10.1327
▁toca	-10.1334
▁aware	-10.1345
▁report	-10.135
▁volveré	-10.1352
▁plans	-10.1376
▁siente	-10.1403
▁compras	-10.1407
▁brothers	-10.1423
▁german	-10.1432
▁t	-10.1432
▁enfermedad	-10.1433
▁fly	-10.1433
▁luna	-10.1436
▁enfadado	-10.1437
▁durmiendo	-10.1439
▁button	-10.1442
▁correo	-10.1449
▁llevo	-10.1451
▁larga	-10.1452
▁ayudarme	-10.1461
▁moved	-10.1464
▁leaves	-10.1465
▁ley	-10.1479
▁eats	-10.1535
▁hará	-10.1544
▁sentí	-10.1557
ought	-10.157
co	-10.157
▁enamorado	-10.1577
▁orgulloso	-10.1578
▁pájaro	-10.1581
▁fall	-10.1581
▁ponga	-10.1584
▁dientes	-10.159
▁sino	-10.1633
▁india	-10.167
▁haces	-10.1672
▁luego	-10.1711
▁proyecto	-10.1711
▁storm	-10.1711
▁kyoto	-10.1712
▁tormenta	-10.1712
▁bolsa	-10.1713
▁bottle	-10.1718
▁wonderful	-10.1719
▁joke	-10.1719
▁gift	-10.1722
▁perfecto	-10.1727
▁viste	-10.174
▁guys	-10.1748
ting	-10.177
▁dad	-10.1792
▁clock	-10.181
▁veía	-10.1812
▁seas	-10.1818
▁vario	-10.1819
▁decide	-10.1847
▁enferma	-10.185
▁stood	-10.185
▁veinte	-10.185
▁negó	-10.185
▁zoo	-10.185
▁grew	-10.185
▁wallet	-10.185
▁llegará	-10.1851
▁dijeron	-10.1853
▁blind	-10.1853
▁famoso	-10.1858
▁contacto	-10.1859
▁recuerda	-10.1859
▁diferente	-10.186
▁sentado	-10.186
▁kissed	-10.1867
▁means	-10.1883
▁dado	-10.1883
▁buenas	-10.1898
▁prestar	-10.1939
▁vimos	-10.194
▁especial	-10.1981
▁azul	-10.1984
▁owe	-10.1985
▁deep	-10.1987
▁corbata	-10.1991
▁sintió	-10.1992
▁agradable	-10.1997
▁received	-10.1998
▁vivía	-10.2002
▁list	-10.201
▁bother	-10.2017
▁verlo	-10.2029
▁llena	-10.2034
▁decirte	-10.2062
▁staying	-10.2071
▁mejores	-10.2081
▁murder	-10.212
▁borrow	-10.2121
▁attend	-10.2122
▁arma	-10.2123
▁discuss	-10.2124
▁planes	-10.2131
▁abuela	-10.2134
▁jackson	-10.2134
▁taught	-10.2134
▁prometió	-10.2134
▁worst	-10.2135
▁matemáticas	-10.2139
▁grave	-10.2141
▁native	-10.2143
▁bonita	-10.2145
▁preocupado	-10.2148
▁botella	-10.2148
▁herido	-10.2156
▁king	-10.2159
▁fact	-10.216
▁calm	-10.2178
▁igual	-10.2186
▁europe	-10.2266
▁valor	-10.2272
▁charge	-10.2274
▁tuviera	-10.2279
▁beginning	-10.2279
▁oferta	-10.2279
▁diferencia	-10.2281
▁creía	-10.2281
▁sight	-10.2287
▁smiled	-10.2297
▁paso	-10.2301
ce	-10.2304
▁bar	-10.2304
▁birds	-10.2306
▁depende	-10.2311
▁dios	-10.2321
▁pone	-10.2333
▁watched	-10.2342
▁temo	-10.2381
▁ayude	-10.2393
▁conocí	-10.2411
ieron	-10.2417
▁speech	-10.2418
▁discurso	-10.2426
▁levantó	-10.2426
▁nueve	-10.2426
▁decidido	-10.2426
▁planning	-10.2426
▁common	-10.2426
▁inmediatamente	-10.2426
▁totalmente	-10.2427
▁quise	-10.2427
▁soup	-10.2428
▁tratando	-10.2428
▁aceptar	-10.2435
▁fruit	-10.2437
▁bill	-10.2444
▁line	-10.2447
▁alegr	-10.2453
▁hang	-10.2508
▁parado	-10.2511
▁yen	-10.2528
▁cuidar	-10.2549
▁top	-10.2554
▁común	-10.2573
▁village	-10.2575
▁encima	-10.2575
▁europa	-10.2575
▁llueve	-10.2575
▁máquina	-10.2575
▁tampoco	-10.2575
▁spring	-10.2575
▁information	-10.2575
▁información	-10.2575
▁built	-10.2576
▁neither	-10.2576
▁sopa	-10.2578
▁podrá	-10.2582
▁film	-10.2589
▁cambio	-10.2593
▁trees	-10.2598
urante	-10.2606
▁fit	-10.2622
▁haberlo	-10.2622
▁deje	-10.2633
▁feelings	-10.2641
▁succeed	-10.2714
▁exam	-10.2721
▁silencio	-10.2727
▁assume	-10.2727
▁cheese	-10.2727
▁roto	-10.2727
▁sorprendió	-10.2727
▁guapa	-10.2727
▁anywhere	-10.2728
▁moon	-10.2728
▁enseñó	-10.2729
▁cierra	-10.273
▁hago	-10.2733
▁tuyo	-10.2757
▁volverá	-10.2766
▁god	-10.2778
▁weeks	-10.2786
eso	-10.282
▁dan	-10.2826
▁grow	-10.283
alguien	-10.2832
▁comí	-10.2852
▁sepa	-10.2868
▁crowd	-10.287
▁alemán	-10.2881
▁repente	-10.2881
▁studied	-10.2881
▁shall	-10.2881
▁mintiendo	-10.2881
▁paz	-10.2881
▁apartment	-10.2881
▁enojado	-10.2881
▁soportar	-10.2882
▁single	-10.2888
▁type	-10.289
▁sentimientos	-10.2892
▁picnic	-10.2897
p	-10.2897
▁carrera	-10.29
▁darle	-10.29
▁rang	-10.2902
▁enemigo	-10.2905
▁rey	-10.2905
▁olvidé	-10.2912
▁resto	-10.292
▁lavar	-10.2923
▁hacen	-10.2954
▁bear	-10.2974
▁deserve	-10.3022
▁usual	-10.303
▁conocido	-10.3037
▁fuji	-10.3037
▁primavera	-10.3037
▁project	-10.3037
▁slept	-10.3037
▁sorpresa	-10.3037
▁botón	-10.3037
▁grandmother	-10.3037
▁respect	-10.3038
▁quedarte	-10.3049
▁sorprendido	-10.3062
▁ésta	-10.3063
▁junto	-10.3067
▁odia	-10.3069
▁plays	-10.3071
▁fill	-10.31
▁andar	-10.3105
▁abajo	-10.3134
▁forgive	-10.3155
▁welcome	-10.3181
▁menor	-10.319
▁estáis	-10.3195
▁bosque	-10.3196
▁history	-10.3196
▁yellow	-10.3196
▁guilty	-10.3196
▁adelante	-10.3196
▁ganó	-10.3196
▁tonto	-10.3197
▁lentes	-10.3198
▁teeth	-10.3198
▁rule	-10.3207
▁nine	-10.321
▁locked	-10.3211
▁despierto	-10.3217
▁web	-10.3221
▁deseo	-10.3225
▁pelota	-10.323
▁cualquiera	-10.3235
▁puedas	-10.3262
▁tengas	-10.3278
▁likely	-10.328
▁leg	-10.3282
▁cards	-10.3301
▁baja	-10.3318
▁apologize	-10.3342
▁convince	-10.3342
▁coger	-10.3344
▁funeral	-10.3357
▁vuelto	-10.3357
▁bike	-10.3357
▁fence	-10.3357
▁resfriado	-10.3357
▁earlier	-10.3357
▁immediately	-10.3357
▁wedding	-10.3358
▁saturday	-10.3381
▁agreed	-10.3386
▁segundo	-10.3388
▁alegra	-10.3391
▁painting	-10.3397
▁duda	-10.3408
ré	-10.3409
▁sonó	-10.3414
▁verde	-10.3415
▁olvides	-10.3418
▁player	-10.3434
▁drinks	-10.3441
ver	-10.347
▁crime	-10.3482
▁películas	-10.3482
▁tomado	-10.3498
▁pájaros	-10.3513
▁pocos	-10.352
▁jóvenes	-10.3521
▁vuestra	-10.3521
▁seguridad	-10.3521
▁mitad	-10.3521
▁premio	-10.3521
hrew	-10.3522
▁intención	-10.3522
▁held	-10.3522
▁prestado	-10.3523
▁star	-10.3524
▁throw	-10.3524
▁mom	-10.3544
án	-10.3552
▁pintura	-10.3553
▁quitó	-10.3556
▁finger	-10.3557
▁ojo	-10.3561
▁idiota	-10.3562
▁tratar	-10.3581
▁sabemos	-10.3606
cogió	-10.3607
▁hacerte	-10.3635
▁breath	-10.3655
▁pertenece	-10.366
▁cars	-10.3672
▁conocía	-10.3685
▁despacio	-10.3687
▁medicina	-10.3687
▁prisión	-10.3687
▁ahead	-10.3687
▁classroom	-10.3688
▁satisfied	-10.3688
▁olvidado	-10.3689
▁escuchando	-10.3689
▁ladrón	-10.369
▁taller	-10.369
▁position	-10.3691
▁intentar	-10.3695
▁ech	-10.3699
▁painted	-10.3701
▁tele	-10.3702
idad	-10.3704
▁returned	-10.3715
▁grupo	-10.3722
▁esperanza	-10.3722
▁estudio	-10.3723
▁vieja	-10.3723
▁admit	-10.3733
▁otras	-10.3735
▁asking	-10.3781
▁alarm	-10.3788
▁rid	-10.3789
▁negocios	-10.3798
▁queso	-10.3823
▁computador	-10.3837
1	-10.3846
▁ordenador	-10.385
▁woke	-10.3857
▁oyó	-10.3857
▁cruel	-10.3857
▁rápidamente	-10.3858
▁diario	-10.3858
▁hermoso	-10.3858
▁extra	-10.3859
▁boat	-10.3859
▁culpable	-10.3861
▁paint	-10.3861
béis	-10.3867
▁allowed	-10.3871
▁tears	-10.3871
▁árboles	-10.3873
▁museo	-10.389
▁museum	-10.389
▁vuestro	-10.3898
▁listened	-10.3899
▁fired	-10.392
▁oro	-10.3958
▁alcohol	-10.3959
▁interesa	-10.3981
▁special	-10.4005
b	-10.4025
les	-10.4025
▁veré	-10.4026
▁support	-10.4029
▁ashamed	-10.4029
▁canadá	-10.4029
▁escuchó	-10.4029
▁furniture	-10.4029
▁izquierda	-10.4029
▁multitud	-10.4029
▁paciencia	-10.4029
▁gustó	-10.4029
▁government	-10.4029
f	-10.403
▁kioto	-10.403
▁memoria	-10.403
▁personal	-10.403
▁cansada	-10.403
▁juega	-10.4031
▁digo	-10.4032
▁faster	-10.4034
▁harder	-10.4041
▁laugh	-10.4049
▁picked	-10.4052
▁dressed	-10.4062
▁allow	-10.4062
era	-10.4067
▁espalda	-10.4072
son	-10.4073
▁tema	-10.408
▁miles	-10.4086
▁enviar	-10.409
▁wears	-10.4118
▁enter	-10.4145
▁peace	-10.4182
▁ellas	-10.4183
▁cerrar	-10.4197
▁sientes	-10.4203
▁alemania	-10.4205
▁gafas	-10.4205
▁tráfico	-10.4205
▁university	-10.4205
▁bajó	-10.4205
▁quiso	-10.4205
▁headache	-10.4205
▁cambiado	-10.4206
▁raro	-10.4207
▁oscuro	-10.4207
▁germany	-10.4209
▁avoid	-10.4209
▁probable	-10.4212
▁covered	-10.4214
▁casarse	-10.4216
▁noticed	-10.422
▁washing	-10.4223
▁vayamos	-10.4223
▁decid	-10.4226
▁honesto	-10.4231
▁correcta	-10.4238
▁preferiría	-10.4241
▁amaba	-10.4241
▁nervioso	-10.4245
▁principio	-10.4246
▁lied	-10.4248
▁roja	-10.4251
▁liar	-10.4267
▁hablan	-10.4284
▁platos	-10.4288
▁nuevos	-10.4302
▁forever	-10.4306
▁100	-10.4331
▁merece	-10.4331
▁rains	-10.4335
▁judge	-10.4361
▁fond	-10.4373
▁absent	-10.4383
▁arroz	-10.4383
▁courage	-10.4383
▁vuelo	-10.4383
▁fresh	-10.4383
▁spanish	-10.4383
▁video	-10.4383
▁rice	-10.4383
▁aprendí	-10.4383
▁robado	-10.4384
▁prize	-10.4384
▁unfortunately	-10.4384
▁subject	-10.4384
▁mostró	-10.4385
▁sonrió	-10.4385
▁interesado	-10.4387
▁complaining	-10.4389
▁tía	-10.439
▁golpeó	-10.4392
▁scared	-10.4393
▁buscar	-10.4398
▁theater	-10.4402
▁aunt	-10.4405
▁suit	-10.4426
▁wood	-10.4434
▁canada	-10.4438
▁levanta	-10.4451
▁podés	-10.4515
▁traer	-10.4522
▁stole	-10.4526
▁corta	-10.4558
▁pastel	-10.4559
▁post	-10.4562
▁body	-10.4565
▁course	-10.4565
▁delicious	-10.4565
▁ejercicio	-10.4565
▁friday	-10.4565
▁introduce	-10.4565
▁japoneses	-10.4565
▁permiso	-10.4565
▁sofá	-10.4565
▁sucedió	-10.4565
▁viento	-10.4565
▁viernes	-10.4565
▁boring	-10.4565
▁gobierno	-10.4565
▁brush	-10.4565
▁horrible	-10.4565
▁caminando	-10.4566
▁solución	-10.4567
ia	-10.4569
▁bedroom	-10.4569
▁preguntaba	-10.4575
bido	-10.4582
▁vegetables	-10.4586
▁abre	-10.4592
▁explained	-10.4593
▁island	-10.4599
▁paró	-10.4605
▁ended	-10.4607
▁pair	-10.4611
▁map	-10.4613
ciones	-10.4614
▁ring	-10.4617
▁chino	-10.4617
▁trampa	-10.4617
▁llamada	-10.4619
▁soldiers	-10.4629
▁soldados	-10.4629
▁rent	-10.4633
rá	-10.4643
▁profesora	-10.4652
▁sacar	-10.4661
todavía	-10.4702
▁bare	-10.4717
▁sang	-10.4722
▁windows	-10.4736
▁notice	-10.474
▁natural	-10.4741
▁luck	-10.4747
▁cáncer	-10.475
▁encuentro	-10.475
▁hobby	-10.475
▁innocent	-10.475
▁license	-10.475
▁purpose	-10.475
▁sonrisa	-10.475
▁straight	-10.475
▁truck	-10.475
▁dropped	-10.4751
▁guste	-10.4751
▁consiguió	-10.4751
▁jacket	-10.4751
▁llorando	-10.4751
▁chicago	-10.4751
▁corrió	-10.4752
▁hielo	-10.4752
▁middle	-10.4752
▁centro	-10.4752
▁invite	-10.4754
▁disappointed	-10.4755
▁cargo	-10.4756
▁arrested	-10.4759
▁cancer	-10.4759
▁ex	-10.4769
▁missing	-10.4781
▁wind	-10.4781
▁raise	-10.4787
▁entera	-10.4796
▁corto	-10.4799
▁chicas	-10.4802
▁preparado	-10.4803
▁bolígrafo	-10.4804
mong	-10.4823
▁tra	-10.4826
▁escaleras	-10.4828
▁sports	-10.4836
▁answered	-10.4836
▁conocen	-10.4849
▁arreglar	-10.4854
▁español	-10.4878
▁familiar	-10.4897
▁corre	-10.4904
▁heat	-10.4938
▁aburrido	-10.4939
▁hicimos	-10.4939
▁instead	-10.4939
▁stuck	-10.4939
▁understood	-10.4939
▁recognize	-10.4939
▁profundamente	-10.494
▁actor	-10.4943
▁race	-10.4943
▁desayunar	-10.4943
▁yenes	-10.4947
▁reached	-10.4948
▁madera	-10.4951
▁bella	-10.4964
▁darme	-10.4969
▁limpia	-10.497
▁ordered	-10.497
▁nuestras	-10.4975
▁lee	-10.4986
▁discutir	-10.4991
▁rara	-10.4993
▁frase	-10.4996
▁verdadero	-10.4999
▁fruta	-10.4999
▁promesa	-10.5
▁pierna	-10.5
▁flower	-10.5002
▁casada	-10.5004
▁cd	-10.5024
▁belongs	-10.5028
▁ducha	-10.5041
▁permitir	-10.5059
▁duerme	-10.509
▁legs	-10.5098
▁partir	-10.5113
▁appreciate	-10.5116
▁attack	-10.5119
▁drop	-10.5121
▁explanation	-10.5131
▁frecuencia	-10.5131
▁injured	-10.5131
▁inocente	-10.5131
▁intelligent	-10.5131
▁lápiz	-10.5131
▁tarjeta	-10.5131
▁llame	-10.5131
▁viviendo	-10.5131
▁sweater	-10.5132
▁isla	-10.5132
▁linda	-10.5133
▁dishes	-10.5133
▁mirar	-10.5134
▁manejar	-10.5137
k	-10.5139
▁seriously	-10.5139
▁low	-10.5148
▁extreme	-10.5151
▁saved	-10.5158
▁países	-10.5161
▁cerrada	-10.5191
▁singer	-10.5195
▁lock	-10.5202
▁contact	-10.5221
aste	-10.5241
▁dedo	-10.5249
▁conocer	-10.5268
▁agrada	-10.528
▁af	-10.5293
▁san	-10.5294
ful	-10.5307
▁parecen	-10.531
▁fail	-10.5315
▁general	-10.5322
▁cool	-10.5326
▁account	-10.5327
▁chaqueta	-10.5327
▁consciente	-10.5327
▁cuerpo	-10.5327
▁japonesa	-10.5327
▁midnight	-10.5327
▁opción	-10.5327
▁segunda	-10.5327
▁cash	-10.5327
▁duty	-10.5327
▁cortó	-10.5327
▁stick	-10.5328
▁respondió	-10.5328
▁conductor	-10.5328
▁recently	-10.5328
▁power	-10.5329
▁absolutely	-10.5329
▁mapa	-10.5339
▁averiguar	-10.5343
▁sangre	-10.5344
▁tenéis	-10.5345
▁tuya	-10.5355
▁pies	-10.5358
▁enseñar	-10.537
▁crimen	-10.5375
▁explicar	-10.5377
▁comenzar	-10.5384
▁orden	-10.5388
▁exercise	-10.539
▁cantante	-10.5392
▁rica	-10.5392
▁incendio	-10.5392
▁satisfecho	-10.5392
▁nativo	-10.5393
▁pencil	-10.5394
▁encuentra	-10.5395
▁broma	-10.5395
▁negocio	-10.5399
▁mentira	-10.5402
▁speaker	-10.5408
▁romper	-10.5409
▁f	-10.5436
▁irte	-10.5456
ford	-10.5476
▁precios	-10.5481
esto	-10.5482
▁believed	-10.5489
▁fool	-10.5514
▁hung	-10.5525
▁awake	-10.5527
▁chicken	-10.5527
▁england	-10.5527
▁escuché	-10.5527
▁harvard	-10.5527
▁behavior	-10.5527
▁medianoche	-10.5527
▁space	-10.5528
▁escribiendo	-10.5528
▁dirty	-10.5528
▁explicación	-10.5528
▁accused	-10.5528
▁bigger	-10.5529
▁huele	-10.553
▁entire	-10.553
▁bored	-10.5531
▁sooner	-10.554
▁elegir	-10.5542
▁convinced	-10.5546
▁fighting	-10.5547
él	-10.556
▁darte	-10.5573
▁sold	-10.5581
▁employees	-10.5582
▁group	-10.5597
▁entrada	-10.5599
▁flor	-10.5604
▁intenta	-10.5611
▁keeps	-10.5622
▁hables	-10.5637
robó	-10.5655
▁necesitan	-10.5671
podemos	-10.5683
▁cruz	-10.571
▁decidir	-10.5722
▁hid	-10.5729
▁gold	-10.573
▁idiomas	-10.573
▁accord	-10.5731
▁view	-10.5731
▁toilet	-10.5731
▁nací	-10.5732
▁pasaporte	-10.5732
▁passport	-10.5732
▁copy	-10.5732
▁descanso	-10.5732
▁dispuesto	-10.5733
▁salvo	-10.5733
id	-10.5734
▁shy	-10.5734
▁card	-10.5736
▁healthy	-10.574
ted	-10.5742
▁human	-10.5755
▁accepted	-10.5759
▁convencer	-10.578
▁empleados	-10.5798
▁cuerda	-10.58
▁línea	-10.5804
▁boda	-10.5804
▁cookies	-10.5807
▁modo	-10.5811
▁hey	-10.5834
▁yes	-10.5836
▁dreams	-10.5856
▁dices	-10.586
▁agarr	-10.5871
ría	-10.5873
▁bell	-10.5886
▁art	-10.5893
▁protect	-10.5896
▁relax	-10.5917
▁compare	-10.5929
▁knock	-10.5931
▁fair	-10.5936
▁prices	-10.5936
▁escapar	-10.5939
▁espacio	-10.594
▁inglaterra	-10.594
▁themselves	-10.594
▁mood	-10.594
▁murieron	-10.594
▁billetera	-10.594
▁size	-10.5943
▁sisters	-10.5944
▁hazlo	-10.5946
▁aprendiendo	-10.5947
▁pedirle	-10.5947
▁ocultar	-10.5948
▁laughing	-10.5951
▁querías	-10.5952
▁harm	-10.5967
▁daré	-10.5969
▁pintar	-10.5977
ió	-10.5979
▁feels	-10.6
▁risk	-10.6017
▁página	-10.602
▁handed	-10.6023
▁resultado	-10.6024
▁deporte	-10.6026
".	-10.6049
▁irá	-10.6058
▁volar	-10.6061
ca	-10.6076
▁encantan	-10.6077
adamente	-10.6092
▁trae	-10.6094
.000	-10.6099
▁italia	-10.6109
▁anda	-10.6113
▁apareció	-10.612
▁hermanas	-10.6147
▁cien	-10.6151
giving	-10.6152
▁lonely	-10.6153
▁cambió	-10.6153
▁casualidad	-10.6153
▁derecha	-10.6153
▁fresco	-10.6153
▁monte	-10.6153
▁involved	-10.6155
▁italy	-10.6155
▁explicó	-10.6156
▁acabó	-10.6157
▁motor	-10.6158
▁mató	-10.6158
▁recibió	-10.6158
▁pregunté	-10.6159
▁bote	-10.6164
▁preocupes	-10.6166
▁solas	-10.6169
▁fuiste	-10.6171
▁expecting	-10.6176
▁canciones	-10.6183
▁vuelva	-10.6196
▁idiot	-10.622
ella	-10.6232
▁gusto	-10.6232
▁política	-10.6235
▁bonito	-10.6235
▁sábado	-10.6237
▁muchacho	-10.6237
▁importar	-10.6244
▁luces	-10.6251
▁piernas	-10.63
jo	-10.6308
▁talks	-10.631
▁vivid	-10.6313
▁ventanas	-10.6342
▁tanta	-10.6345
▁sentir	-10.6354
▁treat	-10.6355
▁mente	-10.6362
▁absoluta	-10.637
▁cárcel	-10.637
▁dancing	-10.637
▁fiebre	-10.637
▁genial	-10.637
▁seldom	-10.637
▁asesinato	-10.637
▁propuesta	-10.637
▁bromeando	-10.637
▁perdón	-10.637
▁suicide	-10.637
▁vine	-10.6371
▁robaron	-10.6372
▁butter	-10.6373
▁fría	-10.6373
▁oil	-10.6373
ación	-10.6376
▁prove	-10.6384
▁arte	-10.6391
▁fed	-10.6392
▁considered	-10.6396
▁pasamos	-10.6399
▁pasará	-10.6414
▁begins	-10.6418
▁recibir	-10.6419
prendió	-10.6444
▁casar	-10.6445
▁leí	-10.6446
▁rained	-10.6454
▁flight	-10.6455
▁magazine	-10.6459
▁maleta	-10.646
▁calling	-10.6478
▁lack	-10.6483
▁suyo	-10.6483
▁hablas	-10.651
▁hablado	-10.6512
na	-10.6554
▁uso	-10.6554
▁honor	-10.6577
▁das	-10.6579
los	-10.6581
▁cheap	-10.6591
▁ante	-10.6592
▁comienza	-10.6592
▁countries	-10.6592
▁jealous	-10.6592
▁pérdida	-10.6592
▁sencilla	-10.6592
▁thief	-10.6592
▁roof	-10.6592
▁camión	-10.6592
▁suspect	-10.6592
▁comportamiento	-10.6592
▁oscuridad	-10.6592
▁dudo	-10.6592
▁cometido	-10.6593
▁podé	-10.6593
▁math	-10.6593
▁techo	-10.6598
▁trabajó	-10.66
▁land	-10.6604
▁llamaré	-10.6606
▁fácilmente	-10.6607
▁besó	-10.6611
▁raised	-10.6611
▁muebles	-10.6612
▁dedos	-10.6614
▁eras	-10.6616
▁hagamos	-10.662
amente	-10.6622
áis	-10.6639
▁lay	-10.6655
▁blanca	-10.6682
▁pocket	-10.6686
▁revista	-10.6688
▁preguntar	-10.6697
▁sueños	-10.671
▁admitt	-10.6711
▁meant	-10.6733
conoces	-10.6735
▁conoces	-10.6808
▁útil	-10.6813
▁ciego	-10.6819
▁eventually	-10.6819
▁facilidad	-10.6819
▁football	-10.6819
▁hokkaido	-10.6819
▁inmediato	-10.6819
▁internet	-10.6819
▁ourselves	-10.6819
▁propósito	-10.6819
▁quince	-10.6819
▁famosa	-10.6819
▁mediodía	-10.682
▁memory	-10.682
▁forgotten	-10.682
▁unlikely	-10.682
▁destino	-10.682
▁excelente	-10.682
▁continue	-10.6821
▁fever	-10.6821
▁salido	-10.6821
▁lady	-10.6822
▁ma	-10.6822
▁cried	-10.6822
▁quédate	-10.6822
▁importaría	-10.6822
▁cumplir	-10.6823
▁managed	-10.6827
▁climbed	-10.683
▁cerró	-10.6831
▁lágrimas	-10.6833
▁entero	-10.6835
▁galletas	-10.6836
ies	-10.6854
▁extrem	-10.6872
tu	-10.6888
▁vote	-10.6897
▁exist	-10.6897
▁cortar	-10.69
▁gra	-10.691
▁supiera	-10.6918
▁trozo	-10.6918
▁dulce	-10.692
▁neighbor	-10.6921
▁rumor	-10.6927
▁stranger	-10.6931
▁parada	-10.694
usted	-10.6944
▁games	-10.6969
▁preparar	-10.7004
▁iremos	-10.7027
▁enseña	-10.7033
▁stuff	-10.7037
▁jokes	-10.7038
▁televisor	-10.7044
▁similar	-10.7045
▁canta	-10.7048
go	-10.705
▁rude	-10.7052
▁demasiada	-10.7052
▁solution	-10.7052
▁stairs	-10.7052
▁feet	-10.7052
▁joking	-10.7052
▁step	-10.7052
▁sabido	-10.7052
▁peces	-10.7052
▁recibí	-10.7052
▁denied	-10.7053
▁pegó	-10.7053
▁éstos	-10.7054
▁useful	-10.7054
▁menu	-10.7055
▁delante	-10.7058
▁rope	-10.706
▁forced	-10.7061
▁llamado	-10.7063
▁continued	-10.7069
▁tendré	-10.707
▁subió	-10.7075
▁dieta	-10.7079
▁compraste	-10.7081
▁washed	-10.7083
▁contestar	-10.7084
▁helping	-10.7106
▁extraña	-10.7112
▁sois	-10.7118
▁quedaré	-10.7129
▁willing	-10.7141
▁taste	-10.7145
▁ocupados	-10.7147
▁fábrica	-10.7152
▁habit	-10.7154
▁sweet	-10.7155
▁piedra	-10.7157
▁bolsillo	-10.7157
▁claim	-10.7159
▁kid	-10.716
▁songs	-10.7179
▁losing	-10.7239
▁lenguas	-10.7242
ban	-10.7245
▁dejara	-10.7254
eron	-10.7258
quiera	-10.7262
▁diet	-10.7262
▁appear	-10.7278
▁principal	-10.7283
▁tight	-10.7286
▁visa	-10.7287
▁barato	-10.729
▁comienzo	-10.729
▁discusión	-10.729
▁disparó	-10.729
▁fifteen	-10.729
▁jazz	-10.729
▁particular	-10.729
▁temperatura	-10.729
▁juice	-10.729
▁million	-10.729
▁teatro	-10.729
▁escondiendo	-10.729
▁above	-10.729
▁goodbye	-10.729
▁blew	-10.729
▁corner	-10.7291
▁comfortable	-10.7291
▁pity	-10.7291
▁educación	-10.7291
▁basura	-10.7291
▁trap	-10.7292
▁sushi	-10.7292
▁invitó	-10.7295
▁confused	-10.7295
▁gate	-10.7296
▁pistola	-10.7296
▁describe	-10.7296
▁acabado	-10.73
▁asistir	-10.7302
it	-10.7305
▁últimamente	-10.7306
▁prepared	-10.7311
▁fixed	-10.7313
▁doble	-10.7319
▁escaped	-10.7319
▁mo	-10.7323
▁cometer	-10.733
▁querían	-10.7336
w	-10.7341
▁add	-10.7346
▁doce	-10.7348
▁conduce	-10.7398
▁season	-10.7404
▁letters	-10.7405
vivió	-10.7412
▁hable	-10.7424
cted	-10.7435
▁ayudara	-10.7441
▁debía	-10.7463
ness	-10.7486
▁pelea	-10.7487
▁llamas	-10.7495
bbed	-10.7528
▁correos	-10.7529
▁cruzar	-10.7533
▁accustom	-10.7534
▁appointment	-10.7534
▁hablé	-10.7534
▁llueva	-10.7534
▁obra	-10.7534
▁recommend	-10.7534
▁supermarket	-10.7534
▁supermercado	-10.7534
▁levanté	-10.7534
▁argue	-10.7534
▁distancia	-10.7534
▁pez	-10.7534
▁tongue	-10.7534
▁factory	-10.7534
▁south	-10.7535
▁anyway	-10.7535
▁excited	-10.7535
▁burned	-10.7543
▁brave	-10.7544
▁distance	-10.7547
▁dumb	-10.7555
▁armas	-10.7559
▁vender	-10.7563
quiere	-10.7565
hap	-10.7568
▁beso	-10.757
▁g	-10.7573
▁u	-10.7598
▁aquellos	-10.7599
▁espere	-10.7602
ese	-10.7603
▁mountains	-10.7611
arse	-10.7621
▁preocupa	-10.7623
▁invitados	-10.7637
▁oranges	-10.7641
ga	-10.7643
▁harto	-10.7644
▁traj	-10.7646
▁muñeca	-10.7648
▁earthquake	-10.7649
▁vecino	-10.7653
gged	-10.7654
▁teníamos	-10.7656
▁tastes	-10.7671
▁meaning	-10.7682
▁hacemos	-10.7683
▁programa	-10.7703
tuvieron	-10.7713
▁regresar	-10.7731
▁fingers	-10.7731
▁pinta	-10.7734
yo	-10.7735
▁descubri	-10.7744
▁fingi	-10.7747
▁planea	-10.7765
▁distinguir	-10.7772
▁enorme	-10.7781
▁paga	-10.7781
▁jugador	-10.7783
▁adentro	-10.7784
▁maestro	-10.7784
▁request	-10.7784
▁temperature	-10.7784
▁llamé	-10.7784
▁gratis	-10.7784
▁bathroom	-10.7784
▁gordo	-10.7784
▁illness	-10.7784
▁encontramos	-10.7785
▁ése	-10.7785
▁intenté	-10.7785
▁llámame	-10.7785
▁arriba	-10.7786
▁felicidad	-10.7787
▁happiness	-10.7787
▁jumped	-10.7792
▁drugs	-10.7793
▁bomb	-10.7797
▁llegamos	-10.7798
▁americans	-10.7821
▁lights	-10.7822
ped	-10.7822
▁cola	-10.784
pareció	-10.7843
▁hojas	-10.786
▁míos	-10.786
rse	-10.7864
▁acaso	-10.7881
▁mentiroso	-10.79
▁caballero	-10.7902
▁stone	-10.7907
▁calls	-10.7909
▁cuida	-10.7933
▁condition	-10.7946
ido	-10.7963
time	-10.7964
▁hi	-10.7974
va	-10.8002
ándose	-10.8013
▁pretende	-10.8024
▁tenían	-10.8025
▁obey	-10.8027
▁intend	-10.8028
▁escribí	-10.803
seando	-10.8031
▁absoluto	-10.804
▁ajedrez	-10.804
▁attempt	-10.804
▁avergonzado	-10.804
▁bebida	-10.804
▁cuello	-10.804
▁excellent	-10.804
▁moving	-10.804
▁nosotras	-10.804
▁studies	-10.804
▁esquina	-10.804
▁naked	-10.804
▁lazy	-10.804
▁gentleman	-10.804
▁teoría	-10.804
▁bolso	-10.8041
▁naive	-10.8041
▁email	-10.8041
▁chess	-10.8041
▁someday	-10.8042
▁pre	-10.8042
▁recibido	-10.8042
▁diré	-10.8042
▁preparando	-10.8042
▁discovered	-10.8044
▁esposo	-10.8044
▁levantarse	-10.8045
▁increíble	-10.8045
▁preguntarle	-10.8045
▁mañanas	-10.8047
▁llegaste	-10.8049
▁apuesto	-10.8049
▁hablante	-10.8057
▁loud	-10.8057
▁climate	-10.8062
▁mail	-10.8063
▁pond	-10.8065
▁apagar	-10.8069
▁saberlo	-10.807
▁pleased	-10.8074
▁urgente	-10.808
▁copia	-10.8082
▁vemos	-10.8083
▁pieces	-10.8084
▁contado	-10.8085
▁act	-10.8086
▁descansar	-10.8091
▁mt	-10.8091
▁detalles	-10.8094
▁vete	-10.8116
▁desea	-10.8141
▁hearing	-10.8142
▁culpar	-10.8144
están	-10.816
▁costumbre	-10.8165
▁suitcase	-10.817
▁vacía	-10.817
▁fuerza	-10.817
▁hole	-10.817
▁fotografía	-10.8172
▁metro	-10.8176
▁partes	-10.8189
▁molesta	-10.8197
▁runs	-10.8204
▁farm	-10.8208
▁andando	-10.8211
▁ganado	-10.8214
▁lleve	-10.8222
▁meal	-10.8241
▁imagin	-10.8263
▁cross	-10.8274
▁reserva	-10.8275
▁climb	-10.8281
▁vol	-10.8288
▁reach	-10.8291
▁pull	-10.8296
▁posibilidad	-10.8297
▁allergi	-10.83
▁valiente	-10.83
▁patience	-10.8304
▁proposal	-10.8304
▁resemble	-10.8304
▁examination	-10.8304
▁handsome	-10.8304
▁permission	-10.8304
▁sospechoso	-10.8304
▁menú	-10.8304
▁theory	-10.8304
▁pedido	-10.8304
▁salary	-10.8304
▁awful	-10.8304
▁cubierta	-10.8304
▁anillo	-10.8306
enza	-10.8306
▁cute	-10.8308
▁area	-10.831
▁stealing	-10.831
▁dieron	-10.8311
▁prevented	-10.8311
▁skiing	-10.8313
▁rome	-10.8313
▁suggested	-10.8313
▁bajar	-10.8316
▁record	-10.8323
▁limpio	-10.8325
▁llegaron	-10.8325
▁teaching	-10.8326
▁socks	-10.8327
▁band	-10.8335
▁montar	-10.834
▁dejaré	-10.8343
▁solved	-10.8345
▁drogas	-10.8351
▁mayores	-10.8354
▁trusted	-10.8357
▁friendly	-10.8358
▁ski	-10.8363
▁profesores	-10.8364
nte	-10.8368
▁alcanzar	-10.8369
man	-10.8371
viste	-10.8383
miento	-10.8386
▁matters	-10.8397
ir	-10.8417
▁naranjas	-10.8426
▁dura	-10.8428
las	-10.8432
▁banda	-10.8433
▁mirada	-10.8436
▁cuidadoso	-10.8439
▁terremoto	-10.8439
▁atrapado	-10.844
▁diría	-10.8441
▁cousin	-10.8442
▁skirt	-10.8442
▁holiday	-10.8442
▁vecinos	-10.8444
▁fondo	-10.8451
▁computadora	-10.8454
▁apart	-10.8467
▁golpe	-10.8471
▁arrest	-10.8484
▁sh	-10.8484
▁despertar	-10.8505
▁oh	-10.8513
h	-10.8517
▁sonar	-10.852
▁urgent	-10.8532
▁hogar	-10.8566
▁smells	-10.8569
▁carretera	-10.8574
▁durmió	-10.8574
▁nariz	-10.8574
▁población	-10.8574
▁responsible	-10.8574
▁sistema	-10.8574
▁twelve	-10.8574
▁refrigerator	-10.8574
▁impidió	-10.8574
▁jail	-10.8574
▁sueldo	-10.8574
▁respeto	-10.8574
▁clever	-10.8574
▁guard	-10.8574
▁vistazo	-10.8574
▁profundo	-10.8574
▁grass	-10.8576
▁envió	-10.8576
▁due	-10.8578
▁abandoned	-10.858
▁kick	-10.8584
▁texto	-10.8585
▁clearly	-10.8587
▁imagine	-10.8591
▁deaf	-10.8597
▁attended	-10.8598
▁difficulty	-10.8601
▁verduras	-10.8601
▁sleepy	-10.8604
▁papas	-10.8621
▁duró	-10.8628
▁coge	-10.8632
▁adopt	-10.8645
▁rare	-10.8647
▁casados	-10.8657
▁noon	-10.8663
▁necesitar	-10.8668
▁verg	-10.8668
▁estrellas	-10.87
▁ears	-10.8704
▁ear	-10.8705
▁cuadro	-10.8711
▁artículo	-10.8713
▁dormitorio	-10.8713
▁objetivo	-10.8716
▁page	-10.8719
▁belong	-10.8721
▁plato	-10.8721
▁bomba	-10.8724
▁cabo	-10.8729
▁poema	-10.8731
▁turno	-10.8739
filled	-10.8751
iste	-10.8766
▁debí	-10.8768
▁costs	-10.8794
▁dormí	-10.8818
▁creí	-10.882
,"	-10.8823
▁dry	-10.8842
▁reír	-10.8844
▁slow	-10.8846
▁slight	-10.8847
▁amount	-10.8852
▁disculpe	-10.8852
▁empresa	-10.8852
▁responsable	-10.8852
▁stories	-10.8852
▁system	-10.8852
▁opportunity	-10.8852
▁dying	-10.8852
▁nurse	-10.8852
▁bottom	-10.8852
▁esquiar	-10.8852
▁ipad	-10.8852
▁equivocada	-10.8852
▁confianza	-10.8852
▁agreement	-10.8853
▁preferido	-10.8853
▁cartera	-10.8853
▁neck	-10.8854
▁potatoes	-10.8854
▁upset	-10.8854
▁completo	-10.8854
▁saludable	-10.8857
▁popula	-10.8858
▁listos	-10.8865
▁bang	-10.8865
▁teaches	-10.8868
▁quedado	-10.8869
▁sonido	-10.8872
▁calma	-10.8878
▁esperamos	-10.8879
▁kinds	-10.8882
▁dale	-10.8884
▁levantar	-10.8885
▁probar	-10.8887
▁estuviste	-10.8889
▁requiere	-10.8914
▁depends	-10.8926
▁tickets	-10.8936
▁miembros	-10.8943
ity	-10.8973
▁vengas	-10.8986
▁poem	-10.8992
remos	-10.9001
▁lasted	-10.9004
▁estrella	-10.9006
▁naranja	-10.9006
▁sport	-10.9007
▁rose	-10.901
▁luce	-10.901
▁bite	-10.9027
▁artist	-10.9032
▁hated	-10.9032
▁tomando	-10.9041
ry	-10.9051
▁spends	-10.9052
▁hagan	-10.9064
ook	-10.9064
▁noches	-10.909
▁admiti	-10.9102
▁necesidad	-10.913
▁bright	-10.9135
▁silent	-10.9135
▁airplane	-10.9137
▁cincuenta	-10.9137
▁emergency	-10.9137
▁energy	-10.9137
▁estómago	-10.9137
▁improbable	-10.9137
▁mantequilla	-10.9137
▁neighborhood	-10.9137
▁relación	-10.9137
▁tímido	-10.9137
▁amistad	-10.9137
▁drove	-10.9137
▁inútil	-10.9137
▁musician	-10.9137
▁remedio	-10.9137
▁market	-10.9137
▁hubiese	-10.9137
▁pareja	-10.9137
▁ground	-10.9137
▁orgullosa	-10.9137
▁castillo	-10.9137
▁winning	-10.9137
▁matrimonio	-10.9138
▁convenció	-10.9138
▁prohibido	-10.9138
▁ejemplo	-10.9138
▁castle	-10.9139
▁agradecido	-10.914
▁trago	-10.914
▁huge	-10.914
▁definite	-10.9147
▁ciento	-10.9147
▁passengers	-10.9147
▁querer	-10.9149
▁crossed	-10.9151
▁hill	-10.9153
▁cantando	-10.9154
▁tomé	-10.9154
▁flying	-10.9158
▁weak	-10.9162
▁bebió	-10.9162
▁regalos	-10.9165
bió	-10.917
▁loca	-10.9172
▁classes	-10.9174
▁siga	-10.9176
▁saltó	-10.9179
▁express	-10.9182
▁acordar	-10.9186
▁llen	-10.9188
▁prepare	-10.9216
▁caer	-10.9224
▁alarma	-10.9231
io	-10.9232
este	-10.9234
▁escritor	-10.9239
▁seré	-10.9248
▁hablaba	-10.9255
▁rog	-10.9271
▁nor	-10.9272
▁pasatiempo	-10.9289
▁cab	-10.9289
▁ingenuo	-10.9289
▁viejos	-10.929
▁motivo	-10.9293
▁scientist	-10.9295
▁bienvenido	-10.9296
▁visita	-10.9298
▁photo	-10.93
▁egg	-10.9301
▁huevo	-10.9301
▁neighbors	-10.9302
▁buying	-10.9304
▁uses	-10.9305
▁malas	-10.9307
▁acepta	-10.9313
▁detail	-10.9313
▁abra	-10.9333
▁mover	-10.9341
▁woods	-10.9348
mi	-10.9367
▁stars	-10.9369
▁proteger	-10.9396
▁diferentes	-10.9411
▁complete	-10.9413
▁permite	-10.9415
▁hechos	-10.9422
▁salí	-10.9423
tengo	-10.9423
▁education	-10.943
safortunadamente	-10.9431
▁confío	-10.9431
▁conversation	-10.9431
▁elevator	-10.9431
▁españa	-10.9431
▁falda	-10.9431
▁lloró	-10.9431
▁pantalones	-10.9431
▁plenty	-10.9431
▁pool	-10.9431
▁puntual	-10.9431
▁smiling	-10.9431
▁cabello	-10.9431
▁eleven	-10.9431
▁sofa	-10.9431
▁puzzle	-10.9431
▁subway	-10.9431
▁esperó	-10.9432
▁center	-10.9432
▁example	-10.9432
▁easier	-10.9432
▁fifty	-10.9432
▁spain	-10.9432
▁convencido	-10.9432
▁cantidad	-10.9432
▁thirsty	-10.9432
reció	-10.9432
▁bench	-10.9433
▁puse	-10.9433
▁louder	-10.9433
▁gritó	-10.9433
▁asustado	-10.9433
▁manager	-10.9434
▁pagó	-10.9434
▁stronger	-10.9436
▁compra	-10.9438
▁significado	-10.9441
▁article	-10.9447
▁ignored	-10.945
▁attacked	-10.9451
▁drug	-10.9454
▁camina	-10.9457
▁conocemos	-10.9458
▁millas	-10.9458
▁leyó	-10.9462
▁llevas	-10.9465
▁require	-10.9469
▁visité	-10.9471
▁invitar	-10.9472
▁complain	-10.9477
▁tarda	-10.948
▁entra	-10.9484
▁within	-10.9485
▁forest	-10.9494
▁doll	-10.9494
▁jugo	-10.9512
▁sta	-10.9519
▁autos	-10.9563
▁coma	-10.9566
aré	-10.9594
▁divide	-10.9595
▁intention	-10.9597
▁ésa	-10.9598
▁servicio	-10.9599
▁cierta	-10.9601
▁estúpida	-10.9601
▁esfuerzo	-10.9602
▁estadounidense	-10.9603
▁orange	-10.9603
▁dará	-10.9641
▁press	-10.9658
▁sundays	-10.966
▁roma	-10.9665
▁suya	-10.9673
red	-10.9675
tenés	-10.9686
realmente	-10.9686
▁modern	-10.9712
▁persuade	-10.972
▁suffer	-10.9725
▁ignore	-10.9725
▁main	-10.9725
▁sandwich	-10.9728
▁wise	-10.973
▁sharp	-10.9732
virtió	-10.9733
▁rehus	-10.9734
▁curious	-10.9735
▁huyó	-10.9735
▁ocean	-10.9735
▁paquete	-10.9735
▁rechazó	-10.9735
▁round	-10.9735
▁violence	-10.9735
▁conoció	-10.9735
▁violencia	-10.9735
▁pollo	-10.9735
▁traducir	-10.9735
▁libertad	-10.9735
▁committed	-10.9735
▁ambas	-10.9735
▁granja	-10.9736
▁compar	-10.9736
▁tallest	-10.9737
▁empezado	-10.9737
▁llovió	-10.974
▁third	-10.974
▁confía	-10.974
▁querido	-10.974
▁robar	-10.9741
▁generally	-10.9741
▁caballos	-10.9742
▁escuchado	-10.9742
▁smaller	-10.9744
▁veamos	-10.9745
▁survived	-10.9745
▁habido	-10.9745
▁beside	-10.9749
▁tratado	-10.975
▁escriba	-10.975
▁novelas	-10.9762
▁fuma	-10.9764
▁artista	-10.9764
tendremos	-10.9771
▁quedamos	-10.9775
▁horses	-10.9775
▁using	-10.9782
so	-10.9783
▁disfruta	-10.9805
▁starting	-10.981
▁hablamos	-10.9813
▁sur	-10.9815
▁montañas	-10.9827
▁members	-10.9833
▁respuestas	-10.9836
▁teachers	-10.9846
▁contract	-10.9853
▁imaginar	-10.9859
▁viva	-10.9863
▁hurts	-10.9878
▁asegurar	-10.9884
▁pensado	-10.9886
▁herir	-10.9887
▁results	-10.9892
▁riesgo	-10.9894
▁termina	-10.9903
▁informe	-10.9907
▁conferencia	-10.9907
il	-10.9907
▁harías	-10.9909
▁abierto	-10.9909
▁afortunado	-10.991
▁hombro	-10.9912
▁escalera	-10.9916
▁invitado	-10.9917
▁com	-10.9926
▁ayudarle	-10.9931
ero	-10.9935
ic	-10.9938
▁venta	-10.9938
▁extranjeros	-10.9954
▁pelear	-10.9954
01	-10.9964
▁comen	-10.9986
▁quedara	-10.9987
▁draw	-10.9992
▁plant	-10.9999
z	-11.0018
▁push	-11.0023
▁mention	-11.0037
▁fortuna	-11.0038
▁match	-11.0041
▁ocurrir	-11.0045
vés	-11.0046
▁aceptó	-11.0047
▁brown	-11.0047
▁calcetines	-11.0047
▁conversación	-11.0047
▁energía	-11.0047
▁illegal	-11.0047
▁lincoln	-11.0047
▁maravilloso	-11.0047
▁marriage	-11.0047
▁october	-11.0047
▁octubre	-11.0047
▁pudimos	-11.0047
▁área	-11.0047
▁equipaje	-11.0047
▁esperé	-11.0047
▁garage	-11.0047
▁kidding	-11.0047
▁captain	-11.0047
▁colina	-11.0047
▁weird	-11.0047
▁trece	-11.0047
▁traté	-11.0047
▁curso	-11.0047
▁tough	-11.0047
▁lentamente	-11.0047
▁saliera	-11.0047
▁pregúntale	-11.0048
▁houses	-11.0048
▁credit	-11.0048
▁héroe	-11.0048
▁elección	-11.0048
▁vinieron	-11.0048
▁gracioso	-11.0048
▁poniendo	-11.0048
▁pequeños	-11.0049
▁saliendo	-11.0049
▁tráeme	-11.0049
▁scolded	-11.0049
▁preocupada	-11.0049
▁perfectamente	-11.005
▁supuesto	-11.005
▁regaló	-11.005
▁betrayed	-11.005
▁trabajadores	-11.0051
▁shelf	-11.0051
▁tendría	-11.0052
▁mathematics	-11.0053
▁abandonó	-11.0054
▁ascensor	-11.0054
▁levantarme	-11.0054
▁original	-11.0055
▁esperemos	-11.0055
▁ayudarnos	-11.0056
▁perfectly	-11.0059
▁complained	-11.006
▁verdadera	-11.0063
▁hello	-11.0063
▁russian	-11.0068
▁guests	-11.007
▁nuevamente	-11.0071
▁mess	-11.0076
▁writer	-11.0085
▁workers	-11.0092
▁h	-11.0108
▁accidents	-11.0131
ri	-11.0137
émonos	-11.0152
▁quitar	-11.0155
▁estadounidenses	-11.0185
sabe	-11.02
▁gira	-11.02
▁piensan	-11.0223
▁músico	-11.0227
▁cuánta	-11.0232
▁billete	-11.0233
▁disease	-11.0234
▁viniera	-11.0235
dor	-11.0237
▁na	-11.0239
▁resultados	-11.0245
▁answers	-11.0271
▁cercano	-11.0276
▁shoulder	-11.0292
ón	-11.0292
nse	-11.0298
pa	-11.0315
▁sepas	-11.0318
▁changes	-11.0321
▁pesca	-11.0327
▁supone	-11.0344
▁mentir	-11.0346
▁refuse	-11.0355
▁vende	-11.0356
▁repeat	-11.0357
▁quick	-11.0365
▁licencia	-11.0367
▁brasil	-11.037
▁advantage	-11.037
▁agujero	-11.037
▁anciana	-11.037
▁capitán	-11.037
▁evil	-11.037
▁exchange	-11.037
▁mundial	-11.037
▁plata	-11.037
▁possibility	-11.037
▁website	-11.037
▁suéter	-11.037
▁millones	-11.037
▁couch	-11.037
▁enfermera	-11.037
▁podido	-11.037
▁conversar	-11.037
▁regresó	-11.037
▁breve	-11.037
▁podamos	-11.037
▁departamento	-11.037
▁toalla	-11.037
▁embarrassed	-11.037
▁author	-11.037
▁bald	-11.0371
▁claramente	-11.0371
▁gotten	-11.0372
▁pale	-11.0372
▁salida	-11.0373
▁nearest	-11.0373
▁sort	-11.0373
▁esconder	-11.0374
▁graduated	-11.0376
▁ability	-11.0377
▁seguido	-11.0377
▁progress	-11.0381
▁repaired	-11.0381
▁iguales	-11.0384
▁dijera	-11.0385
▁encontraste	-11.0385
▁pulled	-11.0385
podés	-11.0389
▁director	-11.0393
▁fe	-11.0394
▁apologized	-11.04
▁grab	-11.0411
ish	-11.0415
▁skin	-11.0417
▁ap	-11.0419
▁sore	-11.0422
▁iría	-11.0426
▁badly	-11.0428
▁venía	-11.043
▁ghosts	-11.0437
▁besar	-11.0454
▁promet	-11.0454
▁plu	-11.0456
▁toques	-11.0457
▁jug	-11.0457
▁handle	-11.0464
▁disculpas	-11.049
mp	-11.0512
▁verle	-11.0514
▁deber	-11.0519
▁díga	-11.0525
▁salga	-11.0526
▁holidays	-11.0529
▁schedule	-11.0555
▁emergencia	-11.056
▁intento	-11.0562
▁boleto	-11.0566
▁deportes	-11.0573
ión	-11.0577
▁tend	-11.058
▁material	-11.0583
▁estarás	-11.062
▁hero	-11.0628
▁co	-11.0629
though	-11.0654
estáis	-11.0665
▁experiment	-11.0674
piensas	-11.0675
▁suggest	-11.068
▁cre	-11.0688
▁atrap	-11.0693
▁adora	-11.0694
▁ilegal	-11.0696
▁débil	-11.0696
▁engine	-11.0697
▁hop	-11.0699
▁electric	-11.0702
▁apartamento	-11.0703
▁beauty	-11.0703
▁curiosidad	-11.0703
▁enseguida	-11.0703
▁otoño	-11.0703
▁razonable	-11.0703
▁toward	-11.0703
▁zoológico	-11.0703
▁creyó	-11.0703
▁childhood	-11.0703
▁washington	-11.0703
▁armario	-11.0703
▁foolish	-11.0703
▁consigo	-11.0703
▁master	-11.0704
▁ocultando	-11.0704
▁supper	-11.0704
▁hunting	-11.0704
▁puesta	-11.0704
▁bebiendo	-11.0705
▁celoso	-11.0706
▁detesto	-11.0706
▁subir	-11.0706
▁tocando	-11.0707
▁estuvi	-11.0707
▁contrato	-11.0708
▁useless	-11.0708
▁dé	-11.0709
▁agotado	-11.071
▁board	-11.0711
▁vivimos	-11.0711
▁army	-11.0715
▁warned	-11.0716
▁local	-11.0716
▁apagó	-11.0717
▁cantó	-11.0723
▁pasajeros	-11.0723
▁dirá	-11.0723
▁esperado	-11.0725
▁falling	-11.0727
▁amigas	-11.0729
he	-11.0731
▁borrowed	-11.0732
▁quedaron	-11.0733
▁vernos	-11.0735
▁italian	-11.0742
▁acabar	-11.0744
▁salvar	-11.0746
▁traveling	-11.0747
▁escalar	-11.0752
▁irnos	-11.0762
▁fantasmas	-11.0765
▁enfadar	-11.0777
▁norte	-11.078
▁odian	-11.0789
▁cuid	-11.08
▁abandonar	-11.0801
▁quedes	-11.0806
▁paying	-11.0813
▁gasta	-11.0815
costó	-11.0816
▁nose	-11.082
▁solos	-11.0837
▁marcha	-11.0845
▁echa	-11.0849
▁iron	-11.087
▁llevan	-11.0893
▁accidentes	-11.0896
▁despedido	-11.0907
▁burn	-11.091
▁vendría	-11.0912
tally	-11.0914
▁vuelvas	-11.0914
▁olvidar	-11.0916
▁cambia	-11.0926
▁nuevas	-11.0928
ment	-11.0933
▁warn	-11.0939
▁form	-11.0948
▁program	-11.0961
▁hecha	-11.0969
▁hacerse	-11.098
▁enemigos	-11.0992
pongo	-11.0994
▁citizen	-11.1008
▁olvide	-11.1019
▁repair	-11.1025
▁search	-11.1038
▁polite	-11.1046
▁11	-11.1047
▁acercó	-11.1048
▁brazil	-11.1048
▁cuestión	-11.1048
▁escenario	-11.1048
▁estupendo	-11.1048
▁fortune	-11.1048
▁genius	-11.1048
▁llamo	-11.1048
▁mexico	-11.1048
▁mirror	-11.1048
▁retraso	-11.1048
▁silence	-11.1048
▁unhappy	-11.1048
▁dislike	-11.1048
▁towel	-11.1048
▁value	-11.1048
▁soltero	-11.1048
▁velocidad	-11.1048
▁available	-11.1048
▁private	-11.1048
▁robbed	-11.1048
▁interés	-11.1048
▁sencillo	-11.1048
▁collar	-11.1048
▁amazing	-11.1048
▁definitivamente	-11.1048
▁espejo	-11.1048
▁trapped	-11.1048
▁wild	-11.1049
▁acusado	-11.1049
▁aproximadamente	-11.1049
▁trato	-11.1049
▁ataque	-11.1049
▁colectivo	-11.1049
▁consejos	-11.105
▁friendship	-11.105
▁everywhere	-11.105
▁birth	-11.105
▁despierta	-11.105
▁pesado	-11.1051
▁volviendo	-11.1051
▁nuts	-11.1052
▁pagado	-11.1053
▁ciencia	-11.1053
▁intentarlo	-11.1053
▁greatest	-11.1053
ías	-11.1055
▁comúnmente	-11.1055
▁piel	-11.1057
▁apaga	-11.1059
▁recoger	-11.1063
▁appeared	-11.1066
▁deserted	-11.1068
▁practice	-11.107
▁computers	-11.1073
▁impuestos	-11.1073
un	-11.1074
▁larger	-11.1074
▁queréis	-11.1075
▁succeeded	-11.1077
▁nubes	-11.1083
▁comprender	-11.1083
▁adonde	-11.1083
▁bello	-11.1086
▁gritar	-11.1088
▁sano	-11.109
▁breathe	-11.1093
▁cleaning	-11.1104
!"	-11.112
▁nadando	-11.1125
▁usando	-11.1125
▁detuvo	-11.1129
▁stamps	-11.113
▁names	-11.114
▁mando	-11.116
▁seguros	-11.1164
▁presentes	-11.1183
pusieron	-11.1184
▁mu	-11.1188
▁reparar	-11.1203
▁details	-11.1205
▁actuar	-11.1215
▁primo	-11.1219
▁expert	-11.1256
▁relationship	-11.1262
▁enfadada	-11.1262
▁muchacha	-11.1263
▁rosa	-11.1264
▁lindo	-11.1268
▁cigarette	-11.1272
▁cookie	-11.1274
▁pro	-11.1286
▁promesas	-11.129
▁canadienses	-11.1294
▁disculpa	-11.1303
▁letra	-11.1308
▁autor	-11.1312
becoming	-11.1318
▁quedan	-11.1324
tió	-11.1328
▁presta	-11.1331
▁dis	-11.1356
what	-11.1357
▁goal	-11.1359
▁decía	-11.1365
▁chose	-11.1367
▁trabajaba	-11.1369
▁gives	-11.1372
▁señor	-11.1383
▁prepar	-11.1386
▁escondi	-11.1388
▁disturb	-11.1392
▁shock	-11.1392
▁build	-11.1395
▁lies	-11.1398
▁dificultad	-11.1398
▁sudden	-11.1401
▁stomach	-11.1405
▁alcalde	-11.1405
▁arguing	-11.1405
▁basketball	-11.1405
▁crédito	-11.1405
▁desperté	-11.1405
▁failure	-11.1405
▁impresión	-11.1405
▁junio	-11.1405
▁lecture	-11.1405
▁ocurrido	-11.1405
▁océano	-11.1405
▁polvo	-11.1405
▁ridículo	-11.1405
▁yokohama	-11.1405
▁bucket	-11.1405
▁grateful	-11.1405
▁pleasant	-11.1405
▁violín	-11.1405
▁facebook	-11.1405
▁buried	-11.1405
▁condiciones	-11.1405
▁esperanto	-11.1405
▁belleza	-11.1405
▁changing	-11.1405
▁sugirió	-11.1405
▁suicidó	-11.1405
▁exhausted	-11.1406
▁moda	-11.1406
▁guapo	-11.1406
▁aprendiste	-11.1406
▁disappeared	-11.1407
▁despise	-11.1407
▁vosotras	-11.1408
▁pintó	-11.1408
▁cual	-11.141
▁sentarme	-11.141
▁fallen	-11.141
▁tail	-11.1411
▁cometió	-11.1413
▁invented	-11.1413
▁viniste	-11.1415
▁emocionado	-11.1416
▁ausente	-11.1417
ni	-11.1419
▁echo	-11.1422
▁treated	-11.1426
▁lower	-11.1427
▁ponerse	-11.1428
▁novels	-11.1429
▁compre	-11.143
▁aprendido	-11.1433
▁sospecha	-11.144
▁clouds	-11.1446
pe	-11.1455
▁disfrut	-11.1457
▁cae	-11.1465
▁snowing	-11.1465
▁descubrir	-11.1465
▁inter	-11.147
▁cooked	-11.1475
▁verla	-11.1476
vo	-11.1476
cha	-11.1481
▁sand	-11.1488
▁starts	-11.1491
▁quedaba	-11.1497
▁productos	-11.1507
▁buses	-11.1512
▁alimentar	-11.1514
▁miel	-11.1521
▁quejas	-11.1544
▁arms	-11.1546
▁viaja	-11.1547
,000	-11.1559
▁mismos	-11.156
éis	-11.1563
ita	-11.1566
▁photos	-11.1568
▁ayudará	-11.1577
▁predict	-11.1604
▁dejo	-11.161
zó	-11.1613
▁interest	-11.1616
▁tranquilo	-11.1633
▁termine	-11.1634
▁criminal	-11.1634
▁hábito	-11.164
▁antiguo	-11.164
▁altura	-11.1642
▁saving	-11.1642
▁soldier	-11.1645
▁soldado	-11.1646
▁herida	-11.1651
ied	-11.1653
▁ta	-11.1658
▁admitir	-11.166
▁robo	-11.1687
ábamos	-11.1701
¿	-11.1723
▁cap	-11.1725
law	-11.1728
debería	-11.1731
▁metal	-11.1733
▁guardar	-11.1742
▁civil	-11.1743
ers	-11.1744
▁jump	-11.1753
▁marca	-11.1757
▁dentist	-11.1759
▁greet	-11.1764
▁largas	-11.1765
▁lift	-11.1767
▁social	-11.1767
▁automóvil	-11.1768
▁suspicious	-11.1771
▁votar	-11.1775
▁alfombra	-11.1775
▁apoyo	-11.1775
▁aprecio	-11.1775
▁cierre	-11.1775
▁delicioso	-11.1775
▁despertó	-11.1775
▁efectivo	-11.1775
▁lástima	-11.1775
▁provide	-11.1775
▁rush	-11.1775
▁méxico	-11.1775
▁picasso	-11.1775
▁professor	-11.1775
▁ruso	-11.1775
▁complicated	-11.1775
▁battle	-11.1775
▁sensible	-11.1775
▁mintió	-11.1775
▁batalla	-11.1775
▁tiró	-11.1775
▁invitation	-11.1776
▁invitación	-11.1776
▁peel	-11.1776
▁atrasado	-11.1776
▁entendido	-11.1776
▁molesto	-11.1776
▁gerente	-11.1776
▁recientemente	-11.1776
▁tocó	-11.1776
▁baffled	-11.1777
▁salvó	-11.1777
▁salario	-11.1777
▁sonreír	-11.1777
▁conseguí	-11.1778
▁adiós	-11.1778
▁science	-11.1778
▁election	-11.1778
▁vieron	-11.1778
▁impressed	-11.1779
▁capaces	-11.178
▁cercana	-11.1781
▁hire	-11.1782
▁vienen	-11.1783
▁ruined	-11.1784
▁considerado	-11.1785
▁hablemos	-11.1785
▁intentado	-11.1786
▁visitado	-11.1787
▁jam	-11.1788
▁divorced	-11.1789
▁acting	-11.179
▁pushed	-11.179
▁imagen	-11.1793
▁diste	-11.1794
▁ordenó	-11.1802
mo	-11.1803
▁abrí	-11.1805
▁drives	-11.1805
▁devolver	-11.1823
▁venden	-11.1823
▁carrie	-11.1824
▁signed	-11.183
▁text	-11.1831
eme	-11.1834
▁visiting	-11.1868
▁chat	-11.1874
▁estuvieron	-11.1874
▁compañeros	-11.1889
ried	-11.1891
▁maravillosa	-11.1892
▁continuar	-11.19
▁ibas	-11.1908
▁plantas	-11.1921
▁gast	-11.1923
▁daba	-11.1932
▁casas	-11.1934
▁arena	-11.194
▁march	-11.1962
▁argument	-11.1967
▁dulces	-11.1991
▁force	-11.1995
▁ayudé	-11.2005
esta	-11.2005
▁rode	-11.201
▁volví	-11.2014
▁detener	-11.202
▁aspecto	-11.2022
▁hopes	-11.2026
▁extranjera	-11.2027
▁chiste	-11.2027
▁pi	-11.203
▁fines	-11.2041
▁alguno	-11.2044
▁adapt	-11.2046
▁actu	-11.2059
▁tareas	-11.2061
▁contest	-11.2078
estoy	-11.2118
▁lean	-11.2122
sí	-11.2124
▁sabían	-11.2139
▁renunciar	-11.2142
▁niñas	-11.2142
▁improve	-11.2145
▁crash	-11.2147
▁gain	-11.2148
▁steal	-11.2151
▁baile	-11.2152
▁defend	-11.2159
▁thin	-11.2159
▁audience	-11.216
▁caluroso	-11.216
▁cinturón	-11.216
▁economy	-11.216
▁economía	-11.216
▁genio	-11.216
▁insane	-11.216
▁itself	-11.216
▁mochila	-11.216
▁opina	-11.216
▁razones	-11.216
▁strict	-11.216
▁thirteen	-11.216
▁íbamos	-11.216
▁colgó	-11.216
▁empecé	-11.216
▁ugly	-11.216
▁cima	-11.216
▁coward	-11.216
▁excusa	-11.216
▁hawaii	-11.216
▁rieron	-11.216
▁diary	-11.216
▁importancia	-11.2161
▁decepcionado	-11.2161
▁ayúdame	-11.2161
▁kilómetros	-11.2161
▁entré	-11.2161
▁rota	-11.2162
▁nation	-11.2162
▁frightened	-11.2163
▁kindness	-11.2163
▁anger	-11.2163
▁concentrate	-11.2164
▁shake	-11.2165
▁punished	-11.2165
▁cheated	-11.2166
▁sentada	-11.2168
▁deeply	-11.2172
▁capable	-11.2173
▁haremos	-11.2174
▁bebo	-11.2175
▁dentista	-11.2177
▁spite	-11.2179
▁supo	-11.218
▁trataba	-11.218
▁saca	-11.2188
▁cansados	-11.219
▁llegaría	-11.2191
▁trate	-11.2191
teniendo	-11.2194
▁expresar	-11.2197
▁kissing	-11.2197
▁musical	-11.2205
ical	-11.2208
▁dejaría	-11.2209
▁depressed	-11.222
▁alumnos	-11.222
▁meter	-11.2247
▁wondering	-11.2251
▁quedando	-11.2255
▁usado	-11.2257
▁acuerdas	-11.2262
▁burl	-11.2263
imos	-11.2279
▁viaj	-11.2288
ion	-11.2297
▁vienes	-11.232
▁comparti	-11.2324
▁esfuerzos	-11.2331
▁leader	-11.2334
▁pill	-11.2346
▁po	-11.235
éramos	-11.2357
ones	-11.2362
▁mantiene	-11.2366
▁vase	-11.2367
▁muertos	-11.2373
ty	-11.2411
▁pañuelo	-11.2417
▁vacío	-11.2417
▁apariencia	-11.2421
▁impaciente	-11.2421
▁field	-11.2424
▁cerdo	-11.2425
▁hambriento	-11.2425
▁effort	-11.2427
▁miembro	-11.2428
▁pidie	-11.2429
▁regla	-11.243
▁empleado	-11.2435
▁seguí	-11.2441
▁orders	-11.2449
ur	-11.2472
ces	-11.2478
▁saltar	-11.2479
▁mistaken	-11.2487
▁nombres	-11.2497
▁understands	-11.2503
ponía	-11.2509
quieren	-11.2511
▁charla	-11.2513
▁trabajado	-11.2536
▁walks	-11.2537
▁advance	-11.2544
▁cover	-11.2551
▁receive	-11.2553
▁sándwich	-11.2553
ante	-11.2555
▁nevar	-11.2559
▁scene	-11.256
▁accompan	-11.256
▁baloncesto	-11.256
▁bienvenida	-11.256
▁current	-11.256
▁enemies	-11.256
▁grosero	-11.256
▁laptop	-11.256
▁piscina	-11.256
▁ridiculous	-11.256
▁tránsito	-11.256
▁bound	-11.256
▁compromiso	-11.256
▁conduciendo	-11.256
▁desapareció	-11.256
▁escucho	-11.256
▁mercado	-11.256
▁turkey	-11.256
▁juez	-11.256
▁notebook	-11.256
▁okay	-11.256
▁pepper	-11.256
▁acusó	-11.256
▁reuniones	-11.256
▁solicitud	-11.256
▁formulario	-11.256
▁campana	-11.256
▁violin	-11.256
▁vendré	-11.256
▁adoro	-11.256
▁noisy	-11.256
▁candy	-11.2561
▁villa	-11.2561
▁celular	-11.2561
▁móvil	-11.2561
▁apply	-11.2562
▁aumento	-11.2562
▁arrestado	-11.2562
▁seguida	-11.2562
▁fracaso	-11.2563
▁coser	-11.2563
▁lleg	-11.2563
▁outfit	-11.2563
▁elected	-11.2563
▁annoying	-11.2563
▁cuyo	-11.2564
▁convertir	-11.2565
▁obviously	-11.2565
▁firme	-11.2565
▁confundido	-11.2567
▁levantado	-11.2567
▁north	-11.2568
▁vago	-11.2568
▁usualmente	-11.2569
▁successful	-11.2569
▁contain	-11.257
▁inclinó	-11.2571
▁gained	-11.2573
▁formas	-11.2575
▁escena	-11.2575
▁vain	-11.2575
▁obedecer	-11.2577
▁encendió	-11.2579
▁persuaded	-11.2581
▁ringing	-11.2581
▁diera	-11.2601
▁aparte	-11.2604
▁hall	-11.2604
▁esperaré	-11.2606
▁voted	-11.2619
▁brazos	-11.2619
▁produce	-11.2632
▁miré	-11.2634
▁guarda	-11.2635
▁sleeps	-11.2639
▁inform	-11.2645
ation	-11.2649
▁despedir	-11.2653
▁trenes	-11.2659
ma	-11.2668
▁seguía	-11.2685
▁compartir	-11.2693
▁cancel	-11.2697
▁tap	-11.2709
▁presentar	-11.274
▁vend	-11.2747
▁poems	-11.2749
▁plants	-11.2752
▁fotografías	-11.2765
▁tomará	-11.2767
▁mejorar	-11.277
▁inteligentes	-11.2777
za	-11.2791
arme	-11.2792
▁wins	-11.2796
▁empez	-11.2824
▁document	-11.2833
▁medida	-11.2838
▁acostumbrar	-11.284
▁cheek	-11.284
▁francesa	-11.2842
▁talento	-11.2843
▁member	-11.2845
▁trabaj	-11.2878
▁asuntos	-11.2881
▁suceder	-11.2892
▁equal	-11.2898
ous	-11.2906
▁pe	-11.2926
looking	-11.2928
▁costa	-11.2935
▁carga	-11.295
▁altos	-11.2952
▁tied	-11.2952
▁talent	-11.2954
▁señal	-11.2955
▁interrupt	-11.2961
▁divorce	-11.2962
▁survive	-11.2962
▁empeza	-11.2964
▁prevent	-11.2964
▁gather	-11.2968
▁obvious	-11.2973
▁mantén	-11.2976
▁actress	-11.2977
▁anxious	-11.2977
▁basket	-11.2977
▁cuarenta	-11.2977
▁desierto	-11.2977
▁envelope	-11.2977
▁garganta	-11.2977
▁grapes	-11.2977
▁kilometers	-11.2977
▁nature	-11.2977
▁throat	-11.2977
▁june	-11.2977
▁switch	-11.2977
▁calvo	-11.2977
▁gorda	-11.2977
▁enojada	-11.2977
▁fecha	-11.2977
▁naturaleza	-11.2977
▁acostumbrada	-11.2977
▁seriamente	-11.2978
▁comprendo	-11.2978
▁salieron	-11.2978
▁vengo	-11.2978
▁quejando	-11.2979
▁forgetful	-11.2979
▁volando	-11.2979
▁harta	-11.298
▁déjalo	-11.298
▁peleando	-11.2981
▁escondido	-11.2982
▁torre	-11.2983
▁spilled	-11.2983
▁alice	-11.2986
▁cocinando	-11.2988
▁regular	-11.299
▁parecer	-11.2991
▁juzgar	-11.2991
▁staring	-11.3002
▁casarte	-11.3002
▁growing	-11.3003
▁closer	-11.3005
▁llamaste	-11.3008
▁encontraron	-11.301
▁murdered	-11.3014
▁llevaré	-11.3018
▁queja	-11.3027
▁comprarlo	-11.3035
▁llamaba	-11.3036
▁miraba	-11.3036
▁oírte	-11.3042
▁quieto	-11.3047
▁lava	-11.3063
▁cleaned	-11.3065
▁sp	-11.3072
▁dust	-11.3076
▁cerrados	-11.3099
dicó	-11.3113
▁helps	-11.3116
▁teme	-11.3116
▁arregl	-11.3132
si	-11.3133
adas	-11.3145
ito	-11.3154
▁comas	-11.3165
▁poemas	-11.3182
▁base	-11.3191
▁olvida	-11.3196
▁remembered	-11.3217
▁strangers	-11.322
▁firm	-11.3264
▁leo	-11.3265
▁sales	-11.3267
▁desnudo	-11.3268
▁negra	-11.3268
▁firmar	-11.3269
▁alternativa	-11.3271
▁opera	-11.3271
▁fila	-11.3272
▁antigua	-11.3273
▁ciudadano	-11.3278
▁científico	-11.3278
▁corte	-11.3279
▁compañero	-11.328
▁hoja	-11.328
▁regard	-11.3282
▁experto	-11.3283
biste	-11.3288
▁creen	-11.3291
▁lesson	-11.3294
▁action	-11.3313
▁contratar	-11.3327
▁flu	-11.3329
▁apunt	-11.3335
ran	-11.3346
tienen	-11.3349
▁asegúr	-11.3353
▁incident	-11.3354
▁existe	-11.3372
▁sirve	-11.3378
▁muere	-11.3378
▁model	-11.3386
▁pressure	-11.3395
▁manage	-11.3397
▁crecí	-11.3398
▁sed	-11.34
▁bowl	-11.3401
▁nivel	-11.3404
▁asia	-11.3404
▁witness	-11.3404
▁amar	-11.3406
▁física	-11.3408
▁achieve	-11.3411
▁cajón	-11.3411
▁dessert	-11.3411
▁detective	-11.3411
▁efecto	-11.3411
▁embargo	-11.3411
▁evidence	-11.3411
▁helicopter	-11.3411
▁inocencia	-11.3411
▁percent	-11.3411
▁strength	-11.3411
▁tamaño	-11.3411
▁adjust	-11.3411
▁crisis	-11.3411
▁obtuvo	-11.3411
▁thick	-11.3411
▁hierro	-11.3411
▁average	-11.3411
▁instituto	-11.3411
▁fijamente	-11.3411
▁screen	-11.3411
▁occurred	-11.3411
▁nevando	-11.3411
▁perdiendo	-11.3411
▁ratón	-11.3412
▁brillante	-11.3412
▁complicado	-11.3412
▁comimos	-11.3412
▁habitual	-11.3412
▁electrónico	-11.3412
▁conference	-11.3412
▁fought	-11.3412
▁nap	-11.3412
▁soporto	-11.3412
▁adelantado	-11.3412
▁cubierto	-11.3413
▁elecciones	-11.3413
▁olor	-11.3413
▁siéntate	-11.3413
▁raw	-11.3413
▁exciting	-11.3413
▁patio	-11.3413
▁major	-11.3413
▁adorable	-11.3414
▁pesada	-11.3414
▁reply	-11.3414
▁deshacer	-11.3414
▁costará	-11.3415
▁command	-11.3416
▁muchísimo	-11.3417
▁órdenes	-11.3417
▁generalmente	-11.3417
▁newspapers	-11.3418
▁pants	-11.3418
▁construyó	-11.3418
▁removed	-11.3419
▁jeans	-11.342
▁causó	-11.3421
▁wounded	-11.3422
▁mantente	-11.3423
▁llamando	-11.3424
▁recuerdas	-11.3424
▁concerned	-11.3425
llón	-11.3428
▁azules	-11.3432
▁visitors	-11.3439
▁alma	-11.3444
▁importantes	-11.3446
▁experimento	-11.3447
▁postre	-11.3449
▁notas	-11.345
▁bebido	-11.3455
▁utilizar	-11.3456
ista	-11.3458
▁ayudaría	-11.3464
ue	-11.3476
▁fork	-11.3478
▁danced	-11.3481
▁touched	-11.349
▁suma	-11.3505
▁watches	-11.3514
▁however	-11.3518
▁ciudades	-11.3527
▁indica	-11.3534
▁lately	-11.3535
▁earns	-11.3539
dos	-11.3548
ja	-11.3562
rme	-11.3576
▁primos	-11.3577
▁promises	-11.3578
▁creas	-11.3597
▁oblig	-11.3619
▁controlar	-11.3628
▁cousins	-11.363
ci	-11.3634
▁dirigi	-11.3635
probó	-11.3647
tuve	-11.3653
▁resolvi	-11.3665
▁mías	-11.3665
▁limpi	-11.3697
▁bromas	-11.3708
▁concern	-11.371
▁shoot	-11.3711
▁closet	-11.3716
▁service	-11.3723
▁asesinado	-11.3725
ventó	-11.3727
▁testigo	-11.3727
▁pierde	-11.3727
▁direction	-11.373
▁juguete	-11.3732
▁cerrado	-11.3736
▁shoe	-11.3736
▁placer	-11.3741
▁alimenta	-11.3741
▁rojas	-11.3745
▁pasto	-11.3752
▁pasan	-11.3753
▁reasons	-11.3756
▁historias	-11.3767
▁dudas	-11.3775
▁earn	-11.3787
sumo	-11.3787
▁terror	-11.3805
▁ricos	-11.3816
capaz	-11.3818
▁import	-11.3836
▁directo	-11.3838
necesitas	-11.3845
▁supe	-11.3846
▁disappoint	-11.3853
▁spread	-11.3855
▁speed	-11.3856
▁cell	-11.3856
▁venid	-11.386
▁salad	-11.3862
das	-11.3863
▁oficial	-11.3863
▁copa	-11.3865
▁attract	-11.3866
▁brit	-11.3866
▁acceso	-11.3866
▁ansioso	-11.3866
▁apellido	-11.3866
▁conocimos	-11.3866
▁diamond	-11.3866
▁ejército	-11.3866
▁enciende	-11.3866
▁false	-11.3866
▁ladder	-11.3866
▁levanto	-11.3866
▁líder	-11.3866
▁method	-11.3866
▁nonsense	-11.3866
▁politics	-11.3866
▁register	-11.3866
▁reputation	-11.3866
▁shakespeare	-11.3866
▁whale	-11.3866
▁whistle	-11.3866
▁actriz	-11.3866
▁bullet	-11.3866
▁estudió	-11.3866
▁furioso	-11.3866
▁deposit	-11.3866
▁tower	-11.3866
▁sunny	-11.3866
▁explosion	-11.3866
▁refrigerador	-11.3866
▁adecuado	-11.3866
▁privado	-11.3866
▁stake	-11.3866
▁priest	-11.3866
▁bribe	-11.3866
▁electricity	-11.3866
▁poker	-11.3866
▁lightning	-11.3866
▁discussion	-11.3866
▁enamorada	-11.3866
▁suave	-11.3866
▁preferida	-11.3867
▁valla	-11.3867
▁export	-11.3867
▁obsequio	-11.3867
▁impression	-11.3867
▁construir	-11.3867
▁mandó	-11.3867
▁nara	-11.3867
▁punta	-11.3867
▁condujo	-11.3867
▁cuidadosamente	-11.3867
▁obviamente	-11.3867
▁puppy	-11.3867
▁averg	-11.3867
▁preocuparse	-11.3867
▁escapó	-11.3868
▁prohibited	-11.3868
hace	-11.3869
▁drawer	-11.3869
▁cage	-11.3869
▁posición	-11.3869
▁cuente	-11.3869
▁creció	-11.387
▁perdone	-11.3871
▁mostraré	-11.3871
▁barking	-11.3872
▁destroyed	-11.3872
▁terminé	-11.3872
▁elige	-11.3873
▁llegues	-11.3873
▁granted	-11.3873
▁dificultades	-11.3874
▁reasonable	-11.3875
▁self	-11.3875
▁delayed	-11.3876
▁attractive	-11.3876
▁pica	-11.3878
▁talented	-11.388
▁moral	-11.388
▁lea	-11.388
▁deny	-11.388
▁canceled	-11.3881
▁uvas	-11.3883
▁crossing	-11.3883
▁hola	-11.3884
▁pr	-11.3892
▁viera	-11.3893
▁fan	-11.3897
po	-11.3899
▁llamarme	-11.3899
▁options	-11.39
▁hacerle	-11.3904
▁volvería	-11.3905
▁pasaron	-11.3908
▁llevará	-11.391
▁encontrarás	-11.3912
▁orejas	-11.3913
▁charged	-11.3914
▁león	-11.3916
▁martes	-11.3925
▁ayudado	-11.393
▁estaremos	-11.3934
▁planeta	-11.3938
▁legal	-11.3939
▁perfecta	-11.3955
▁snowed	-11.3966
▁twins	-11.3975
▁coins	-11.3975
▁humanos	-11.3992
▁documentos	-11.3996
▁total	-11.401
▁knowing	-11.4014
▁pasara	-11.4018
▁comp	-11.4021
▁perdonar	-11.4037
▁cigarettes	-11.4038
yon	-11.4043
▁seats	-11.4044
▁iban	-11.4065
▁cares	-11.4066
gue	-11.4074
tar	-11.4079
▁presents	-11.4086
▁entregar	-11.4093
▁vano	-11.4093
▁closes	-11.4104
ive	-11.4105
▁funcionar	-11.4107
▁producto	-11.4121
▁w	-11.4124
▁participar	-11.4127
▁juga	-11.4135
▁trabajan	-11.4138
tener	-11.4155
▁ocupa	-11.4156
habla	-11.416
▁loan	-11.4166
▁actual	-11.4198
▁handkerchief	-11.4199
▁file	-11.4201
▁cosecha	-11.4203
▁lion	-11.4203
▁regrese	-11.4204
▁plate	-11.4206
▁debt	-11.4208
▁amarilla	-11.4209
▁employee	-11.4211
▁prisoner	-11.4213
▁documento	-11.4219
▁sentar	-11.4227
▁maneja	-11.4248
▁atrapar	-11.4256
▁pása	-11.4266
▁sings	-11.4284
yes	-11.4286
▁ahorrar	-11.429
▁jobs	-11.4295
▁facts	-11.4299
▁planta	-11.4303
▁vea	-11.4305
▁coches	-11.4316
▁desert	-11.432
▁admire	-11.4323
▁double	-11.4324
▁harás	-11.4326
▁acostar	-11.4326
▁spell	-11.4332
▁flat	-11.4336
▁vendi	-11.4339
▁disfraz	-11.4341
▁access	-11.4342
▁aliento	-11.4342
▁ambulance	-11.4342
▁ambulancia	-11.4342
▁atentamente	-11.4342
▁concurso	-11.4342
▁enfadó	-11.4342
▁ensalada	-11.4342
▁falso	-11.4342
▁families	-11.4342
▁gloves	-11.4342
▁impatient	-11.4342
▁inevitable	-11.4342
▁mordió	-11.4342
▁método	-11.4342
▁opciones	-11.4342
▁petróleo	-11.4342
▁práctica	-11.4342
▁responsabilidad	-11.4342
▁rifle	-11.4342
▁tuesday	-11.4342
▁typhoon	-11.4342
▁uñas	-11.4342
▁vecindario	-11.4342
▁voluntad	-11.4342
▁vuelvo	-11.4342
▁absence	-11.4342
▁asesino	-11.4342
▁stage	-11.4342
▁task	-11.4342
▁tesoro	-11.4342
▁temper	-11.4342
▁guantes	-11.4342
▁hidden	-11.4342
▁ease	-11.4342
▁perdimos	-11.4342
▁muriendo	-11.4342
▁package	-11.4342
▁obtener	-11.4342
▁begun	-11.4342
▁involucrado	-11.4342
▁pídele	-11.4342
▁calidad	-11.4342
▁lavadora	-11.4342
▁frecuentemente	-11.4343
▁electricidad	-11.4343
▁apparently	-11.4343
▁perdieron	-11.4343
▁burst	-11.4343
▁almohada	-11.4343
▁tiende	-11.4343
▁bigge	-11.4343
▁properly	-11.4343
▁continúa	-11.4343
▁muéstrame	-11.4344
▁estalló	-11.4344
▁muerta	-11.4344
▁fluently	-11.4345
▁botas	-11.4346
▁matado	-11.4346
▁apretó	-11.4347
▁smarter	-11.4348
▁murderer	-11.4348
▁comiste	-11.4348
▁personalmente	-11.435
▁olvidaré	-11.435
▁issue	-11.435
▁echado	-11.435
▁baked	-11.4351
▁confessed	-11.4352
claró	-11.4354
▁preparing	-11.4355
▁cero	-11.4355
▁honesty	-11.4356
▁siesta	-11.4357
▁enseñarme	-11.4358
▁quietly	-11.4359
▁traduj	-11.436
ized	-11.4363
▁classmates	-11.4365
▁adopted	-11.4368
▁planted	-11.4372
▁incidente	-11.4373
▁modelo	-11.4374
▁peanuts	-11.4385
▁colores	-11.4385
▁forty	-11.4391
▁scare	-11.4395
▁degrees	-11.4398
▁repar	-11.4402
▁grados	-11.4411
▁seca	-11.4418
▁causes	-11.442
▁meters	-11.4427
▁llegara	-11.4429
▁dreaming	-11.4438
▁nowhere	-11.444
▁juegos	-11.4449
▁doubts	-11.4453
▁llevara	-11.4453
▁super	-11.4455
▁comentarios	-11.4457
▁monedas	-11.4457
▁wishes	-11.4458
▁weapons	-11.4463
▁ga	-11.4466
▁presentó	-11.4472
▁insult	-11.4493
▁aula	-11.4499
▁particip	-11.45
ug	-11.4516
▁deer	-11.4523
▁bat	-11.454
▁tantos	-11.4544
▁resulta	-11.4569
▁roses	-11.457
▁reporte	-11.4572
▁busqué	-11.4585
▁metros	-11.4591
▁pasear	-11.4615
j	-11.4624
▁fi	-11.4625
▁alcanz	-11.4632
▁cargar	-11.4634
▁upon	-11.464
▁amenaza	-11.4645
▁páginas	-11.4649
▁estén	-11.4667
ated	-11.467
▁aprende	-11.4676
▁wound	-11.4688
▁sorprende	-11.4692
▁ríe	-11.4696
ina	-11.4698
▁adult	-11.4698
▁presente	-11.47
▁photograph	-11.4702
▁disponible	-11.4704
▁gallina	-11.4704
▁parecido	-11.4704
▁medicamento	-11.4705
▁sordo	-11.4705
▁mejilla	-11.4706
▁deuda	-11.4706
▁cabra	-11.4706
▁dama	-11.4708
▁acuerda	-11.471
vis	-11.472
▁aquello	-11.4727
▁aim	-11.4729
▁humano	-11.473
▁planet	-11.4739
▁depend	-11.4745
▁africa	-11.4747
▁trains	-11.4751
▁canadians	-11.4755
▁resist	-11.4756
▁soñ	-11.4777
▁americano	-11.4785
▁ocurre	-11.4785
▁vives	-11.4785
cu	-11.4788
year	-11.4797
▁shame	-11.4798
▁miente	-11.4802
▁jugaba	-11.4803
▁poet	-11.4808
▁sentados	-11.4811
ncia	-11.4817
▁mostrar	-11.4823
▁fashion	-11.4826
▁demanda	-11.4826
▁flood	-11.4829
▁frame	-11.4829
ísimo	-11.4838
▁fox	-11.4839
▁lujo	-11.484
▁materna	-11.484
▁pour	-11.4841
▁capacidad	-11.4841
▁obvio	-11.4842
▁burglar	-11.4842
▁court	-11.4842
▁agradezco	-11.4842
▁amabilidad	-11.4842
▁april	-11.4842
▁arriving	-11.4842
▁baggage	-11.4842
▁california	-11.4842
▁ceiling	-11.4842
▁committee	-11.4842
▁contrario	-11.4842
▁césped	-11.4842
▁dieciocho	-11.4842
▁engaged	-11.4842
▁espectáculo	-11.4842
▁explosión	-11.4842
▁francisco	-11.4842
▁greek	-11.4842
▁hawái	-11.4842
▁heavily	-11.4842
▁impresionado	-11.4842
▁infancia	-11.4842
▁insurance	-11.4842
▁malentendido	-11.4842
▁nowadays	-11.4842
▁ocasión	-11.4842
▁outstanding	-11.4842
▁pimienta	-11.4842
▁pleasure	-11.4842
▁political	-11.4842
▁pregnant	-11.4842
▁presión	-11.4842
▁reputación	-11.4842
▁rostro	-11.4842
▁secundaria	-11.4842
▁sensitive	-11.4842
▁sociedad	-11.4842
▁society	-11.4842
▁sunglasses	-11.4842
▁terrific	-11.4842
▁además	-11.4842
▁emocionante	-11.4842
▁motorcycle	-11.4842
▁fridge	-11.4842
▁jaula	-11.4842
▁jogging	-11.4842
▁importance	-11.4842
▁lucía	-11.4842
▁blackboard	-11.4842
▁cities	-11.4842
▁boots	-11.4842
▁pago	-11.4842
▁investigación	-11.4842
▁mentido	-11.4842
▁muero	-11.4842
▁juan	-11.4842
▁imagination	-11.4843
▁claus	-11.4843
▁carpet	-11.4843
▁imaginación	-11.4843
▁melodía	-11.4843
▁estanque	-11.4843
▁autoridad	-11.4843
▁exhausto	-11.4843
▁stove	-11.4843
▁babbling	-11.4843
▁decidieron	-11.4843
▁distinguish	-11.4844
▁objeto	-11.4844
▁frankly	-11.4844
▁picante	-11.4844
▁tinta	-11.4844
▁embarazada	-11.4844
▁stock	-11.4844
▁quality	-11.4844
▁bordo	-11.4845
▁elegido	-11.4845
▁interesada	-11.4845
▁bitter	-11.4845
▁entregó	-11.4845
▁professional	-11.4845
▁tejado	-11.4845
▁respirar	-11.4845
▁restless	-11.4845
▁obligado	-11.4845
▁cuéntame	-11.4846
▁taxes	-11.4847
▁che	-11.4847
▁sentarse	-11.4848
▁wheel	-11.4848
▁abril	-11.4848
▁caminaba	-11.4849
▁ignoró	-11.4849
▁sewing	-11.4849
▁collecting	-11.485
▁treasure	-11.485
▁propios	-11.4851
▁humo	-11.4851
▁sour	-11.4851
▁sweating	-11.4851
▁shouted	-11.4853
▁separated	-11.4854
▁esquí	-11.4854
▁served	-11.4854
▁empezamos	-11.4855
▁personally	-11.4856
▁insisted	-11.4857
▁oldest	-11.4862
▁hired	-11.4863
▁entraron	-11.4864
▁height	-11.4866
▁podré	-11.4866
▁intended	-11.4867
estabas	-11.4869
▁casarme	-11.4869
▁korean	-11.487
▁pobres	-11.4871
▁magic	-11.4872
▁solucionar	-11.4874
▁rented	-11.4877
▁nerviosa	-11.4878
▁volumen	-11.488
▁places	-11.4883
▁closely	-11.4884
▁pasaba	-11.4884
▁j	-11.489
▁mancha	-11.4892
▁mandar	-11.4892
▁sabés	-11.4892
▁existen	-11.4892
▁busca	-11.4893
▁imagined	-11.4895
▁solar	-11.4896
▁periódicos	-11.4898
▁grades	-11.4901
▁bananas	-11.4914
▁turistas	-11.4914
▁alérgic	-11.4926
▁reunir	-11.4926
▁tales	-11.4928
ller	-11.4929
▁meta	-11.493
▁cazar	-11.493
▁dejarlo	-11.4932
▁conté	-11.4936
▁encargar	-11.4939
ear	-11.4939
▁derechos	-11.4939
▁comía	-11.494
▁alimentos	-11.4944
▁vacas	-11.4944
▁talla	-11.4948
▁bala	-11.4949
▁normas	-11.495
▁r	-11.4956
▁amas	-11.4962
▁ink	-11.4966
ud	-11.498
▁mires	-11.4993
sal	-11.5003
▁veas	-11.5004
▁efforts	-11.5011
side	-11.5013
▁rosas	-11.5033
▁aside	-11.5059
▁extrañar	-11.5061
age	-11.511
▁l	-11.5111
▁prest	-11.5115
▁ignorar	-11.5125
one	-11.5128
▁claims	-11.513
darnos	-11.5139
▁consult	-11.5141
áramos	-11.5146
▁demand	-11.5158
▁sábados	-11.5158
▁luchar	-11.5159
▁unusual	-11.5175
▁quede	-11.5184
▁calles	-11.5185
▁hu	-11.5192
▁pop	-11.5194
▁knee	-11.5195
▁prefiere	-11.5196
▁tune	-11.5202
▁ruin	-11.5203
sh	-11.5211
▁behave	-11.5212
▁desayuna	-11.5217
ida	-11.5222
illa	-11.5225
▁amarillo	-11.5225
▁suggestion	-11.5225
▁dueño	-11.5227
▁appearance	-11.5228
▁zorro	-11.5228
▁flag	-11.5229
▁pida	-11.5233
▁político	-11.5235
▁tourist	-11.5235
▁weapon	-11.5236
▁pide	-11.5237
▁lento	-11.5238
cient	-11.5241
▁vuestros	-11.5243
▁manda	-11.5252
ig	-11.5258
▁necesite	-11.5262
▁players	-11.5267
▁scar	-11.5277
▁éstas	-11.5278
um	-11.5286
chi	-11.529
▁ca	-11.5301
▁recogi	-11.5302
▁cómodo	-11.5304
▁rate	-11.5305
▁protest	-11.5305
▁faith	-11.5307
▁llegas	-11.531
▁corrí	-11.5312
▁mat	-11.5321
▁fuese	-11.5322
recuerdas	-11.5323
▁volume	-11.5328
▁extraños	-11.5333
▁decent	-11.5337
▁tipos	-11.5344
▁cough	-11.5345
▁approve	-11.5353
▁poison	-11.5355
▁oso	-11.5355
▁pack	-11.5357
▁oppose	-11.5357
▁sweat	-11.5357
▁profesional	-11.5361
▁angel	-11.5362
▁unexpected	-11.5363
▁product	-11.5364
▁hug	-11.5364
▁occasion	-11.5368
▁adicto	-11.5368
▁apoyó	-11.5368
▁comité	-11.5368
▁confesó	-11.5368
▁cuaderno	-11.5368
▁deliciosa	-11.5368
▁embajada	-11.5368
▁embassy	-11.5368
▁encender	-11.5368
▁engañó	-11.5368
▁entrance	-11.5368
▁estudié	-11.5368
▁evidencia	-11.5368
▁festival	-11.5368
▁harsh	-11.5368
▁hoax	-11.5368
▁instructions	-11.5368
▁izquierdo	-11.5368
▁juicio	-11.5368
▁ketchup	-11.5368
▁martillo	-11.5368
▁ocurra	-11.5368
▁paliza	-11.5368
▁pizarra	-11.5368
▁retrasó	-11.5368
▁rough	-11.5368
▁sombra	-11.5368
▁target	-11.5368
▁temporada	-11.5368
▁tifón	-11.5368
▁unfair	-11.5368
▁universe	-11.5368
▁universo	-11.5368
▁upstairs	-11.5368
▁vestida	-11.5368
▁época	-11.5368
▁ausencia	-11.5368
▁conceited	-11.5368
▁drew	-11.5368
▁pagué	-11.5368
▁policy	-11.5368
▁almorzando	-11.5368
▁descubierto	-11.5368
▁sheep	-11.5368
▁coraje	-11.5368
▁egoísta	-11.5368
▁mystery	-11.5368
▁soft	-11.5368
▁swear	-11.5369
▁sabia	-11.5369
▁coincidence	-11.5369
▁competition	-11.5369
▁replace	-11.5369
▁selfish	-11.5369
▁habitaciones	-11.5369
▁scenery	-11.5369
▁silver	-11.5369
▁rio	-11.5369
▁educado	-11.5369
▁cigarro	-11.5369
▁presence	-11.5369
▁permitido	-11.5369
▁scratch	-11.5369
▁advirtió	-11.5369
▁comparto	-11.537
▁honestidad	-11.537
▁row	-11.537
▁level	-11.537
▁hundió	-11.537
▁arrepiento	-11.537
▁salgo	-11.537
▁muro	-11.537
▁caminó	-11.5371
▁fortunately	-11.5371
▁square	-11.5371
▁actualmente	-11.5371
▁cheaper	-11.5372
▁soul	-11.5372
▁object	-11.5372
▁sonriendo	-11.5372
▁valuable	-11.5372
▁instrucciones	-11.5372
▁partió	-11.5373
▁progreso	-11.5373
▁metido	-11.5373
▁arrojó	-11.5374
▁barba	-11.5374
▁suitable	-11.5374
▁dating	-11.5375
▁saqué	-11.5375
▁treaty	-11.5377
▁oeste	-11.5378
▁mostrarte	-11.5378
▁bowed	-11.5379
▁rescued	-11.5379
▁fairly	-11.538
▁miraron	-11.538
▁shorter	-11.5381
▁addict	-11.5381
▁despertador	-11.5384
▁framed	-11.5384
▁shocked	-11.5387
▁sigo	-11.5395
▁reina	-11.5395
▁disfrutar	-11.5398
▁manners	-11.5401
▁quarter	-11.5403
▁quejó	-11.5404
▁quemó	-11.5406
▁ayudando	-11.5407
▁herramientas	-11.5408
▁pagaré	-11.5409
▁rely	-11.5413
▁contarte	-11.5415
nzó	-11.5416
▁serás	-11.5419
▁pesa	-11.5424
▁chosen	-11.5428
▁sellos	-11.5428
▁fiar	-11.5434
▁posee	-11.5434
how	-11.5444
▁leerlo	-11.5451
▁acción	-11.5452
▁gemelos	-11.5452
▁terms	-11.5455
▁preciosa	-11.5455
▁cows	-11.5459
▁alcanza	-11.5459
▁saludó	-11.5465
▁serpientes	-11.5474
▁snakes	-11.5474
▁applie	-11.5476
▁lit	-11.549
▁parking	-11.5495
king	-11.5501
pero	-11.5505
▁regalar	-11.5507
▁permanecer	-11.5513
▁americanos	-11.5529
▁sonando	-11.553
▁científicos	-11.5533
pidieron	-11.554
▁lucha	-11.5582
▁debate	-11.5593
▁canal	-11.5594
ance	-11.5599
ros	-11.5599
▁cor	-11.5609
▁gustado	-11.5634
▁considera	-11.565
elo	-11.566
esa	-11.5693
▁fueras	-11.5694
▁mata	-11.5707
▁recibi	-11.5724
▁entradas	-11.5725
▁piense	-11.5748
v	-11.575
▁coin	-11.576
▁tru	-11.5775
cantaría	-11.5776
▁colors	-11.578
▁helicóptero	-11.578
▁religion	-11.578
▁dim	-11.5781
▁cobarde	-11.5783
▁pluma	-11.5783
▁bandera	-11.5784
▁cuento	-11.5786
▁guardia	-11.5786
▁custom	-11.5787
▁piloto	-11.5788
▁curtain	-11.5789
▁rodilla	-11.5789
▁encuentre	-11.579
▁cigarrillo	-11.579
▁moneda	-11.5791
▁comentario	-11.5791
▁stamp	-11.5792
▁oscura	-11.5793
▁papers	-11.5797
▁twin	-11.58
▁sucio	-11.5807
▁callado	-11.5808
▁ke	-11.5826
▁budge	-11.5833
arte	-11.5839
▁revis	-11.5843
oso	-11.5848
▁resultar	-11.5857
▁edi	-11.5859
▁invent	-11.5866
▁arruin	-11.5867
▁cu	-11.5868
ellos	-11.5871
▁agradeci	-11.5872
mail	-11.5874
▁botellas	-11.5874
je	-11.5875
▁squeeze	-11.5876
▁estacion	-11.5879
▁cocin	-11.5882
▁odiaba	-11.5883
▁bottles	-11.5897
▁pray	-11.5898
ch	-11.5901
▁lent	-11.5908
▁increase	-11.5908
endo	-11.5908
▁blow	-11.5914
lu	-11.5915
▁nuclear	-11.5916
▁malos	-11.5918
▁triunfar	-11.5918
▁pruebas	-11.592
▁lastimar	-11.592
▁brand	-11.592
▁servir	-11.5921
▁prince	-11.5922
▁central	-11.5924
▁limít	-11.5924
▁automobile	-11.5924
▁biblia	-11.5924
▁cottage	-11.5924
▁despedida	-11.5924
▁diecisiete	-11.5924
▁funcionó	-11.5924
▁garbage	-11.5924
▁gasolina	-11.5924
▁hockey	-11.5924
▁inconsciente	-11.5924
▁innocence	-11.5924
▁knowledge	-11.5924
▁maestra	-11.5924
▁mouse	-11.5924
▁oigo	-11.5924
▁oxygen	-11.5924
▁oxígeno	-11.5924
▁promotion	-11.5924
▁química	-11.5924
▁resort	-11.5924
▁rusia	-11.5924
▁tabaco	-11.5924
▁seventeen	-11.5924
▁suceda	-11.5924
▁apology	-11.5924
▁parcial	-11.5924
▁flour	-11.5924
▁pillow	-11.5924
▁cálido	-11.5924
▁merecía	-11.5924
▁mutuamente	-11.5924
▁trunk	-11.5924
▁reducir	-11.5924
▁discutiendo	-11.5924
▁kobe	-11.5924
▁brief	-11.5924
▁periodista	-11.5924
▁hugged	-11.5924
▁tinto	-11.5924
▁batería	-11.5924
▁estantería	-11.5925
▁wide	-11.5925
▁robando	-11.5925
▁juguemos	-11.5925
▁observando	-11.5925
▁dormida	-11.5925
▁enséñame	-11.5925
▁safety	-11.5925
▁bailando	-11.5925
▁spade	-11.5925
▁drowning	-11.5925
▁contraseña	-11.5926
▁password	-11.5926
▁hammer	-11.5926
▁revés	-11.5926
▁bible	-11.5926
▁bleeding	-11.5926
▁partida	-11.5926
▁caído	-11.5927
▁incómodo	-11.5928
▁abandonado	-11.5928
▁áfrica	-11.5928
▁optimista	-11.5929
▁released	-11.5929
▁pretendía	-11.5929
▁pido	-11.593
▁disguised	-11.593
▁afortunadamente	-11.5932
▁lección	-11.5932
▁divorci	-11.5934
▁arrogante	-11.5934
▁santa	-11.5935
▁decile	-11.5935
▁salgamos	-11.5935
▁siguieron	-11.5936
▁everest	-11.5938
▁jugadores	-11.5939
▁approved	-11.594
▁burning	-11.594
▁fuertes	-11.5941
▁estacionar	-11.5941
▁riendo	-11.5942
bo	-11.5942
▁disparar	-11.5942
▁suffering	-11.5942
dical	-11.5943
▁naturales	-11.5944
construido	-11.5945
▁marchó	-11.5945
▁computadores	-11.5946
▁logro	-11.5947
▁senté	-11.5957
▁income	-11.5958
▁decente	-11.5958
▁sabor	-11.5958
cogí	-11.5958
▁kilos	-11.5959
▁moderna	-11.5959
▁cómoda	-11.5961
▁aparcar	-11.5964
▁feo	-11.5966
▁evento	-11.5968
▁informed	-11.5969
eza	-11.5969
▁respond	-11.5975
▁labios	-11.5981
▁trabajamos	-11.5981
▁celebrate	-11.5987
▁supplies	-11.5989
▁incorrecta	-11.5993
leaned	-11.5997
▁pasaría	-11.6
▁decirlo	-11.6005
▁imp	-11.6007
▁heater	-11.6017
▁pasarme	-11.602
▁memorize	-11.6021
cer	-11.6022
▁considerar	-11.6025
▁conejos	-11.6036
cated	-11.6038
aciones	-11.6045
eligió	-11.6052
▁clientes	-11.6053
▁painful	-11.6053
▁juegan	-11.6056
▁fate	-11.6059
▁products	-11.6065
▁tourists	-11.6067
▁necesites	-11.6067
ín	-11.6073
▁grown	-11.6073
▁decepcionar	-11.6075
▁chances	-11.6081
ico	-11.6093
▁sabías	-11.6095
▁dependen	-11.6103
tado	-11.6117
▁extranjeras	-11.6121
▁superar	-11.613
▁lados	-11.6138
ng	-11.6143
dando	-11.6145
old	-11.6231
▁consume	-11.6233
▁cultura	-11.6238
▁abuse	-11.625
▁hoped	-11.6264
▁muchachos	-11.6278
▁aprobar	-11.6284
ho	-11.6303
▁encuentras	-11.6309
▁stepp	-11.631
▁mentiras	-11.6312
▁acabas	-11.6328
where	-11.633
▁permit	-11.6337
▁scream	-11.6341
▁tire	-11.6348
▁roll	-11.6354
▁damage	-11.6356
▁pilot	-11.6358
▁misterio	-11.6364
▁culture	-11.6365
▁divertida	-11.6365
▁sugerencia	-11.6365
▁reservation	-11.6366
▁clara	-11.6367
▁gu	-11.6367
vamos	-11.6368
▁sujeto	-11.6371
▁belt	-11.6373
▁lu	-11.6375
qui	-11.6376
▁cliente	-11.638
▁familias	-11.6385
▁dollar	-11.639
▁italiano	-11.6398
▁fuente	-11.6401
▁permaneci	-11.6404
▁design	-11.6413
▁mono	-11.6416
▁resign	-11.6419
▁aterriz	-11.6421
ria	-11.6436
su	-11.6453
sumí	-11.6456
▁puñ	-11.6461
tenéis	-11.6464
▁entendí	-11.647
▁russia	-11.6473
five	-11.6474
▁gifts	-11.6484
▁state	-11.6493
▁delay	-11.6501
▁habilidad	-11.6505
▁thorough	-11.6507
▁tela	-11.6508
▁busc	-11.6508
▁shout	-11.6509
▁rápida	-11.651
▁affect	-11.6512
▁actitud	-11.6512
▁admiro	-11.6512
▁anteojos	-11.6512
▁attitude	-11.6512
▁autumn	-11.6512
▁auténtico	-11.6512
▁cedió	-11.6512
▁challenge	-11.6512
▁conjunto	-11.6512
▁desastre	-11.6512
▁desierta	-11.6512
▁downstairs	-11.6512
▁eighteen	-11.6512
▁estilo	-11.6512
▁financial	-11.6512
▁halloween	-11.6512
▁horario	-11.6512
▁hunch	-11.6512
▁journalist	-11.6512
▁junk	-11.6512
▁lastimó	-11.6512
▁lápices	-11.6512
▁narrow	-11.6512
▁promedio	-11.6512
▁príncipe	-11.6512
▁regreso	-11.6512
▁repugnante	-11.6512
▁scissors	-11.6512
▁statue	-11.6512
▁stubborn	-11.6512
▁traicionó	-11.6512
▁trigger	-11.6512
▁unreliable	-11.6512
▁pálido	-11.6512
▁recién	-11.6512
▁screw	-11.6512
▁sensación	-11.6512
▁simpático	-11.6512
▁flashlight	-11.6512
▁zona	-11.6512
▁falleció	-11.6512
▁honey	-11.6512
▁slam	-11.6512
▁stomachache	-11.6512
▁atento	-11.6512
▁department	-11.6512
▁empiece	-11.6512
▁reduce	-11.6512
▁dozen	-11.6512
▁pozo	-11.6512
▁purse	-11.6512
▁sirvió	-11.6512
▁lavó	-11.6512
▁pipe	-11.6512
▁palace	-11.6512
▁antig	-11.6512
▁authority	-11.6513
▁further	-11.6513
▁nearby	-11.6513
▁eyesight	-11.6513
▁tóma	-11.6513
▁soltera	-11.6513
▁remarkable	-11.6513
▁repentinamente	-11.6513
▁operation	-11.6513
▁harina	-11.6513
▁dibujo	-11.6513
▁sugiero	-11.6513
▁acondicionado	-11.6514
▁confidence	-11.6514
▁rejected	-11.6514
▁informado	-11.6514
▁happier	-11.6515
▁construcción	-11.6515
▁quejarse	-11.6515
▁atravesó	-11.6515
▁appetite	-11.6515
▁pavo	-11.6515
▁soap	-11.6515
▁threatened	-11.6516
▁respira	-11.6517
▁saque	-11.6517
▁gane	-11.6517
▁lotería	-11.6517
▁continuó	-11.6517
▁ciertamente	-11.6518
▁actúa	-11.6518
▁mostrarme	-11.652
▁boiling	-11.652
▁condición	-11.652
▁proof	-11.652
▁explicarlo	-11.652
▁defense	-11.652
▁secó	-11.652
▁swam	-11.652
▁invitaron	-11.652
▁muestra	-11.6522
▁balde	-11.6522
▁desgracia	-11.6524
▁painter	-11.6525
▁screamed	-11.6525
▁sandwiches	-11.6525
▁cogido	-11.6526
▁mataron	-11.6529
▁enseñaré	-11.6529
▁sobrevivir	-11.653
▁apunta	-11.6531
▁busco	-11.6531
▁cave	-11.6531
▁pasaste	-11.6533
▁resistir	-11.6534
▁dominar	-11.6534
▁cochera	-11.6537
▁responde	-11.6537
▁comparado	-11.6538
▁preguntarte	-11.6539
▁asientos	-11.654
▁conocerte	-11.6541
▁gastos	-11.6544
▁participate	-11.6544
▁lloverá	-11.6546
▁apetece	-11.6547
zco	-11.6547
▁insistió	-11.6549
▁poeta	-11.6552
▁avoided	-11.6556
▁advis	-11.6557
▁ponerme	-11.6558
▁adivina	-11.6559
▁joy	-11.6561
▁crowded	-11.6562
▁officer	-11.6564
▁yendo	-11.6566
▁oye	-11.6569
▁trabajas	-11.6569
▁checked	-11.657
▁rainy	-11.6573
▁comete	-11.6574
▁uniforme	-11.6575
▁hijas	-11.6576
▁estudias	-11.6577
▁tiro	-11.6579
▁barber	-11.6581
▁worrying	-11.6585
▁guns	-11.6588
▁completa	-11.659
▁nodded	-11.6591
▁breaking	-11.6591
▁assure	-11.6602
▁daría	-11.6609
▁aman	-11.6619
▁comprarse	-11.662
voted	-11.6621
▁foreigners	-11.6624
tiendo	-11.6632
▁cabe	-11.6641
▁tires	-11.6657
▁discuti	-11.6659
▁encontrarte	-11.6662
▁knees	-11.6665
▁amarillas	-11.6681
aban	-11.6681
▁lamp	-11.6693
▁sienten	-11.6695
pueden	-11.6712
▁lovely	-11.6714
tenemos	-11.6719
▁chistes	-11.6723
tir	-11.6742
vi	-11.6748
▁prepara	-11.6754
▁pasas	-11.6756
▁salgas	-11.6757
▁lead	-11.6763
eh	-11.6781
▁colecciona	-11.6787
▁aguantar	-11.68
▁listens	-11.6803
▁pages	-11.6805
ará	-11.6813
iz	-11.6823
▁molestar	-11.6825
▁encantador	-11.6826
▁logr	-11.6826
▁meals	-11.6829
▁understanding	-11.6839
▁ocupar	-11.6842
ismo	-11.6846
▁alegre	-11.6854
▁bolsillos	-11.6855
▁pockets	-11.6872
▁revistas	-11.6872
▁west	-11.6872
▁encantado	-11.6872
▁consigue	-11.6877
▁magazines	-11.688
▁maletas	-11.688
▁cura	-11.689
pi	-11.6896
▁norma	-11.6906
▁vayan	-11.6907
▁dare	-11.6908
▁pencils	-11.6922
▁owner	-11.6926
▁lamenta	-11.695
che	-11.6952
▁cups	-11.6955
podé	-11.6958
▁realizar	-11.6963
▁asustar	-11.6981
▁confuso	-11.6995
▁pesadilla	-11.6998
▁brain	-11.7
▁cortina	-11.7003
▁cheque	-11.7005
▁ghost	-11.7005
▁detalle	-11.7006
▁adulto	-11.7014
▁violent	-11.702
▁traiga	-11.702
▁mission	-11.7032
▁detenido	-11.7035
eras	-11.7045
▁doctors	-11.705
▁suicidar	-11.7062
cierto	-11.7062
▁bebí	-11.7064
vy	-11.7065
▁ayudes	-11.7071
▁compara	-11.7075
tando	-11.7076
sabés	-11.7088
queréis	-11.7088
tendré	-11.7088
ustedes	-11.7107
▁collect	-11.7114
▁evit	-11.7117
▁separate	-11.7118
▁hesitate	-11.7122
▁origin	-11.7123
▁faint	-11.7124
▁confess	-11.7125
▁borde	-11.7125
▁quarrel	-11.7126
▁superior	-11.7129
▁tenedor	-11.7129
▁comercial	-11.713
▁ángel	-11.713
▁convenient	-11.7132
▁wealth	-11.7134
▁gentil	-11.7134
▁spli	-11.7135
▁veneno	-11.7136
▁spot	-11.7137
▁conscious	-11.7137
tacó	-11.7137
▁aburrida	-11.7137
▁aceite	-11.7137
▁acepto	-11.7137
▁album	-11.7137
▁apetito	-11.7137
▁application	-11.7137
▁cafetería	-11.7137
▁cambié	-11.7137
▁circumstances	-11.7137
▁clásica	-11.7137
▁complex	-11.7137
▁conocieron	-11.7137
▁conseguido	-11.7137
▁decírselo	-11.7137
▁desmayó	-11.7137
▁disculpó	-11.7137
▁eléctrica	-11.7137
▁excepcional	-11.7137
▁gatillo	-11.7137
▁grifo	-11.7137
▁húmedo	-11.7137
▁independiente	-11.7137
▁infantil	-11.7137
▁international	-11.7137
▁intérprete	-11.7137
▁january	-11.7137
▁ladrones	-11.7137
▁ligero	-11.7137
▁linterna	-11.7137
▁mobile	-11.7137
▁mínimo	-11.7137
▁narita	-11.7137
▁necesaria	-11.7137
▁pajamas	-11.7137
▁patinar	-11.7137
▁physics	-11.7137
▁pánico	-11.7137
▁religión	-11.7137
▁research	-11.7137
▁responsibility	-11.7137
▁rising	-11.7137
▁rompecabezas	-11.7137
▁translation	-11.7137
▁veloz	-11.7137
▁vencido	-11.7137
▁virus	-11.7137
▁vídeo	-11.7137
▁corriente	-11.7137
▁desaparecido	-11.7137
▁romantic	-11.7137
▁amusing	-11.7137
▁typical	-11.7137
▁apague	-11.7137
▁assistant	-11.7137
▁palacio	-11.7137
▁acciones	-11.7137
▁vegetales	-11.7137
▁estatua	-11.7137
▁coincidencia	-11.7137
▁deprimido	-11.7137
▁pink	-11.7137
▁láv	-11.7137
▁resuelto	-11.7137
▁cocinero	-11.7137
▁almorzamos	-11.7137
▁pintor	-11.7137
▁aparentemente	-11.7137
▁fog	-11.7137
▁datos	-11.7138
▁amazed	-11.7138
▁frog	-11.7138
▁communicate	-11.7138
▁ebrio	-11.7138
▁desocupado	-11.7138
▁secretary	-11.7138
▁poquito	-11.7138
▁lenguaje	-11.7138
▁pasaje	-11.7138
▁directamente	-11.7138
▁treatment	-11.7138
▁thrilled	-11.7138
▁tratamiento	-11.7138
▁salimos	-11.7138
▁strike	-11.7139
▁exitoso	-11.7139
▁sink	-11.7139
▁gripe	-11.7139
▁"¡	-11.7139
▁hatred	-11.7139
▁bush	-11.7139
▁salón	-11.7139
▁impedir	-11.7139
▁cloudy	-11.7139
▁guía	-11.7139
▁soñando	-11.7139
▁drowned	-11.714
▁librería	-11.714
▁flow	-11.714
▁visible	-11.714
▁revel	-11.7141
▁astuto	-11.7141
▁planned	-11.7141
▁encouraged	-11.7142
▁punctual	-11.7142
▁subiendo	-11.7142
▁incorrecto	-11.7142
▁sorprendería	-11.7142
▁alegría	-11.7142
▁cheered	-11.7143
▁perderás	-11.7143
▁path	-11.7143
▁sentamos	-11.7143
▁enseñando	-11.7144
▁warmer	-11.7144
▁barrio	-11.7145
▁gastado	-11.7145
▁ganando	-11.7146
▁divorcio	-11.7147
▁practical	-11.7148
▁mudó	-11.7148
▁loudly	-11.7148
▁crush	-11.7148
▁deceived	-11.7149
▁retired	-11.7149
▁lottery	-11.7149
▁fainted	-11.715
▁unknown	-11.715
▁recursos	-11.715
▁float	-11.7151
▁comamos	-11.7153
▁reconocí	-11.7153
▁border	-11.7153
▁sincera	-11.7153
▁logró	-11.7154
han	-11.7155
▁misión	-11.7156
▁ours	-11.7158
▁yard	-11.7158
▁climbing	-11.7161
▁mire	-11.7161
▁mezcla	-11.7162
▁fea	-11.7162
▁improved	-11.7162
▁career	-11.7164
todos	-11.7164
▁preguntando	-11.7165
▁cultiva	-11.7166
▁respetar	-11.7167
▁insectos	-11.7168
▁sudando	-11.717
▁enojar	-11.7172
▁tonta	-11.7173
fi	-11.7176
▁latest	-11.7179
ula	-11.7183
▁daughters	-11.7198
▁cumple	-11.7202
▁consecuencias	-11.7203
▁trabajador	-11.7205
▁estate	-11.7214
▁ideal	-11.7214
▁creemos	-11.7217
▁beard	-11.7223
▁utiliza	-11.7227
▁mirá	-11.7228
▁tigers	-11.7238
▁comb	-11.7239
▁lobos	-11.7255
▁dejas	-11.7272
▁adultos	-11.7275
▁blamed	-11.7279
▁enero	-11.7285
▁seated	-11.7289
▁caus	-11.7289
▁cigarrillos	-11.729
▁pienses	-11.7291
▁políticos	-11.7299
▁osos	-11.732
▁juguetes	-11.7326
▁documents	-11.7343
manded	-11.7348
▁lawn	-11.7356
misunderstanding	-11.7368
▁letras	-11.7379
▁juntar	-11.738
▁asegur	-11.7381
▁showing	-11.7406
▁vasos	-11.7407
gó	-11.7422
▁abandon	-11.7435
op	-11.7435
ica	-11.7438
ke	-11.7445
▁stones	-11.7476
▁pis	-11.7484
▁bi	-11.7496
x	-11.7505
▁ref	-11.7506
pr	-11.7509
▁llaman	-11.7515
▁locos	-11.7517
▁dejá	-11.7529
▁lanza	-11.7532
▁toque	-11.7546
▁derram	-11.7557
▁seria	-11.7558
▁tapa	-11.7559
▁limpias	-11.7578
▁cds	-11.759
▁anterior	-11.7614
▁asusta	-11.7655
▁universitario	-11.7656
▁ventaja	-11.7657
▁fresca	-11.7657
out	-11.7659
▁barata	-11.766
▁falsa	-11.766
▁sonríe	-11.766
▁prima	-11.766
▁source	-11.7661
▁odd	-11.7662
▁conocimiento	-11.7663
▁ciervo	-11.7663
▁corté	-11.7665
▁cambie	-11.7668
▁conozca	-11.7668
▁prisionero	-11.7669
▁voluntario	-11.7669
▁rabbit	-11.767
▁sienta	-11.767
▁conejo	-11.7671
▁serpiente	-11.7671
▁snake	-11.7671
▁fle	-11.7671
▁segundos	-11.7674
▁liber	-11.7674
▁alimento	-11.768
ados	-11.768
▁interior	-11.7699
▁tuyos	-11.771
▁quema	-11.771
▁vaca	-11.7717
▁horror	-11.7724
▁fu	-11.7729
▁quita	-11.7731
edades	-11.7735
▁firma	-11.7744
▁preocupados	-11.7747
▁loose	-11.7748
▁temer	-11.7749
▁cen	-11.775
▁ladra	-11.7754
shirt	-11.7755
thirty	-11.7755
ahora	-11.7756
▁owes	-11.7756
▁serve	-11.7758
▁caza	-11.776
handed	-11.7761
▁disgust	-11.7762
▁pusi	-11.7763
vale	-11.7764
▁astronaut	-11.7767
soy	-11.7769
▁reunió	-11.7773
▁vueltas	-11.778
▁mark	-11.778
▁despertado	-11.7784
▁falls	-11.7785
▁engañar	-11.779
▁insist	-11.7795
▁aprecia	-11.7797
▁escolar	-11.7798
▁skate	-11.7799
▁absolute	-11.78
▁trigo	-11.78
▁demostrar	-11.7801
▁negar	-11.7801
▁profunda	-11.7803
scribió	-11.7803
▁dish	-11.7803
▁tranquila	-11.7804
▁aprobado	-11.7804
▁asintió	-11.7804
▁ciega	-11.7804
▁delegate	-11.7804
▁determine	-11.7804
▁duermo	-11.7804
▁escrita	-11.7804
▁exámenes	-11.7804
▁forehead	-11.7804
▁frigorífico	-11.7804
▁glance	-11.7804
▁independent	-11.7804
▁luggage	-11.7804
▁médica	-11.7804
▁niebla	-11.7804
▁ochenta	-11.7804
▁opposite	-11.7804
▁ordinary	-11.7804
▁popcorn	-11.7804
▁recomendó	-11.7804
▁rotten	-11.7804
▁siguiendo	-11.7804
▁stool	-11.7804
▁surprising	-11.7804
▁thumb	-11.7804
▁timbre	-11.7804
▁toothpaste	-11.7804
▁universal	-11.7804
▁volleyball	-11.7804
▁withdraw	-11.7804
▁wolves	-11.7804
▁álbum	-11.7804
▁audiencia	-11.7804
▁fierce	-11.7804
▁haircut	-11.7804
▁silk	-11.7804
▁atractiva	-11.7804
▁culpo	-11.7804
▁pésimo	-11.7804
▁sesenta	-11.7804
▁quíta	-11.7804
▁disaster	-11.7804
▁heladera	-11.7804
▁sake	-11.7804
▁desperate	-11.7804
▁aguanto	-11.7804
▁bici	-11.7804
▁punishment	-11.7804
▁underestimate	-11.7804
▁magia	-11.7804
▁stew	-11.7804
▁princesa	-11.7804
▁alquiler	-11.7804
▁breed	-11.7804
▁volvamos	-11.7804
▁wings	-11.7804
▁escaso	-11.7804
▁bookstore	-11.7804
▁otherwise	-11.7804
▁tentación	-11.7805
▁crema	-11.7805
▁silly	-11.7805
▁comieron	-11.7805
▁esperábamos	-11.7805
▁powerful	-11.7805
▁internacional	-11.7805
▁comenzado	-11.7805
▁investigando	-11.7805
▁wheat	-11.7805
▁practicing	-11.7805
▁national	-11.7805
▁published	-11.7805
▁nevó	-11.7805
▁reconoció	-11.7805
▁delgado	-11.7805
▁prometido	-11.7805
▁harvest	-11.7806
▁princess	-11.7806
▁micro	-11.7806
▁coal	-11.7806
▁mencionó	-11.7807
▁oven	-11.7807
▁charlar	-11.7807
▁preocuparme	-11.7807
▁sucedido	-11.7807
▁decidiste	-11.7808
▁beans	-11.7808
▁scary	-11.7808
▁difficulties	-11.7809
▁sinceramente	-11.7809
▁invité	-11.7809
▁track	-11.7809
▁recuperó	-11.7809
▁active	-11.7809
▁preparada	-11.781
▁llegada	-11.781
▁bajando	-11.7811
▁golden	-11.7811
▁camping	-11.7811
▁enamoró	-11.7812
▁bow	-11.7812
▁cheating	-11.7812
▁grito	-11.7812
▁buscaba	-11.7813
▁distract	-11.7813
▁tercera	-11.7813
▁cumplido	-11.7814
▁disco	-11.7814
▁mas	-11.7815
▁conducta	-11.7815
▁punch	-11.7816
▁agudo	-11.7816
▁insects	-11.7818
▁tijeras	-11.7818
▁bola	-11.7818
▁infeliz	-11.782
▁higher	-11.7823
▁damaged	-11.7823
▁insulted	-11.7825
▁admired	-11.7825
▁crashed	-11.7826
▁resources	-11.7827
▁ahorros	-11.7828
▁contestó	-11.7829
▁llevé	-11.7829
▁dancer	-11.783
▁minor	-11.7831
▁llamaron	-11.7832
▁normally	-11.7835
▁rió	-11.7836
▁cambiará	-11.7836
▁remains	-11.7838
▁astronauta	-11.7841
▁señora	-11.7842
▁entiendes	-11.7843
▁ayudarla	-11.7845
▁relaxed	-11.7846
▁complaints	-11.7846
▁nerves	-11.7846
▁hundreds	-11.7847
▁intentes	-11.7848
▁wipe	-11.7848
up	-11.785
▁papeles	-11.785
▁instante	-11.7853
▁avisar	-11.7863
▁balance	-11.7864
▁lips	-11.7865
▁ancianos	-11.7865
▁leyes	-11.7875
▁deserved	-11.7876
▁entendería	-11.7878
▁cast	-11.7883
▁momentos	-11.7891
▁compraron	-11.7892
▁viví	-11.7893
▁sucede	-11.7895
ame	-11.7895
▁trescient	-11.7901
▁tigres	-11.7902
▁veras	-11.7906
▁influencia	-11.7907
▁vais	-11.7908
▁ayudaré	-11.791
hi	-11.7911
▁budget	-11.7915
you	-11.7919
▁reads	-11.7919
▁terminará	-11.7921
▁abus	-11.7925
▁humana	-11.7927
▁alquilar	-11.7929
▁rojos	-11.793
led	-11.7932
▁streets	-11.7933
rían	-11.7934
▁sientas	-11.794
▁rabbits	-11.794
▁nails	-11.7943
▁cortinas	-11.7949
▁beg	-11.798
▁esperara	-11.7983
▁adults	-11.7987
▁cancelar	-11.8003
▁interesantes	-11.8005
▁pa	-11.8008
▁difíciles	-11.8009
ea	-11.8013
▁regards	-11.8015
▁sangra	-11.8015
▁atropell	-11.8017
▁llora	-11.803
▁llegaré	-11.804
▁gustaban	-11.8047
▁hermosas	-11.805
▁adoptar	-11.8055
▁stops	-11.8058
▁cho	-11.8065
pped	-11.8088
▁formal	-11.8089
▁escrib	-11.8091
▁smokes	-11.8102
▁usan	-11.8106
▁estúpidas	-11.811
▁vengan	-11.8122
▁fuerzas	-11.8158
▁sube	-11.819
▁piedras	-11.8196
▁trozos	-11.8206
tuviste	-11.8206
ard	-11.8216
rías	-11.8224
▁baila	-11.8233
▁odiar	-11.8237
▁sopl	-11.824
▁hablarle	-11.824
▁cometa	-11.8265
▁ka	-11.8266
▁junt	-11.8277
▁seda	-11.8277
▁perdona	-11.828
▁frutas	-11.8293
▁k	-11.8298
▁sew	-11.8305
ería	-11.8311
ware	-11.8311
▁llamadas	-11.8313
▁acostumbr	-11.8328
▁aliment	-11.8349
ished	-11.8357
ine	-11.8363
▁milagro	-11.8371
▁qui	-11.8375
▁character	-11.8379
▁verdes	-11.838
▁principiante	-11.8381
▁papa	-11.8382
▁elefante	-11.8383
▁pedazo	-11.8383
▁comment	-11.8383
▁politician	-11.8383
▁peligrosa	-11.8384
▁nail	-11.8384
▁candle	-11.8385
▁farmer	-11.8385
▁fantasma	-11.8386
▁droga	-11.8387
▁competent	-11.8387
▁memoriz	-11.839
▁deseos	-11.8393
▁foreigner	-11.8394
▁rompe	-11.8397
ily	-11.8398
actuando	-11.8399
iera	-11.8399
▁sometime	-11.8406
▁bears	-11.8408
▁goat	-11.8409
▁consist	-11.841
metió	-11.8411
pé	-11.842
rte	-11.8422
▁tumba	-11.8424
▁lobo	-11.8426
ándome	-11.8438
ló	-11.8441
▁crece	-11.8442
cho	-11.8442
ármelo	-11.8444
▁comprende	-11.8445
▁gang	-11.8449
▁admira	-11.8451
gracias	-11.8455
▁individual	-11.8456
▁heridos	-11.8464
creés	-11.8467
fuiste	-11.8469
will	-11.8471
imed	-11.8477
▁juegue	-11.8477
▁korea	-11.8478
▁exact	-11.8478
▁materia	-11.8481
cy	-11.8485
▁escala	-11.8486
ucho	-11.8487
▁content	-11.8487
vienes	-11.8495
▁disagree	-11.8499
▁influence	-11.8501
▁postpone	-11.8503
▁crack	-11.8504
▁pronounce	-11.8506
▁conduct	-11.8508
vertirse	-11.8508
▁tax	-11.8508
▁exterior	-11.8511
▁corea	-11.8511
▁furious	-11.8513
▁fluent	-11.8514
dejaste	-11.8514
▁robber	-11.8514
▁prime	-11.8515
▁moto	-11.8517
▁daños	-11.8517
▁east	-11.8517
▁commit	-11.8518
▁orphan	-11.8518
▁victim	-11.8518
▁acento	-11.8518
▁alphabet	-11.8518
▁arrival	-11.8518
▁arrow	-11.8518
▁campaign	-11.8518
▁circle	-11.8518
▁comencemos	-11.8518
▁conceal	-11.8518
▁círculo	-11.8518
▁description	-11.8518
▁discount	-11.8518
▁environment	-11.8518
▁essential	-11.8518
▁explique	-11.8518
▁forecast	-11.8518
▁garaje	-11.8518
▁handwriting	-11.8518
▁hilton	-11.8518
▁honeymoon	-11.8518
▁increasing	-11.8518
▁injusto	-11.8518
▁julio	-11.8518
▁lectura	-11.8518
▁llores	-11.8518
▁luxury	-11.8518
▁necklace	-11.8518
▁portugal	-11.8518
▁pudieron	-11.8518
▁purchase	-11.8518
▁racket	-11.8518
▁riqueza	-11.8518
▁roosevelt	-11.8518
▁semejante	-11.8518
▁switzerland	-11.8518
▁sírva	-11.8518
▁technology	-11.8518
▁tecnología	-11.8518
▁telefónica	-11.8518
▁unconscious	-11.8518
▁whisky	-11.8518
▁wolf	-11.8518
▁yourselves	-11.8518
▁árabe	-11.8518
▁hiroshima	-11.8518
▁millionaire	-11.8518
▁predecir	-11.8518
▁soborno	-11.8518
▁below	-11.8518
▁inesperado	-11.8518
▁suicidio	-11.8518
▁briefcase	-11.8518
▁gym	-11.8518
▁plain	-11.8518
▁ésos	-11.8518
▁charity	-11.8518
▁delegados	-11.8518
▁escoba	-11.8518
▁optimistic	-11.8518
▁campaña	-11.8518
▁presencia	-11.8518
▁suiza	-11.8518
▁recurrir	-11.8518
▁jury	-11.8518
▁perdiste	-11.8518
▁nacimiento	-11.8518
▁fbi	-11.8518
▁dizzy	-11.8518
▁volviera	-11.8518
▁cuero	-11.8518
▁tidy	-11.8518
▁renunció	-11.8518
▁confíe	-11.8518
▁sorprendente	-11.8518
▁desagradable	-11.8518
▁figura	-11.8518
▁broom	-11.8519
▁fuga	-11.8519
▁casco	-11.8519
▁mojado	-11.8519
▁digging	-11.8519
▁pusiste	-11.8519
▁operación	-11.8519
▁rechazado	-11.8519
▁interpreter	-11.8519
▁convertido	-11.8519
▁grasa	-11.8519
▁medalla	-11.8519
▁reino	-11.852
▁unlocked	-11.852
▁empeorando	-11.852
▁automovilístico	-11.852
▁empezaste	-11.852
▁comidas	-11.852
▁condenado	-11.852
▁unlucky	-11.8521
▁july	-11.8521
▁chew	-11.8521
▁fake	-11.8521
▁spicy	-11.8521
▁parties	-11.8521
▁enviado	-11.8522
▁permitió	-11.8522
▁pusiera	-11.8522
▁preocuparte	-11.8523
▁cambiando	-11.8523
▁cumplió	-11.8523
▁desayunado	-11.8523
▁caí	-11.8523
▁funcionará	-11.8524
▁votaron	-11.8524
▁style	-11.8524
▁inquieto	-11.8524
▁dr	-11.8525
▁talentoso	-11.8526
▁hunger	-11.8526
▁probarlo	-11.8526
▁convencerlo	-11.8527
▁sentaron	-11.8528
▁arreglarlo	-11.8528
▁coreano	-11.8529
▁disgusting	-11.8529
▁banca	-11.8529
▁convencerle	-11.8529
▁oración	-11.8531
▁nado	-11.8531
▁llegando	-11.8531
▁online	-11.8532
▁pure	-11.8532
▁cortado	-11.8535
▁hilo	-11.8536
▁medal	-11.8536
▁mentí	-11.8537
▁saludos	-11.8537
▁secretos	-11.8537
▁eighty	-11.8538
▁earned	-11.8539
▁searching	-11.8539
▁averigua	-11.8541
▁tango	-11.8544
▁tocaba	-11.8546
▁palo	-11.8547
▁caridad	-11.8547
▁confident	-11.8552
▁alérgica	-11.8553
▁salvajes	-11.8553
▁durará	-11.8554
▁firmó	-11.8554
▁enfermedades	-11.8555
▁recordó	-11.8557
aría	-11.8558
▁examine	-11.8559
▁vacant	-11.856
▁breathing	-11.8562
▁decisiones	-11.857
▁appreciated	-11.8577
▁permíta	-11.8577
▁loosen	-11.858
▁populares	-11.858
▁entering	-11.8581
▁visitarme	-11.8583
▁crops	-11.8584
▁encontrarlo	-11.8596
▁operate	-11.8601
▁stands	-11.8602
▁pierdas	-11.8604
▁customers	-11.8604
▁negros	-11.8605
▁toys	-11.8609
▁comemos	-11.8614
▁adolescentes	-11.8614
▁casaron	-11.8621
▁vivos	-11.8621
▁eche	-11.8622
▁latin	-11.8623
▁parts	-11.8625
lew	-11.8625
ible	-11.8625
▁judg	-11.8635
▁aseguro	-11.864
▁veros	-11.8642
▁chairs	-11.8645
▁encontrarme	-11.8646
▁velas	-11.8646
▁canilla	-11.8652
▁cuentas	-11.8653
▁lid	-11.8662
▁despegar	-11.8667
▁precioso	-11.8673
▁sucia	-11.8677
▁juntas	-11.8678
▁anota	-11.8679
zo	-11.868
▁sillas	-11.8685
▁cha	-11.8695
▁monos	-11.8703
▁pides	-11.8705
▁secrets	-11.8706
▁pares	-11.8715
▁prefieres	-11.8719
▁prisoners	-11.8726
aje	-11.8731
▁sorprender	-11.8736
▁tip	-11.8737
▁ciudadanos	-11.8746
▁shine	-11.8754
ob	-11.8764
▁nación	-11.877
▁savings	-11.8787
▁ends	-11.8787
▁jugará	-11.8791
▁aun	-11.8805
▁digan	-11.8805
▁números	-11.8814
▁faces	-11.8824
▁revisar	-11.8825
▁suicida	-11.8837
▁ba	-11.8839
▁cakes	-11.8889
▁suitcases	-11.89
▁metas	-11.892
▁mild	-11.8922
▁golpear	-11.8926
▁alerta	-11.8928
▁jo	-11.8928
ezca	-11.8965
▁contactar	-11.8972
▁baña	-11.8974
▁risks	-11.8993
tara	-11.8999
▁grano	-11.9001
▁li	-11.9004
ez	-11.9006
▁invit	-11.9017
▁gustar	-11.9025
▁pequeñas	-11.9038
▁seek	-11.9039
▁amanecer	-11.9041
▁gastar	-11.9043
▁trampas	-11.9066
▁pet	-11.9067
▁flirt	-11.9068
men	-11.9069
sistieron	-11.9082
▁laughs	-11.9099
▁sabrá	-11.9103
▁economic	-11.9105
▁encontraré	-11.9108
▁viejas	-11.9118
▁stare	-11.9119
▁boil	-11.9125
minded	-11.913
▁foods	-11.9136
▁miracle	-11.914
▁sabio	-11.914
▁invention	-11.914
▁crudo	-11.9142
▁mosquito	-11.9144
▁conociera	-11.9144
▁nightmare	-11.9144
▁constant	-11.9145
▁pig	-11.9146
▁hierba	-11.9146
▁tontería	-11.9146
▁block	-11.9148
▁límite	-11.9148
▁diamante	-11.9149
▁sincero	-11.9152
▁rueda	-11.9152
▁elephant	-11.9152
▁rayo	-11.9154
▁cow	-11.9155
▁sorprendidos	-11.916
put	-11.9161
▁rana	-11.9164
▁cable	-11.9171
ze	-11.9175
▁exams	-11.9183
▁ayudarlo	-11.9202
▁chill	-11.9209
ier	-11.9211
▁bonitas	-11.9224
▁cop	-11.9232
▁leña	-11.9235
oíste	-11.9237
phone	-11.9238
house	-11.9239
▁resume	-11.9241
volvió	-11.9243
▁famosos	-11.9245
tomás	-11.9245
sabías	-11.9247
mira	-11.925
tan	-11.9254
▁viajes	-11.9256
▁aspirin	-11.9256
▁rise	-11.9256
▁cheat	-11.9265
oh	-11.9268
▁cloth	-11.9271
▁bake	-11.9272
▁rescue	-11.9272
▁cuantos	-11.9273
▁reward	-11.9273
▁mexican	-11.9273
▁respeta	-11.9273
▁pianist	-11.9275
▁fren	-11.9278
▁graduate	-11.9279
▁spill	-11.928
▁divertir	-11.928
▁dólar	-11.9281
▁cuchara	-11.9283
▁cálida	-11.9284
▁conociste	-11.9285
▁comfort	-11.9286
▁declara	-11.9287
▁acquaint	-11.9287
▁flash	-11.9287
▁aguja	-11.9287
▁alibi	-11.9287
▁castigo	-11.9287
▁chemistry	-11.9287
▁chimenea	-11.9287
▁chocó	-11.9287
▁combustible	-11.9287
▁conmovió	-11.9287
▁eager	-11.9287
▁económica	-11.9287
▁egypt	-11.9287
▁enemiga	-11.9287
▁envíe	-11.9287
▁estricta	-11.9287
▁estufa	-11.9287
▁fantastic	-11.9287
▁faucet	-11.9287
▁filipino	-11.9287
▁generous	-11.9287
▁homicidio	-11.9287
▁huelga	-11.9287
▁jabón	-11.9287
▁lyrics	-11.9287
▁lámpara	-11.9287
▁motocicleta	-11.9287
▁overslept	-11.9287
▁pedimos	-11.9287
▁portátil	-11.9287
▁poverty	-11.9287
▁préstamo	-11.9287
▁puerto	-11.9287
▁pública	-11.9287
▁reliable	-11.9287
▁romántico	-11.9287
▁semáforo	-11.9287
▁settle	-11.9287
▁shampoo	-11.9287
▁surrounded	-11.9287
▁sweep	-11.9287
▁taburete	-11.9287
▁terribly	-11.9287
▁unhealthy	-11.9287
▁veterinario	-11.9287
▁videojuegos	-11.9287
▁wednesday	-11.9287
▁carbón	-11.9287
▁coach	-11.9287
▁engañe	-11.9287
▁excepción	-11.9287
▁flame	-11.9287
▁hirviendo	-11.9287
▁justicia	-11.9287
▁jurado	-11.9287
▁smith	-11.9287
▁fifth	-11.9287
▁skinny	-11.9287
▁militar	-11.9287
▁region	-11.9287
▁literatura	-11.9287
▁competencia	-11.9287
▁divirtiendo	-11.9287
▁multa	-11.9287
▁asistente	-11.9287
▁composition	-11.9287
▁property	-11.9287
▁traducción	-11.9287
▁temptation	-11.9287
▁inundación	-11.9287
▁cellphone	-11.9287
▁freedom	-11.9287
▁asombroso	-11.9287
▁exigi	-11.9287
▁fascinante	-11.9287
▁possibly	-11.9288
▁collection	-11.9288
▁fumo	-11.9288
▁ignorance	-11.9288
▁investigating	-11.9288
▁fascinating	-11.9288
▁ignorancia	-11.9288
▁continuación	-11.9288
▁shallow	-11.9288
▁gimnasio	-11.9288
▁amargo	-11.9288
▁scarf	-11.9288
▁mandé	-11.9288
▁defectos	-11.9288
ámonos	-11.9288
▁miserable	-11.9288
▁soleado	-11.9288
▁announced	-11.9288
▁estuviese	-11.9288
▁ninety	-11.9288
▁practicando	-11.9288
▁nublado	-11.9288
▁sunset	-11.9288
▁goose	-11.9288
▁máximo	-11.9288
▁mareado	-11.9288
▁ahorrando	-11.9289
▁embarrassing	-11.9289
▁tasa	-11.9289
▁humanidad	-11.9289
▁ocasiones	-11.9289
▁maid	-11.9289
▁desorientado	-11.9289
▁bunch	-11.9289
▁cerebro	-11.9289
▁presupuesto	-11.9289
▁típico	-11.9289
▁charming	-11.9289
▁cuanta	-11.9289
▁roommate	-11.9289
▁mantenga	-11.929
▁apurado	-11.929
▁reality	-11.929
▁prometí	-11.929
▁pardon	-11.929
▁chores	-11.929
▁sixty	-11.929
▁asustada	-11.929
▁rama	-11.929
▁charlando	-11.9291
▁leather	-11.9291
▁sufrió	-11.9291
▁guide	-11.9291
▁relieved	-11.9292
▁aquél	-11.9292
▁shape	-11.9292
▁molestando	-11.9293
▁approached	-11.9293
▁millonario	-11.9293
▁nieva	-11.9293
▁struck	-11.9293
▁agradecerle	-11.9294
▁quejarte	-11.9294
▁compone	-11.9295
▁conseguiste	-11.9295
▁absurdo	-11.9295
▁crió	-11.9296
▁confiaba	-11.9296
▁ángeles	-11.9296
▁security	-11.9296
▁recovered	-11.9296
▁recomendar	-11.9297
▁clothing	-11.9297
▁rodeado	-11.9297
▁empecemos	-11.9297
▁pudiste	-11.9297
▁suelto	-11.9297
▁traído	-11.9297
▁mueve	-11.9297
▁diseño	-11.9298
▁saldrá	-11.9298
▁dyed	-11.9299
▁pianista	-11.9299
▁entrenador	-11.93
▁anytime	-11.9302
▁descripción	-11.9303
▁evidente	-11.9303
▁quint	-11.9304
▁sentarte	-11.9304
▁memorizar	-11.9304
▁mientas	-11.9304
▁pensamientos	-11.9304
▁ranch	-11.9304
▁sobrevivió	-11.9304
▁terminamos	-11.9304
▁shooting	-11.9305
▁postponed	-11.9306
▁reírme	-11.9306
▁sigamos	-11.9306
▁stain	-11.9307
▁enterrado	-11.9309
▁pasta	-11.9312
▁drawing	-11.9312
▁escuchaste	-11.9313
▁repeated	-11.9314
▁tomaste	-11.9316
▁fatal	-11.9317
▁aspirina	-11.9319
▁mentioned	-11.932
▁entenderlo	-11.932
▁longest	-11.932
▁oírlo	-11.9322
▁packed	-11.9324
▁pinch	-11.9325
▁enseñarte	-11.9325
▁crown	-11.9327
▁ho	-11.9331
▁vela	-11.9332
▁soñar	-11.9333
▁ajustar	-11.9336
▁fooled	-11.9338
▁opiniones	-11.9339
▁brilla	-11.934
▁tasted	-11.9341
▁entendió	-11.9342
▁direct	-11.9344
▁slapp	-11.9346
▁bomberos	-11.9348
▁tira	-11.9349
▁rumores	-11.9351
▁accent	-11.9351
▁data	-11.9357
▁llevado	-11.9359
▁aprovechar	-11.9359
▁welcomed	-11.9364
▁escuchaba	-11.9369
▁pagará	-11.9371
▁escuchas	-11.9375
▁libres	-11.9378
▁charle	-11.9378
▁ocurren	-11.9379
▁citizens	-11.9379
▁tools	-11.938
▁ingresos	-11.938
▁escuches	-11.9381
▁sobras	-11.939
▁dial	-11.9391
▁molestes	-11.9403
▁mejorando	-11.9403
▁doscient	-11.9405
▁mass	-11.9421
ling	-11.9423
▁creep	-11.9423
ter	-11.943
▁politicians	-11.9435
▁prisioneros	-11.9446
hablas	-11.9452
▁cultural	-11.9458
▁llenos	-11.9463
▁ab	-11.9472
▁ages	-11.9473
▁encuentres	-11.9478
▁rodillas	-11.9479
▁manten	-11.9482
▁dejarte	-11.9492
bré	-11.9493
tura	-11.9512
▁entienden	-11.9538
▁sabíamos	-11.9556
▁hambrientos	-11.9556
way	-11.9568
ka	-11.9575
▁answering	-11.958
▁contiene	-11.9584
▁decisions	-11.9589
sistencia	-11.959
ned	-11.9591
gi	-11.96
▁burns	-11.9601
▁arrives	-11.9602
▁walls	-11.9609
▁pospone	-11.9616
ué	-11.9618
▁vinieras	-11.9623
▁esperá	-11.964
ura	-11.9656
▁durar	-11.9669
▁tirar	-11.9672
▁mental	-11.9686
▁interpret	-11.969
sistió	-11.9691
▁pat	-11.9695
▁abogados	-11.9697
chó	-11.9715
▁solicit	-11.9721
the	-11.9726
encia	-11.9732
▁ocult	-11.9733
mu	-11.9734
▁ku	-11.9737
▁blancos	-11.9752
vete	-11.9754
▁supieras	-11.9757
▁agrees	-11.9776
▁arrojar	-11.9779
▁sir	-11.9789
▁acabe	-11.9802
▁pare	-11.9805
▁fa	-11.981
nza	-11.9816
▁bur	-11.9818
▁llamara	-11.9823
ang	-11.9837
come	-11.9837
▁operar	-11.9852
▁ag	-11.9863
fully	-11.9863
▁negoci	-11.9872
▁term	-11.9876
▁weigh	-11.9881
▁puestos	-11.9885
▁aplica	-11.9886
▁visitas	-11.9904
▁temas	-11.9917
▁plancha	-11.992
▁regresa	-11.9937
▁ste	-11.9939
▁juegas	-11.9947
▁extend	-11.9948
▁comprara	-11.9956
▁idiotas	-11.9957
▁quedará	-11.9959
ant	-11.9959
▁paintings	-11.9962
▁seize	-11.9967
▁volunteer	-11.9967
▁siguen	-11.9972
▁pijama	-11.9973
▁ovni	-11.9973
▁ufo	-11.9973
▁archivo	-11.9983
▁blanket	-11.9983
gas	-11.9984
▁buildings	-11.9984
▁andá	-11.9987
▁gemelo	-11.9988
▁araña	-11.9988
▁relative	-11.9988
▁alumno	-11.9989
▁trick	-11.9989
▁tiger	-11.999
▁pondrá	-11.9992
▁sheet	-12.0004
▁fac	-12.0004
▁consiga	-12.0015
▁recuerdos	-12.0018
▁cambios	-12.0019
▁alas	-12.0027
tera	-12.003
ial	-12.0033
med	-12.0034
▁becomes	-12.0056
zing	-12.0058
▁blam	-12.0063
▁sa	-12.0063
▁oscur	-12.0067
employed	-12.0069
llama	-12.0072
sobre	-12.0073
recibi	-12.0074
▁industrial	-12.0079
▁exit	-12.0081
▁image	-12.0082
▁compro	-12.0084
▁palm	-12.0085
▁bal	-12.0087
cio	-12.0088
▁organ	-12.0088
▁labor	-12.0093
▁bark	-12.0099
▁orgullosos	-12.0099
▁absurd	-12.01
▁repetir	-12.0106
▁surrender	-12.0107
▁develop	-12.0107
▁accomplish	-12.0108
▁defeat	-12.0108
▁novelist	-12.0109
aña	-12.0109
▁tercer	-12.0109
▁period	-12.0112
▁tells	-12.0112
▁acudir	-12.0113
▁potato	-12.0114
▁cuadra	-12.0115
▁recent	-12.0116
▁happie	-12.0117
▁estupenda	-12.0118
▁probado	-12.0118
▁susurr	-12.0119
▁circula	-12.012
▁disneyland	-12.012
▁dirige	-12.0121
▁apuñaló	-12.0121
▁atmosphere	-12.0121
▁atmósfera	-12.0121
▁awesome	-12.0121
▁bastón	-12.0121
▁cadena	-12.0121
▁coartada	-12.0121
▁cueva	-12.0121
▁curiosity	-12.0121
▁egipto	-12.0121
▁engañado	-12.0121
▁febrero	-12.0121
▁february	-12.0121
▁hagámoslo	-12.0121
▁indispensable	-12.0121
▁inténtalo	-12.0121
▁invisible	-12.0121
▁jersey	-12.0121
▁juramento	-12.0121
▁koala	-12.0121
▁mahjong	-12.0121
▁maletero	-12.0121
▁muralla	-12.0121
▁obtuve	-12.0121
▁olvidadizo	-12.0121
▁outdoors	-12.0121
▁pacífico	-12.0121
▁perfume	-12.0121
▁plastic	-12.0121
▁pésima	-12.0121
▁resemblance	-12.0121
▁sacerdote	-12.0121
▁scheme	-12.0121
▁skating	-12.0121
▁solving	-12.0121
▁suspicion	-12.0121
▁twitter	-12.0121
▁uncomfortable	-12.0121
▁victoria	-12.0121
▁vodka	-12.0121
▁voleibol	-12.0121
▁colección	-12.0121
▁pledge	-12.0121
▁raqueta	-12.0121
▁risa	-12.0121
▁construction	-12.0121
▁enojó	-12.0121
▁noventa	-12.0121
▁spoon	-12.0121
▁surgery	-12.0121
▁apropiado	-12.0121
▁oath	-12.0121
▁textbook	-12.0121
▁despegó	-12.0121
▁forzado	-12.0121
▁hurried	-12.0121
▁registradora	-12.0121
▁essay	-12.0121
▁pollera	-12.0121
▁siglo	-12.0121
▁steak	-12.0121
▁región	-12.0121
▁assistance	-12.0121
▁perdida	-12.0121
▁teresa	-12.0121
▁creciendo	-12.0121
▁kong	-12.0121
▁viniendo	-12.0121
rubbed	-12.0121
▁slipped	-12.0121
▁tries	-12.0121
▁toyota	-12.0121
▁queráis	-12.0121
▁producción	-12.0121
▁empeorar	-12.0121
▁detallada	-12.0121
▁condujera	-12.0121
▁chef	-12.0121
▁prometiste	-12.0121
▁aggressive	-12.0121
▁scarce	-12.0121
▁marzo	-12.0121
▁comenzando	-12.0121
▁presentimiento	-12.0121
▁serbia	-12.0121
▁modales	-12.0122
▁pobreza	-12.0122
▁downtown	-12.0122
▁lloraba	-12.0122
▁gané	-12.0122
▁latín	-12.0122
▁talkative	-12.0122
▁concentrarme	-12.0122
▁relajado	-12.0122
▁hunter	-12.0122
▁sentimos	-12.0122
▁kidnapped	-12.0122
▁harp	-12.0122
▁tolerate	-12.0122
▁tardará	-12.0123
▁retrasado	-12.0123
▁aumentando	-12.0123
▁severo	-12.0123
▁contrató	-12.0123
▁secretaria	-12.0123
▁shining	-12.0123
▁miércoles	-12.0123
▁dawn	-12.0123
▁petición	-12.0123
▁retiró	-12.0123
▁effective	-12.0123
▁previsto	-12.0123
▁postura	-12.0123
▁ceremonia	-12.0124
▁defender	-12.0124
▁aventura	-12.0124
▁plead	-12.0125
▁fried	-12.0125
▁solid	-12.0125
▁fumando	-12.0125
▁cuán	-12.0125
▁pride	-12.0125
▁conciencia	-12.0127
▁sword	-12.0127
▁agradecerte	-12.0127
▁incredible	-12.0127
▁horno	-12.0128
▁yelling	-12.013
▁lastimado	-12.013
▁frontera	-12.013
▁besando	-12.013
▁marchar	-12.0131
▁rancho	-12.0132
▁saldr	-12.0132
▁función	-12.0132
▁rollo	-12.0133
▁remote	-12.0133
▁congratulated	-12.0133
▁jar	-12.0134
gging	-12.0134
▁apuntes	-12.0134
▁servirá	-12.0135
▁sándwiches	-12.0135
▁correctamente	-12.0136
▁defeated	-12.0136
▁windy	-12.0137
▁especialmente	-12.0138
▁collected	-12.0138
▁trash	-12.0139
▁install	-12.0139
▁compramos	-12.014
donald	-12.014
▁frozen	-12.014
▁resigned	-12.014
▁prayed	-12.014
▁sufre	-12.0142
▁importaba	-12.0142
▁cogieron	-12.0143
▁retirar	-12.0145
▁repairing	-12.0145
▁pala	-12.0145
▁lavarse	-12.0145
▁practicar	-12.0146
▁buscas	-12.0146
▁interrupted	-12.0147
▁contenta	-12.0147
omic	-12.0148
ice	-12.0148
▁preguntaré	-12.015
▁levantarte	-12.015
▁intentaré	-12.015
▁helpful	-12.0152
▁trabaje	-12.0152
▁expenses	-12.0153
▁advanced	-12.0154
▁llegaremos	-12.0157
▁remove	-12.016
▁pensarlo	-12.0161
▁vendedor	-12.0161
▁shed	-12.0161
▁gustará	-12.0161
▁knocking	-12.0162
▁hamburguesas	-12.0162
▁contarle	-12.0163
▁flea	-12.0163
▁cure	-12.0164
▁waiter	-12.0166
▁salía	-12.0168
▁compraría	-12.0169
▁ayudaros	-12.0169
▁helpless	-12.017
▁landed	-12.0171
▁matarme	-12.0171
▁corona	-12.0173
▁dormía	-12.0177
▁huérfano	-12.0178
▁ponerlo	-12.0182
▁mud	-12.0182
▁pronuncia	-12.0183
▁entendía	-12.0184
▁observar	-12.0184
▁arrancar	-12.0185
▁consideran	-12.0185
▁x	-12.0188
▁sung	-12.0191
▁estaciones	-12.0192
▁reconocer	-12.0194
▁litera	-12.0196
▁agradec	-12.0196
▁preguntado	-12.0196
▁robot	-12.0196
▁counting	-12.0197
▁estampillas	-12.0198
▁británicos	-12.0198
▁handy	-12.02
▁dresses	-12.0201
▁verás	-12.0204
▁cruza	-12.0205
▁plátanos	-12.021
▁aboard	-12.0211
▁falló	-12.0211
▁rep	-12.0211
▁hablara	-12.0214
▁recuperar	-12.0215
▁cometí	-12.0221
▁boxes	-12.0222
▁wan	-12.023
▁ballenas	-12.0234
▁mislead	-12.0236
▁crecer	-12.0236
▁cal	-12.0237
▁probó	-12.0238
▁armed	-12.0241
▁skills	-12.0246
▁abandona	-12.0262
▁cops	-12.0265
per	-12.0268
▁elephants	-12.027
▁mor	-12.0271
▁elefantes	-12.0282
▁pedazos	-12.0282
▁comments	-12.0282
▁candles	-12.0282
▁rested	-12.0288
▁prob	-12.0292
tions	-12.0295
dded	-12.0305
▁cheques	-12.0306
▁bitte	-12.0328
▁curtains	-12.033
▁sucios	-12.033
▁acto	-12.0335
vos	-12.0337
▁forgiven	-12.0344
▁criad	-12.0353
▁enfrentar	-12.036
▁official	-12.036
▁aumenta	-12.0371
sos	-12.0376
▁adaptar	-12.0377
▁vivi	-12.0377
▁confund	-12.0381
▁caras	-12.0382
▁discuta	-12.0383
tic	-12.0387
▁antiguas	-12.039
▁tard	-12.0391
▁tristes	-12.0391
▁tocado	-12.0406
▁persuadir	-12.0426
▁tiendas	-12.0427
signed	-12.0435
▁antiguos	-12.0439
▁heridas	-12.0439
▁cases	-12.0461
▁phoned	-12.0475
alo	-12.0477
▁lawyers	-12.0486
▁pesos	-12.0487
cking	-12.0499
▁sincere	-12.0509
▁ciertas	-12.0512
▁abuelos	-12.0533
▁wasted	-12.0537
▁riesgos	-12.0553
▁acusar	-12.0557
▁confirm	-12.0557
▁sides	-12.0557
selo	-12.0558
▁informar	-12.0561
▁atrapados	-12.0561
▁arrastr	-12.0561
▁cajas	-12.0564
▁horne	-12.0576
cen	-12.0576
▁conditions	-12.0581
ary	-12.0586
lic	-12.0586
▁dejará	-12.0598
▁esperes	-12.06
ered	-12.0615
▁aguanta	-12.0622
▁habits	-12.0623
▁rumors	-12.0633
▁bu	-12.0655
▁leía	-12.0659
▁jugu	-12.0664
▁bonitos	-12.0671
0,000	-12.0674
▁queríamos	-12.0682
▁desperdicia	-12.0684
▁asks	-12.0694
▁bags	-12.07
▁mayo	-12.0703
▁saluda	-12.0728
▁pega	-12.0731
estaba	-12.0734
▁exception	-12.0736
▁andaba	-12.075
▁desprecia	-12.0757
ric	-12.0761
for	-12.0764
▁vení	-12.0769
▁chinos	-12.0772
▁rem	-12.0781
▁spa	-12.0782
▁unir	-12.0785
▁suits	-12.0787
▁pu	-12.0788
▁mereces	-12.079
▁mix	-12.0793
▁needle	-12.0795
▁arregla	-12.0796
via	-12.08
▁espaldas	-12.0808
▁explic	-12.0813
▁th	-12.0814
tas	-12.0826
▁estudios	-12.0833
▁causar	-12.0849
▁clave	-12.0859
▁compensa	-12.0867
▁retire	-12.0871
▁skill	-12.0875
▁económico	-12.0882
▁eléctrico	-12.0882
▁gatito	-12.0882
▁encendida	-12.0882
▁topic	-12.0887
▁bump	-12.0888
▁levante	-12.0889
▁distinta	-12.089
▁kite	-12.089
▁slice	-12.0891
▁lemon	-12.0892
▁entienda	-12.0892
▁granjero	-12.0893
▁desconocido	-12.0893
▁truco	-12.0893
rán	-12.0894
▁antique	-12.0895
▁tigre	-12.0896
▁banana	-12.0897
▁turista	-12.09
ally	-12.0904
▁grado	-12.0911
▁fina	-12.0924
▁lines	-12.0932
▁bills	-12.0933
ssed	-12.0934
▁moleste	-12.0937
▁déje	-12.0941
▁vigila	-12.0946
▁decí	-12.0947
▁secreta	-12.0962
▁podr	-12.0972
nna	-12.0972
sabéis	-12.0975
ayer	-12.0981
compraste	-12.0981
mañana	-12.0982
▁empujó	-12.0985
aquí	-12.0986
0,	-12.0989
aún	-12.099
▁ancho	-12.0991
▁registr	-12.0992
▁montó	-12.0998
ándole	-12.1004
ship	-12.1004
▁pistol	-12.1006
▁enamorados	-12.1009
▁yell	-12.1009
▁deliver	-12.1013
▁squeak	-12.1015
▁llovi	-12.1016
▁punish	-12.1017
▁destroy	-12.1017
▁crawl	-12.1019
▁camp	-12.1021
▁basta	-12.1022
▁bore	-12.1023
▁cheerful	-12.1024
▁incredibl	-12.1025
▁ligera	-12.1027
▁inmediata	-12.1027
▁reciente	-12.1027
▁engaño	-12.1027
▁aparenta	-12.1029
▁orgullo	-12.1029
▁rug	-12.103
▁thai	-12.103
▁cómete	-12.103
caño	-12.103
▁acknowledge	-12.103
▁almuerza	-12.103
▁appropriate	-12.103
▁bathtub	-12.103
▁berlin	-12.103
▁blouse	-12.103
▁bufanda	-12.103
▁chalk	-12.103
▁columbus	-12.103
▁cordones	-12.103
▁diablo	-12.103
▁dieciséis	-12.103
▁divertimos	-12.103
▁dáselo	-12.103
▁estricto	-12.103
▁estropeado	-12.103
▁estupidez	-12.103
▁fellow	-12.103
▁financiera	-12.103
▁fluidamente	-12.103
▁graduó	-12.103
▁greece	-12.103
▁helmet	-12.103
▁imágenes	-12.103
▁insecure	-12.103
▁intenciones	-12.103
▁link	-12.103
▁literature	-12.103
▁locura	-12.103
▁lógica	-12.103
▁marrón	-12.103
▁maíz	-12.103
▁movió	-12.103
▁muéstre	-12.103
▁positive	-12.103
▁revenge	-12.103
▁revolution	-12.103
▁ritmo	-12.103
▁récord	-12.103
▁sanguíneo	-12.103
▁scotland	-12.103
▁shoelaces	-12.103
▁smooth	-12.103
▁spaghetti	-12.103
▁starving	-12.103
▁stiff	-12.103
▁sucediendo	-12.103
▁sueltes	-12.103
▁tattoo	-12.103
▁telefónico	-12.103
▁traitor	-12.103
▁trousers	-12.103
▁tunnel	-12.103
▁término	-12.103
▁undressing	-12.103
▁unpleasant	-12.103
▁victory	-12.103
▁worries	-12.103
▁ópera	-12.103
▁blusa	-12.103
▁destiny	-12.103
▁jerk	-12.103
▁lío	-12.103
▁perezoso	-12.103
▁escocia	-12.103
▁traidor	-12.103
▁arabic	-12.103
▁fluidez	-12.103
▁atractivo	-12.103
▁morder	-12.103
▁pausa	-12.103
▁prevenir	-12.103
▁propiedad	-12.103
▁valentin	-12.103
▁zumo	-12.103
▁battery	-12.103
▁performance	-12.103
▁temple	-12.103
▁colón	-12.103
▁expresión	-12.103
▁agenda	-12.103
▁zero	-12.103
▁sonrieron	-12.103
▁aliviado	-12.103
▁pecho	-12.103
▁necessity	-12.103
▁bañera	-12.103
▁túnel	-12.103
▁cabaña	-12.103
▁grecia	-12.103
▁comiera	-12.103
▁sorprendida	-12.103
▁construyeron	-12.103
▁swimmer	-12.103
▁descubrí	-12.103
▁canasta	-12.103
▁creature	-12.103
▁rompí	-12.103
▁aviso	-12.103
▁encontraba	-12.103
▁reconozco	-12.103
▁fluido	-12.103
▁tropical	-12.103
▁production	-12.103
▁cocinera	-12.103
▁generation	-12.103
▁complicada	-12.103
▁whispered	-12.103
▁genuine	-12.103
▁cavando	-12.1031
▁dining	-12.1031
▁backyard	-12.1031
▁deportivo	-12.1031
▁pearl	-12.1031
▁jarra	-12.1031
▁numerosa	-12.1031
▁florero	-12.1031
▁freezing	-12.1031
▁descuento	-12.1031
▁ministro	-12.1031
▁poderoso	-12.1031
▁respiración	-12.1031
▁pura	-12.1031
▁relajarme	-12.1031
▁confiado	-12.1031
▁inherit	-12.1032
▁atropellado	-12.1032
▁aplaudió	-12.1032
▁soltó	-12.1032
▁ladrando	-12.1032
▁exploded	-12.1032
▁panic	-12.1032
▁baking	-12.1032
▁sentarnos	-12.1032
▁arriesgado	-12.1032
▁impresionante	-12.1032
▁pantalla	-12.1032
▁texas	-12.1032
▁vidrio	-12.1032
▁joyas	-12.1033
▁invest	-12.1033
▁despidieron	-12.1033
▁disculparme	-12.1033
▁rendirse	-12.1033
▁divirtió	-12.1033
▁proposed	-12.1033
▁arranged	-12.1034
▁impos	-12.1034
▁pronunciar	-12.1034
▁nacier	-12.1034
▁háblame	-12.1034
▁checks	-12.1034
▁conditioner	-12.1035
▁bajé	-12.1035
▁parezca	-12.1035
▁directly	-12.1035
▁aceptable	-12.1035
▁atajo	-12.1036
▁personaje	-12.1036
▁theft	-12.1037
▁justice	-12.1037
▁declaración	-12.1037
▁careless	-12.1038
▁volviste	-12.1038
▁praised	-12.1039
▁severe	-12.1039
▁chased	-12.104
▁regularly	-12.104
▁discutimos	-12.104
▁trade	-12.1041
▁carrots	-12.1041
▁trace	-12.1041
▁contenido	-12.1042
▁acostarme	-12.1042
▁waved	-12.1042
▁aprendemos	-12.1043
▁cancelado	-12.1043
▁entrado	-12.1044
▁novelista	-12.1044
▁volunteered	-12.1044
▁póngase	-12.1044
▁situa	-12.1044
▁click	-12.1045
▁boiled	-12.1045
▁nave	-12.1046
van	-12.1047
▁yelled	-12.1048
▁distracted	-12.1048
▁settled	-12.1049
▁circunstancias	-12.105
▁kilograms	-12.105
▁zanahorias	-12.105
▁jewels	-12.105
▁mango	-12.105
▁suministros	-12.105
▁folded	-12.105
▁coughing	-12.105
▁matches	-12.105
▁traduce	-12.1052
▁decorate	-12.1054
▁fortunate	-12.1054
▁jumping	-12.1055
▁ordené	-12.1056
▁quemé	-12.1056
▁sinking	-12.1056
▁insultó	-12.1057
▁planeado	-12.1059
▁borrachos	-12.106
▁aclarar	-12.106
▁marco	-12.1061
▁pounds	-12.1063
▁fritas	-12.1063
▁dejando	-12.1063
▁besara	-12.1065
▁ruinas	-12.1065
▁fold	-12.1066
▁mudar	-12.1067
▁alike	-12.1068
▁ruidosa	-12.1068
▁posiblemente	-12.1069
▁polish	-12.1071
▁consequences	-12.1076
▁leftovers	-12.1076
▁resfriar	-12.1078
▁coca	-12.1079
▁relacion	-12.1079
▁lleguemos	-12.108
▁ratas	-12.108
▁safely	-12.1081
▁puertas	-12.1083
▁escucharlo	-12.1083
fe	-12.1085
▁estante	-12.1085
pon	-12.1087
▁palma	-12.1095
▁aid	-12.1098
▁cantaba	-12.1098
▁lightly	-12.11
▁celebra	-12.11
▁oíste	-12.1102
▁shortly	-12.1103
▁vegetarianos	-12.1103
▁postal	-12.1104
▁cuidará	-12.1105
▁bee	-12.1107
▁confi	-12.1107
▁planeaba	-12.1107
▁sudor	-12.1108
▁pluck	-12.1109
▁sub	-12.1109
▁matarte	-12.1111
ki	-12.1112
▁brakes	-12.1115
▁subí	-12.1117
▁finales	-12.112
cel	-12.1123
▁protesta	-12.1124
▁stirr	-12.1124
▁escase	-12.1125
▁unido	-12.1126
▁sab	-12.1131
▁veremos	-12.1135
▁colgar	-12.1139
▁pron	-12.1149
▁spiders	-12.1154
▁teenagers	-12.1154
▁vegetarians	-12.1154
▁manténga	-12.1159
▁sentences	-12.1161
▁include	-12.1167
▁consiste	-12.1171
▁shows	-12.1172
▁empezará	-12.1179
▁tricks	-12.118
▁apesta	-12.1184
▁quedarás	-12.1185
▁manej	-12.1187
▁messages	-12.1187
▁llevarlo	-12.1188
ors	-12.1189
▁seco	-12.1192
▁ruedas	-12.1194
▁pacientes	-12.1201
▁constante	-12.1202
▁honesta	-12.1205
▁liberar	-12.1206
ense	-12.1213
▁cepillar	-12.1219
▁conozcas	-12.122
▁funcione	-12.1221
▁indicar	-12.1222
▁pel	-12.1224
▁pace	-12.1225
▁leads	-12.1229
▁pot	-12.1231
▁relate	-12.1233
▁arañas	-12.1236
ju	-12.1246
yeron	-12.1253
▁felicit	-12.1254
▁hazme	-12.1258
▁rats	-12.1259
▁customs	-12.126
aga	-12.1262
ika	-12.1266
▁provoc	-12.1274
▁fingí	-12.1277
▁dejase	-12.1281
▁ignora	-12.1285
▁damas	-12.1288
▁cherr	-12.129
▁celebrar	-12.1291
▁médicos	-12.1291
▁ponen	-12.1324
▁inusual	-12.1324
▁lessons	-12.1326
▁ge	-12.1326
dad	-12.1335
▁doctores	-12.1336
▁pills	-12.1352
spite	-12.1354
▁temor	-12.1376
▁hábitos	-12.138
▁funcionan	-12.1383
▁mist	-12.1383
can	-12.1384
▁ladrar	-12.1404
▁volvía	-12.1405
▁corr	-12.1406
▁bas	-12.1409
▁meetings	-12.141
▁canto	-12.1421
▁mina	-12.1422
▁deberá	-12.1426
ísima	-12.1426
▁numbers	-12.143
sigues	-12.1431
▁diseases	-12.1433
▁criar	-12.1437
▁hombros	-12.1447
▁grita	-12.1449
▁complains	-12.1465
▁convenc	-12.1467
▁abras	-12.1472
▁interfere	-12.1473
▁alert	-12.148
▁equivoca	-12.1484
rg	-12.1486
aking	-12.1493
▁vendrás	-12.1513
▁terremotos	-12.1514
▁basa	-12.1521
car	-12.1527
▁lograr	-12.153
tivo	-12.1532
▁divorciar	-12.154
▁sl	-12.155
▁enseñ	-12.1553
▁earthquakes	-12.1555
▁interfer	-12.1555
▁acompañ	-12.1572
ak	-12.1576
▁hipo	-12.1577
▁soltar	-12.1578
▁corn	-12.158
zed	-12.1584
▁resolv	-12.1591
▁suyos	-12.1622
▁faltan	-12.163
▁desat	-12.1631
▁políticas	-12.1636
ponlo	-12.1642
▁pagan	-12.1676
▁groups	-12.1677
▁crea	-12.1684
▁satisfechos	-12.1691
▁nativos	-12.1691
▁revisa	-12.1701
▁1,000	-12.1703
berg	-12.1706
▁soñado	-12.1711
▁incluye	-12.1712
▁verdaderos	-12.1719
debido	-12.1727
▁entrega	-12.1732
▁bolígrafos	-12.1732
▁cortas	-12.1733
▁bon	-12.174
illas	-12.1745
rry	-12.1748
▁apoya	-12.1753
▁junta	-12.1758
▁enfada	-12.1763
ui	-12.1767
▁breaks	-12.1781
▁quedas	-12.1796
cree	-12.1808
▁grupos	-12.1815
▁esperanzas	-12.1815
▁pinturas	-12.1829
cal	-12.1843
stó	-12.1845
▁produ	-12.1845
▁cru	-12.1849
▁fracasar	-12.1851
▁gum	-12.1864
▁unió	-12.1868
▁wrap	-12.1868
▁bra	-12.187
ches	-12.1871
▁dig	-12.1873
▁flecha	-12.1882
▁vegetarian	-12.1883
▁ensayo	-12.1885
▁navideña	-12.1886
▁score	-12.1886
▁vitamin	-12.1887
▁effect	-12.1889
▁oveja	-12.1889
▁víctima	-12.1892
▁camello	-12.1892
▁explica	-12.1892
▁monkey	-12.1893
▁casé	-12.1893
▁separado	-12.1893
▁beginner	-12.1893
▁spider	-12.1894
▁teenager	-12.1894
▁engineer	-12.1895
▁ballena	-12.1895
▁adolescente	-12.1896
▁limit	-12.1901
preferirías	-12.1904
▁zapato	-12.1905
▁vitamina	-12.1905
▁sobra	-12.191
▁warning	-12.1913
▁captur	-12.1918
▁sana	-12.1927
▁horn	-12.1928
▁estima	-12.193
▁rebel	-12.193
ster	-12.1931
tendrás	-12.194
▁industria	-12.1944
tled	-12.1945
sion	-12.1948
▁bloque	-12.1951
nged	-12.1952
entendiste	-12.1975
encontraste	-12.1981
cerró	-12.1981
querría	-12.1981
siempre	-12.1982
nunca	-12.1982
thank	-12.1982
quiero	-12.1982
dijo	-12.1989
▁hablarte	-12.1992
▁verlos	-12.1992
▁driven	-12.1993
ció	-12.2001
▁marte	-12.2001
land	-12.2003
▁mc	-12.2007
▁guarantee	-12.2013
▁fro	-12.2014
▁shave	-12.2014
▁congratulate	-12.2014
▁dye	-12.2014
▁identif	-12.2015
ártelo	-12.2016
▁chain	-12.2016
▁focus	-12.2017
▁reserve	-12.2017
▁reveal	-12.2017
▁discover	-12.2017
stico	-12.2017
▁rechazar	-12.2019
▁jugado	-12.202
▁ascenso	-12.2021
▁nacional	-12.2022
▁assemble	-12.2023
▁superfici	-12.2023
▁app	-12.2023
▁unfortunate	-12.2025
▁hábil	-12.2027
▁tímida	-12.2027
▁measure	-12.2028
▁spy	-12.2029
▁compose	-12.2029
▁natal	-12.2029
▁indulge	-12.2029
▁occur	-12.203
▁minister	-12.203
▁depart	-12.203
ustria	-12.203
▁aficionado	-12.203
▁agresivo	-12.203
▁alivio	-12.203
▁almacén	-12.203
▁amateur	-12.203
▁architect	-12.203
▁argentina	-12.203
▁arquitecto	-12.203
▁asqueroso	-12.203
▁attorney	-12.203
▁aviones	-12.203
▁awoke	-12.203
▁blog	-12.203
▁bloom	-12.203
▁brazilian	-12.203
▁buzón	-12.203
▁cariño	-12.203
▁castaño	-12.203
▁catholic	-12.203
▁century	-12.203
▁ceremony	-12.203
▁champion	-12.203
▁chemical	-12.203
▁chopin	-12.203
▁cicatriz	-12.203
▁closing	-12.203
▁commercial	-12.203
▁conocida	-12.203
▁curioso	-12.203
▁darwin	-12.203
▁declared	-12.203
▁desafortunado	-12.203
▁desafío	-12.203
▁dismissed	-12.203
▁encienda	-12.203
▁engagement	-12.203
▁envidia	-12.203
▁envidio	-12.203
▁estacionamiento	-12.203
▁etiqueta	-12.203
▁female	-12.203
▁filosofía	-12.203
▁fotógrafo	-12.203
▁gambling	-12.203
▁generoso	-12.203
▁globo	-12.203
▁grandparents	-12.203
▁hangover	-12.203
▁hurricane	-12.203
▁improving	-12.203
▁inteligencia	-12.203
▁interview	-12.203
▁kanji	-12.203
▁laguna	-12.203
▁laundry	-12.203
▁magnífica	-12.203
▁malgaste	-12.203
▁mischievous	-12.203
▁monroe	-12.203
▁niego	-12.203
▁niñito	-12.203
▁november	-12.203
▁okinawa	-12.203
▁omelet	-12.203
▁opponent	-12.203
▁overcoat	-12.203
▁oysters	-12.203
▁pacific	-12.203
▁physical	-12.203
▁plástico	-12.203
▁rastro	-12.203
▁refund	-12.203
▁reproductor	-12.203
▁resaca	-12.203
▁response	-12.203
▁sapporo	-12.203
▁semestre	-12.203
▁shinjuku	-12.203
▁thunder	-12.203
▁tractor	-12.203
▁translator	-12.203
▁travieso	-12.203
▁unmarried	-12.203
▁whining	-12.203
▁zealand	-12.203
▁zelanda	-12.203
▁alternative	-12.203
▁august	-12.203
▁barefoot	-12.203
▁napole	-12.203
▁shade	-12.203
▁splash	-12.203
▁broad	-12.203
▁contagious	-12.203
▁escríbeme	-12.203
▁promoted	-12.203
▁revolución	-12.203
▁entrevista	-12.203
▁identical	-12.203
▁paranoico	-12.203
▁patético	-12.203
▁plazo	-12.203
▁camarero	-12.203
▁identidad	-12.203
▁plaza	-12.203
▁receta	-12.203
▁excursión	-12.203
▁templo	-12.203
▁abriera	-12.203
▁admission	-12.203
▁agrado	-12.203
▁paranoid	-12.203
▁trial	-12.203
▁recipe	-12.203
▁typewriter	-12.203
▁biwa	-12.203
▁equipment	-12.203
▁slavery	-12.203
babies	-12.203
▁gorra	-12.203
▁grandpa	-12.203
▁fax	-12.203
▁asocia	-12.203
▁mailbox	-12.203
▁malgasta	-12.203
▁strawberries	-12.203
▁entendieron	-12.203
▁rabia	-12.203
▁western	-12.203
▁mentirosa	-12.203
▁software	-12.203
▁espada	-12.203
▁combine	-12.203
▁espía	-12.203
▁relief	-12.203
▁defendant	-12.203
▁pruébate	-12.203
▁merezco	-12.203
▁engordado	-12.203
▁nevada	-12.203
▁flush	-12.203
▁liberty	-12.203
▁assist	-12.203
▁sufriendo	-12.203
▁fascinated	-12.203
▁supiste	-12.203
▁tumor	-12.203
▁mask	-12.203
▁privada	-12.203
▁huir	-12.203
▁majority	-12.203
▁sediento	-12.203
▁billion	-12.203
▁campus	-12.203
▁expression	-12.203
▁déjanos	-12.203
▁simply	-12.203
▁pub	-12.203
▁factura	-12.203
▁surgeon	-12.203
▁diploma	-12.203
▁ladies	-12.203
▁estudie	-12.203
▁siéntese	-12.203
▁shovel	-12.2031
▁crew	-12.2031
▁sentencia	-12.2031
▁onions	-12.2031
▁housework	-12.2031
▁venture	-12.2031
▁obligación	-12.2031
▁humiliated	-12.2031
▁venganza	-12.2031
▁sostenía	-12.2031
▁reluctantly	-12.2031
▁chatting	-12.2031
▁existencia	-12.2031
▁marina	-12.2031
▁curry	-12.2031
▁frequently	-12.2031
▁accidentally	-12.2032
▁baje	-12.2032
▁personalidad	-12.2032
▁applauded	-12.2032
▁sentémonos	-12.2032
tazo	-12.2032
ul	-12.2032
▁adquir	-12.2032
▁turquía	-12.2032
▁observó	-12.2032
▁balloon	-12.2032
▁sobrevivieron	-12.2032
▁tirado	-12.2033
▁photographer	-12.2033
▁ilusión	-12.2033
▁apresúrate	-12.2033
▁cállate	-12.2033
▁sixteen	-12.2033
▁grites	-12.2033
▁symbol	-12.2033
▁chest	-12.2033
▁portuguese	-12.2033
▁asustó	-12.2033
▁discovery	-12.2033
▁roy	-12.2033
▁pico	-12.2034
▁eché	-12.2034
▁ordenada	-12.2034
▁observe	-12.2034
▁tomatoes	-12.2034
▁wandered	-12.2035
▁perdonado	-12.2035
▁severely	-12.2035
▁wow	-12.2035
▁mudarse	-12.2035
▁gallo	-12.2035
▁cuidadosa	-12.2035
▁preguntes	-12.2035
▁olla	-12.2035
▁pegado	-12.2035
▁approaching	-12.2036
▁nevará	-12.2036
▁connected	-12.2036
▁suavemente	-12.2036
▁entusiasmado	-12.2036
▁sintiendo	-12.2036
▁familiarizado	-12.2037
▁ocurrirá	-12.2038
▁giró	-12.2038
▁impacto	-12.2038
▁pintando	-12.2038
▁animó	-12.2038
▁tortured	-12.2038
▁turtles	-12.2038
▁niega	-12.2038
▁muerde	-12.2038
▁gradual	-12.2038
▁tiza	-12.2039
▁occupied	-12.2039
▁invitaste	-12.2039
▁muchísima	-12.2039
▁recado	-12.2039
itas	-12.204
▁offended	-12.204
▁sentate	-12.204
▁contributed	-12.2041
▁struggled	-12.2041
▁atravesar	-12.2041
▁gano	-12.2042
▁traditional	-12.2043
▁revealed	-12.2043
▁habilidades	-12.2043
▁realizó	-12.2043
▁angeles	-12.2043
▁leyera	-12.2043
▁utter	-12.2043
▁chewing	-12.2044
▁fracasó	-12.2044
▁guardado	-12.2044
▁adventure	-12.2045
▁escaparon	-12.2045
▁shaved	-12.2045
▁negotiate	-12.2045
▁created	-12.2046
▁molestarte	-12.2046
▁despedirme	-12.2046
▁slightly	-12.2046
▁señales	-12.2047
▁hopeless	-12.2047
▁worker	-12.2047
▁lastimarte	-12.2047
▁risky	-12.2047
▁pidiera	-12.2048
▁demora	-12.2048
▁rellenar	-12.2049
▁section	-12.2049
▁tightly	-12.2049
▁adivinar	-12.2049
▁dí	-12.2051
▁cenó	-12.2051
▁jesus	-12.2052
▁tortugas	-12.2052
▁quejar	-12.2053
▁acordarme	-12.2053
ham	-12.2054
▁interrupting	-12.2055
▁portón	-12.2055
▁hesitated	-12.2055
▁rompa	-12.2055
▁registro	-12.2055
▁dinos	-12.2056
▁explicaré	-12.2059
▁útiles	-12.2061
▁theirs	-12.2063
▁preguntarme	-12.2063
▁comparte	-12.2066
▁considerada	-12.2067
▁desmayar	-12.2068
▁culparte	-12.2069
▁acceptable	-12.207
▁tank	-12.2072
▁ordenadores	-12.2072
▁correctly	-12.2074
▁parks	-12.2076
▁prender	-12.2077
▁agente	-12.2078
▁abrazar	-12.2079
▁pino	-12.208
▁pastillas	-12.2081
▁arrestó	-12.2085
▁georg	-12.2086
▁dilo	-12.2086
▁completed	-12.2091
▁atrev	-12.2092
▁reca	-12.2094
▁corredor	-12.2094
▁cantado	-12.2095
▁frutos	-12.2095
▁capa	-12.2098
▁fuertemente	-12.2098
▁corría	-12.2103
▁ignor	-12.2108
▁eligier	-12.2108
▁mejorado	-12.2108
▁huellas	-12.211
▁huesos	-12.211
pressed	-12.211
▁arruinar	-12.211
▁frenos	-12.2113
▁respected	-12.2116
▁muevas	-12.2124
▁remarks	-12.2125
rain	-12.2125
▁uniforms	-12.2126
▁mueren	-12.2127
▁nicer	-12.2129
▁delete	-12.2135
▁encantaba	-12.2136
▁pizzas	-12.2137
▁discute	-12.2138
▁apuros	-12.2139
▁insulto	-12.2142
rió	-12.2144
▁asco	-12.2146
▁hablaste	-12.2149
uela	-12.2149
▁twist	-12.2149
▁buscado	-12.2153
▁laws	-12.2153
▁affairs	-12.2153
▁pensás	-12.2155
▁doors	-12.2166
▁smiles	-12.2168
▁beginners	-12.2168
▁acuest	-12.2169
done	-12.217
▁owed	-12.2173
▁coman	-12.2177
▁catching	-12.2178
▁equivocas	-12.2179
▁nota	-12.2179
▁contentos	-12.2182
▁manga	-12.2184
rk	-12.2192
ger	-12.2195
▁amamos	-12.2196
▁robots	-12.2198
▁relatives	-12.2203
▁esperen	-12.2204
▁rayos	-12.2212
ncé	-12.2218
▁transfer	-12.2227
telo	-12.2231
▁adopta	-12.2232
▁delito	-12.2239
▁notes	-12.2239
▁cambies	-12.2241
▁drain	-12.2252
are	-12.2253
▁visito	-12.2261
▁esperad	-12.2264
▁policías	-12.2264
▁divid	-12.2268
▁sneeze	-12.2277
▁traslad	-12.2283
▁imagina	-12.2287
wa	-12.2298
▁guarde	-12.2302
▁pedía	-12.2302
▁opinions	-12.2309
▁mejillas	-12.2315
▁deudas	-12.2315
adora	-12.2326
ments	-12.233
▁escalado	-12.233
▁pararon	-12.2342
▁ways	-12.2343
▁directions	-12.2345
▁casamos	-12.236
ring	-12.2366
▁empeora	-12.2367
▁cheeks	-12.2374
▁hablaron	-12.2378
▁oculta	-12.2382
▁cerdos	-12.2389
▁seconds	-12.2394
▁taxis	-12.2401
▁aguarda	-12.2402
ating	-12.2407
▁oídos	-12.2408
ador	-12.2414
▁sow	-12.2415
▁rat	-12.2436
▁caros	-12.2458
zca	-12.2477
▁billetes	-12.2478
▁estúpidos	-12.2481
▁verse	-12.2483
▁ventas	-12.2494
▁oscurecie	-12.2497
▁servicios	-12.2509
▁celebr	-12.251
iéramos	-12.2522
▁encogió	-12.2529
ú	-12.253
arle	-12.2531
▁tomate	-12.2533
▁entren	-12.2535
▁loses	-12.2535
▁event	-12.254
▁derrota	-12.2544
▁reforma	-12.2547
▁dividi	-12.2549
▁objetivos	-12.2554
arlo	-12.2557
▁curar	-12.2567
▁shirts	-12.2568
ándolo	-12.2572
▁vacías	-12.2584
▁cer	-12.2598
▁conserva	-12.2605
▁sue	-12.2609
hanging	-12.2614
▁acts	-12.2618
▁exprimi	-12.2627
▁conduces	-12.2629
▁aprenda	-12.263
shed	-12.263
▁sweets	-12.2643
▁sigues	-12.2675
▁stifle	-12.2681
▁critic	-12.2705
▁fiestas	-12.2709
eth	-12.2715
nme	-12.2716
▁vet	-12.2723
▁hab	-12.2725
▁líneas	-12.2736
▁bodas	-12.2736
▁ricas	-12.2766
▁incendios	-12.2766
10,000	-12.2785
▁notable	-12.2785
▁agarra	-12.279
▁equivocados	-12.2804
▁modera	-12.2809
dicated	-12.2816
fic	-12.2845
arios	-12.2856
▁travels	-12.286
osa	-12.2878
hoy	-12.2889
▁triunf	-12.289
ie	-12.2893
eando	-12.2904
proxima	-12.2913
▁du	-12.2915
▁ci	-12.2926
▁absorb	-12.2929
liz	-12.2936
▁aburre	-12.2947
▁cur	-12.2951
▁escuche	-12.2955
conoce	-12.296
tendió	-12.2969
▁respects	-12.297
read	-12.2974
▁conclusion	-12.2986
▁neumático	-12.2993
▁paisaje	-12.2993
▁nieto	-12.2993
▁cubo	-12.2993
▁inglesa	-12.2997
▁candidato	-12.2997
▁mosca	-12.2997
▁ingeniero	-12.3
▁vehículo	-12.3
▁abeja	-12.3002
todo	-12.3004
▁affair	-12.3005
▁cloud	-12.3006
▁pierda	-12.3007
▁supplie	-12.3008
▁degree	-12.3008
▁ingreso	-12.3008
▁customer	-12.3009
▁vegetable	-12.3011
▁element	-12.3018
▁z	-12.3018
▁grade	-12.3019
▁postul	-12.3019
▁elbow	-12.3023
ders	-12.3025
▁incorrect	-12.3032
▁diente	-12.3036
▁má	-12.3046
▁nervios	-12.3048
▁trueno	-12.3061
▁relativ	-12.3064
▁australian	-12.3067
resisti	-12.3073
▁cepilla	-12.3073
▁largos	-12.3075
▁fuel	-12.3078
▁crow	-12.3081
omo	-12.3082
▁traig	-12.3086
▁asegura	-12.3087
terminaste	-12.309
▁toast	-12.3091
entonces	-12.3093
plica	-12.3093
quisiera	-12.3093
recieron	-12.3094
▁pague	-12.3097
▁leas	-12.3097
made	-12.3098
▁hablará	-12.3099
buen	-12.31
entiendes	-12.3101
▁camel	-12.3101
fue	-12.3101
▁item	-12.3102
estudias	-12.3102
cola	-12.3103
may	-12.3103
cas	-12.3107
seguimos	-12.3113
▁horizon	-12.3118
▁afecta	-12.3119
▁maní	-12.3123
▁recover	-12.3125
▁detén	-12.3125
▁swallow	-12.3127
▁confuse	-12.3127
▁impact	-12.3129
▁cared	-12.313
▁prohíb	-12.3131
▁valid	-12.3132
▁comunicar	-12.3132
▁moments	-12.3133
▁branch	-12.3133
▁cazador	-12.3133
▁hog	-12.3134
▁artificial	-12.3134
▁fabrica	-12.3134
▁immediate	-12.3137
▁mastica	-12.3137
árselo	-12.3138
▁threat	-12.3139
▁carbon	-12.314
▁cigar	-12.314
▁averig	-12.314
▁pulse	-12.314
▁inclina	-12.314
▁process	-12.314
▁slip	-12.3141
▁proverb	-12.3141
▁incumbe	-12.3141
▁acumul	-12.3141
▁afterwards	-12.3141
▁ahorita	-12.3141
▁amistoso	-12.3141
▁appeal	-12.3141
▁aprobación	-12.3141
▁arbusto	-12.3141
▁asignatura	-12.3141
▁atómica	-12.3141
▁autobuses	-12.3141
▁awkward	-12.3141
▁baboon	-12.3141
▁bancarrota	-12.3141
▁berlín	-12.3141
▁cajero	-12.3141
▁campamento	-12.3141
▁carácter	-12.3141
▁cerezo	-12.3141
▁chimney	-12.3141
▁cliff	-12.3141
▁clumsy	-12.3141
▁compliment	-12.3141
▁comunicación	-12.3141
▁concierne	-12.3141
▁demonio	-12.3141
▁desconozco	-12.3141
▁destination	-12.3141
▁dumped	-12.3141
▁elderly	-12.3141
▁equilibrio	-12.3141
▁erigi	-12.3141
▁escándalo	-12.3141
▁espagueti	-12.3141
▁estadística	-12.3141
▁exaggerate	-12.3141
▁expose	-12.3141
▁extent	-12.3141
▁feroz	-12.3141
▁flauta	-12.3141
▁garlic	-12.3141
▁gossip	-12.3141
▁grammatical	-12.3141
▁idéntico	-12.3141
▁injusta	-12.3141
▁insensitive	-12.3141
▁intelligence	-12.3141
▁intervened	-12.3141
▁journey	-12.3141
▁kyushu	-12.3141
▁malvado	-12.3141
▁maquillaje	-12.3141
▁misunderstood	-12.3141
▁mysterious	-12.3141
▁negative	-12.3141
▁nephew	-12.3141
▁niñez	-12.3141
▁ostras	-12.3141
▁overweight	-12.3141
▁peluquería	-12.3141
▁platform	-12.3141
▁pollution	-12.3141
▁postcard	-12.3141
▁privacy	-12.3141
▁propina	-12.3141
▁pruebe	-12.3141
▁práctico	-12.3141
▁pulso	-12.3141
▁póquer	-12.3141
▁quebró	-12.3141
▁satisfactory	-12.3141
▁shadow	-12.3141
▁siblings	-12.3141
▁sobrino	-12.3141
▁solitario	-12.3141
▁spinach	-12.3141
▁statistic	-12.3141
▁suegra	-12.3141
▁swept	-12.3141
▁símbolo	-12.3141
▁tatuaje	-12.3141
▁thieves	-12.3141
▁tobillo	-12.3141
▁translating	-12.3141
▁tropas	-12.3141
▁universitaria	-12.3141
▁válido	-12.3141
▁workaholic	-12.3141
▁agricultura	-12.3141
▁confesar	-12.3141
▁conservative	-12.3141
▁elegí	-12.3141
▁hierve	-12.3141
▁pareciera	-12.3141
▁pediste	-12.3141
▁prosper	-12.3141
▁shelter	-12.3141
▁biology	-12.3141
▁biología	-12.3141
▁cease	-12.3141
▁cinta	-12.3141
▁parecida	-12.3141
▁profundidad	-12.3141
▁shortcut	-12.3141
▁sneak	-12.3141
▁ankle	-12.3141
▁bride	-12.3141
▁snack	-12.3141
▁cerradura	-12.3141
▁hágame	-12.3141
▁manteca	-12.3141
▁pateó	-12.3141
▁toothache	-12.3141
▁crítica	-12.3141
▁muriera	-12.3141
▁claridad	-12.3141
▁democratic	-12.3141
▁diversión	-12.3141
▁eternidad	-12.3141
▁intervino	-12.3141
▁kingdom	-12.3141
▁qualified	-12.3141
▁semester	-12.3141
▁thread	-12.3141
▁heaven	-12.3141
▁organization	-12.3141
firiendo	-12.3141
▁bunk	-12.3141
▁clapped	-12.3141
▁profit	-12.3141
▁cayeron	-12.3141
▁yawn	-12.3141
▁organización	-12.3141
▁volcán	-12.3141
▁mentiste	-12.3141
▁unsure	-12.3141
▁guitarist	-12.3141
▁perrito	-12.3141
▁qu	-12.3141
▁philosophy	-12.3141
▁sympathy	-12.3141
▁banjo	-12.3141
▁snore	-12.3141
▁sintieron	-12.3141
▁llévate	-12.3141
▁loyal	-12.3141
▁generación	-12.3141
▁beef	-12.3141
▁cueste	-12.3141
cimiento	-12.3141
▁seafood	-12.3141
▁direcciones	-12.3141
ogen	-12.3141
▁recibe	-12.3141
▁respondido	-12.3141
▁perdóname	-12.3141
▁lloro	-12.3141
▁desesperado	-12.3141
▁shaking	-12.3141
▁corregi	-12.3141
▁abrazó	-12.3141
▁download	-12.3142
▁gentle	-12.3142
▁heavier	-12.3142
▁colgando	-12.3142
▁esquiando	-12.3142
▁roca	-12.3142
▁atleta	-12.3142
▁hiking	-12.3142
▁redacción	-12.3142
▁devastated	-12.3142
▁descubrimiento	-12.3142
▁dolía	-12.3142
▁puro	-12.3142
▁numero	-12.3142
▁tornillo	-12.3142
▁permitted	-12.3142
▁dibujó	-12.3142
▁cattle	-12.3142
▁depriv	-12.3142
▁obligation	-12.3142
▁recto	-12.3142
▁statement	-12.3142
▁mojada	-12.3142
▁conducido	-12.3142
▁esencial	-12.3142
▁meditando	-12.3142
▁azar	-12.3143
▁conclusión	-12.3143
▁interese	-12.3143
▁doloroso	-12.3143
▁reparado	-12.3143
▁temblaba	-12.3143
▁realista	-12.3143
▁stingy	-12.3143
▁seventy	-12.3143
▁amarga	-12.3143
▁tercio	-12.3143
▁hometown	-12.3143
▁consideration	-12.3143
▁revelar	-12.3143
▁disgustado	-12.3144
▁gritando	-12.3144
▁sacaste	-12.3144
▁rapidly	-12.3144
▁terrified	-12.3144
▁levántate	-12.3144
▁aferr	-12.3144
▁doubtful	-12.3144
▁capturado	-12.3144
▁costoso	-12.3144
▁blank	-12.3144
▁choque	-12.3144
▁cirujano	-12.3144
▁continúe	-12.3144
▁enti	-12.3144
▁jesús	-12.3144
▁manual	-12.3144
▁cachorro	-12.3144
▁fiable	-12.3144
▁ahogarse	-12.3145
▁subestimes	-12.3145
▁afilado	-12.3145
▁calentador	-12.3145
▁hervir	-12.3145
▁patada	-12.3145
▁darkness	-12.3145
▁descalzo	-12.3145
▁defensa	-12.3146
▁hook	-12.3146
▁melod	-12.3146
▁established	-12.3146
▁atasco	-12.3146
▁tumbado	-12.3147
▁slower	-12.3147
▁wealthy	-12.3147
▁bombarde	-12.3147
▁entendemos	-12.3148
▁mortal	-12.3148
▁taxista	-12.3148
▁regañó	-12.3148
▁derrotado	-12.3149
▁regularmente	-12.3149
▁matando	-12.3149
▁divertirse	-12.3149
▁suene	-12.3149
▁former	-12.3149
▁deprisa	-12.315
▁misled	-12.315
▁fíj	-12.315
▁objection	-12.315
▁pole	-12.315
▁carbono	-12.315
▁arreglado	-12.3151
▁horizonte	-12.3151
▁amused	-12.3151
▁load	-12.3151
▁alejado	-12.3151
▁culparía	-12.3152
▁stunning	-12.3152
▁regresará	-12.3152
▁apagado	-12.3152
▁spoiled	-12.3152
▁ahogó	-12.3153
▁perform	-12.3153
▁lavado	-12.3153
▁parecé	-12.3154
▁mow	-12.3154
▁dibujar	-12.3156
▁limited	-12.3156
▁politely	-12.3156
▁vámonos	-12.3156
▁associate	-12.3156
▁besaron	-12.3156
▁confirmed	-12.3157
▁delivered	-12.3157
▁alegrará	-12.3157
▁levantaron	-12.3157
▁devolveré	-12.3158
▁sorbo	-12.3158
▁buscamos	-12.3158
▁enseñado	-12.3158
▁sec	-12.3158
▁youngest	-12.3161
▁pese	-12.3161
▁soportarlo	-12.3161
▁desire	-12.3161
▁blowing	-12.3162
▁brillaba	-12.3162
▁necesitás	-12.3162
▁criminales	-12.3163
▁celosa	-12.3163
▁disgusted	-12.3163
▁rendir	-12.3163
▁colgado	-12.3164
▁filete	-12.3164
▁vía	-12.3165
▁invita	-12.3166
▁refieres	-12.3166
▁patatas	-12.3166
▁asiáticos	-12.3166
▁regrets	-12.3166
▁considerable	-12.3168
▁conseguimos	-12.3169
▁satisfactoria	-12.3169
▁culpando	-12.317
▁posibilidades	-12.3171
▁referr	-12.3171
▁empe	-12.3171
▁mago	-12.3172
▁athlete	-12.3174
▁principales	-12.3174
▁behaved	-12.3175
▁examined	-12.3176
▁copies	-12.3177
clined	-12.3179
▁criticize	-12.318
▁exacta	-12.318
▁señaló	-12.318
▁ruidoso	-12.3181
▁aliviar	-12.3182
▁acerques	-12.3182
▁marineros	-12.3182
▁sailors	-12.3182
▁escondidas	-12.3182
▁cerré	-12.3182
▁clon	-12.3183
▁calmado	-12.3184
▁organized	-12.3185
▁necesité	-12.3186
▁amaré	-12.3187
▁tubo	-12.3188
▁wa	-12.3189
▁paré	-12.319
▁errónea	-12.319
▁interna	-12.3191
▁gire	-12.3191
▁menores	-12.3192
▁tame	-12.3192
▁pagaron	-12.3192
▁responda	-12.3195
▁prestarme	-12.3196
▁terminaste	-12.3196
▁eve	-12.3198
▁responded	-12.3198
▁palomas	-12.3198
▁patiently	-12.3198
▁interrumpas	-12.3199
▁atrae	-12.3201
▁terminaron	-12.3203
▁tooth	-12.3203
▁cruce	-12.3206
▁jueguen	-12.3207
▁cambiaré	-12.3208
▁differently	-12.3208
▁seguiré	-12.3212
▁creerle	-12.3214
enzo	-12.3216
▁mantendrá	-12.3217
▁tool	-12.3218
▁bebas	-12.3219
▁descubre	-12.3219
▁mates	-12.322
▁discussing	-12.3223
▁distraer	-12.3224
▁meditar	-12.3226
▁aceptaría	-12.3228
▁mag	-12.3228
▁congelado	-12.3232
▁mienten	-12.3236
▁jugaban	-12.3237
▁tenista	-12.3243
▁permanece	-12.3244
tica	-12.3249
▁acababa	-12.325
▁weeds	-12.3252
▁costear	-12.3257
▁vision	-12.3258
▁vuelves	-12.3265
▁voices	-12.3265
▁escribirle	-12.327
▁sip	-12.3275
▁rec	-12.3275
▁hitch	-12.3288
▁alter	-12.329
▁visitarte	-12.3292
▁monkeys	-12.3296
▁separados	-12.3296
▁vitamins	-12.3297
▁vitaminas	-12.3298
▁heating	-12.3298
▁torn	-12.33
▁provocar	-12.3312
▁decís	-12.3313
▁granjeros	-12.3313
▁trucos	-12.3313
▁antiques	-12.3314
▁logra	-12.3314
ong	-12.3319
lena	-12.3325
fundió	-12.3328
▁sheets	-12.3329
▁exceptional	-12.333
▁usamos	-12.333
▁weighs	-12.3331
▁ja	-12.3332
▁sacrifice	-12.3336
▁pork	-12.3337
▁mall	-12.3338
▁hablen	-12.3342
criado	-12.3343
▁dejarme	-12.3352
▁indian	-12.3353
▁sentirá	-12.3354
nada	-12.3361
▁principiantes	-12.3362
▁farmers	-12.3363
▁abrirá	-12.3367
000	-12.3369
▁telephoned	-12.337
▁ban	-12.3372
▁sumo	-12.3372
▁recog	-12.3376
▁voluntarios	-12.338
▁arresto	-12.3393
▁duermen	-12.3393
▁acos	-12.3395
cked	-12.34
▁consultar	-12.3406
irió	-12.3421
▁cobra	-12.3427
▁doctora	-12.3428
▁enamor	-12.3433
▁oyes	-12.3441
▁ruins	-12.3446
ates	-12.3453
▁cómodos	-12.3453
▁partidos	-12.3458
term	-12.346
▁medicamentos	-12.3462
▁sordos	-12.3462
▁cabras	-12.3462
▁plates	-12.3478
▁youth	-12.3478
▁files	-12.3479
▁recoge	-12.3481
▁demands	-12.3481
▁freed	-12.3482
istic	-12.3483
▁classic	-12.349
▁apresurar	-12.3493
▁ayudamos	-12.3499
ison	-12.3501
▁imports	-12.3502
▁weekends	-12.3506
▁harán	-12.3516
▁alquila	-12.3528
▁tanque	-12.3535
▁imitate	-12.3537
▁infla	-12.3553
▁suficientes	-12.3562
▁tomates	-12.3562
ities	-12.3567
▁peligrosos	-12.3572
▁criminals	-12.358
▁masa	-12.3584
▁represent	-12.3586
▁garantiza	-12.3593
▁vendrías	-12.3617
line	-12.3618
▁ubica	-12.3622
▁arregle	-12.3624
▁estabais	-12.3628
▁boletos	-12.363
▁hoyo	-12.3632
▁parara	-12.3636
▁extendi	-12.3638
▁owned	-12.3639
cre	-12.364
portable	-12.3651
tus	-12.3653
▁inventar	-12.3658
▁despiérta	-12.3659
▁afortunados	-12.3664
▁vari	-12.3676
▁remembering	-12.3679
▁ésas	-12.368
▁intentions	-12.3681
▁sucedier	-12.3682
▁cercanos	-12.3689
▁bienvenidos	-12.3697
ko	-12.3708
▁demandar	-12.3709
▁troubles	-12.3711
▁mirad	-12.3723
melo	-12.375
▁cuidadosos	-12.375
▁remembers	-12.3757
▁costo	-12.3769
▁bro	-12.377
▁copias	-12.3771
▁skirts	-12.3771
▁reform	-12.3772
cé	-12.3776
▁dormidos	-12.3784
▁muñecas	-12.38
▁mars	-12.381
▁acusa	-12.3813
▁camisas	-12.3817
▁gradua	-12.3818
parked	-12.382
if	-12.3824
▁expresa	-12.3839
▁arriesg	-12.3849
▁cas	-12.3855
▁bites	-12.3858
▁borr	-12.3861
pó	-12.3865
▁pertene	-12.3872
marily	-12.3884
▁estudiara	-12.3885
▁castigar	-12.3894
▁idiots	-12.3905
▁pil	-12.391
▁pegar	-12.3913
▁aves	-12.3927
▁proporcionar	-12.394
▁humans	-12.3945
▁admite	-12.3946
▁esperas	-12.395
▁recomiend	-12.3957
▁reconsider	-12.3983
▁limpie	-12.3984
▁gr	-12.4004
▁frases	-12.4008
▁burlar	-12.4011
▁pele	-12.402
▁levantas	-12.4035
ix	-12.4057
▁vibra	-12.4059
▁comprendí	-12.4061
▁irás	-12.4072
▁fare	-12.4073
▁elevado	-12.4074
▁puntos	-12.4078
▁aparece	-12.4079
▁urge	-12.408
ático	-12.4096
▁atra	-12.4136
▁reparti	-12.4148
talo	-12.416
deja	-12.4184
vendrá	-12.4204
▁transmit	-12.4236
▁investment	-12.4243
▁oiga	-12.4244
▁arruinado	-12.4245
▁castigado	-12.4246
▁movimiento	-12.4247
▁valioso	-12.4247
▁avance	-12.4247
▁cristiano	-12.425
▁string	-12.425
▁blonde	-12.425
▁distinto	-12.425
▁christian	-12.4251
▁mascota	-12.4251
▁disparo	-12.4253
▁apuro	-12.4255
▁plátano	-12.4256
▁oreja	-12.4258
▁wire	-12.4259
▁consecuencia	-12.4259
▁verdura	-12.4259
▁pista	-12.426
▁nube	-12.426
day	-12.4264
▁codo	-12.4267
rected	-12.4268
▁impress	-12.4274
▁jog	-12.4276
▁pregunt	-12.4279
▁docena	-12.4281
▁congela	-12.4283
omas	-12.429
▁moderno	-12.4293
illo	-12.4296
▁aprueb	-12.4299
espera	-12.4301
▁aprovech	-12.4303
▁reuni	-12.4304
▁invento	-12.4308
▁adelanta	-12.431
▁pela	-12.4317
orge	-12.4329
▁magnet	-12.4334
rro	-12.4336
▁inso	-12.4341
confident	-12.4341
alguno	-12.4342
debo	-12.4342
déjame	-12.4343
who	-12.4343
▁agent	-12.4343
pasas	-12.4346
▁combina	-12.4348
hola	-12.4349
quis	-12.435
10.	-12.435
mbled	-12.4354
▁receiv	-12.4354
voy	-12.4354
rolled	-12.436
▁racist	-12.4362
▁rin	-12.4365
▁annoy	-12.4368
▁agradecer	-12.4372
▁compete	-12.4374
▁concentr	-12.4374
▁deceive	-12.4376
estamos	-12.4377
rich	-12.4377
▁spoil	-12.4378
▁offend	-12.4378
▁betray	-12.4378
▁regar	-12.4378
▁cabin	-12.4379
▁creci	-12.4379
▁coast	-12.4382
▁modest	-12.4383
▁chaval	-12.4384
▁implica	-12.4384
▁neat	-12.4385
▁gene	-12.4386
▁compani	-12.4386
▁apropiada	-12.4388
▁plena	-12.4389
▁numb	-12.4389
▁freak	-12.4389
▁sharpen	-12.4389
▁salvado	-12.439
▁vietnam	-12.439
▁inferior	-12.4391
▁knit	-12.4391
▁dinosaur	-12.4391
▁cuelg	-12.4391
▁tendenc	-12.4391
▁differ	-12.4391
▁blink	-12.4391
▁hydr	-12.4391
▁aburrimiento	-12.4391
▁alemanes	-12.4391
▁almorcé	-12.4391
▁amistosa	-12.4391
▁arrancó	-12.4391
▁atascado	-12.4391
▁beethoven	-12.4391
▁bikini	-12.4391
▁blunt	-12.4391
▁cadáver	-12.4391
▁cafeteria	-12.4391
▁camiseta	-12.4391
▁cementerio	-12.4391
▁champú	-12.4391
▁chatarra	-12.4391
▁cintura	-12.4391
▁comprueb	-12.4391
▁contigu	-12.4391
▁conversando	-12.4391
▁cotton	-12.4391
▁cycling	-12.4391
▁december	-12.4391
▁departure	-12.4391
▁descartar	-12.4391
▁desnuda	-12.4391
▁despistado	-12.4391
▁destruida	-12.4391
▁diciembre	-12.4391
▁diplomática	-12.4391
▁doorknob	-12.4391
▁dutch	-12.4391
▁ecuador	-12.4391
▁einstein	-12.4391
▁encaja	-12.4391
▁enormous	-12.4391
▁esclavitud	-12.4391
▁escuchá	-12.4391
▁flies	-12.4391
▁forbidden	-12.4391
▁fractur	-12.4391
▁francamente	-12.4391
▁gloomy	-12.4391
▁guiso	-12.4391
▁haunted	-12.4391
▁hobbies	-12.4391
▁impresionar	-12.4391
▁incurable	-12.4391
▁industry	-12.4391
▁irresponsable	-12.4391
▁jarrón	-12.4391
▁jueves	-12.4391
▁juventud	-12.4391
▁lipstick	-12.4391
▁lloré	-12.4391
▁llovía	-12.4391
▁madrid	-12.4391
▁mariposa	-12.4391
▁monedero	-12.4391
▁monster	-12.4391
▁monstruo	-12.4391
▁muelle	-12.4391
▁muñeco	-12.4391
▁nagano	-12.4391
▁nagoya	-12.4391
▁narices	-12.4391
▁naughty	-12.4391
▁negativo	-12.4391
▁neglect	-12.4391
▁nixon	-12.4391
▁niñita	-12.4391
▁nocturno	-12.4391
▁noviembre	-12.4391
▁obama	-12.4391
▁origen	-12.4391
▁pathetic	-12.4391
▁peluquero	-12.4391
▁pertenencias	-12.4391
▁pilchas	-12.4391
▁policies	-12.4391
▁probabilidad	-12.4391
▁proceso	-12.4391
▁préstame	-12.4391
▁renuncié	-12.4391
▁repisa	-12.4391
▁repite	-12.4391
▁respetuoso	-12.4391
▁ribbon	-12.4391
▁ridícula	-12.4391
▁rumbo	-12.4391
▁satellite	-12.4391
▁seatbelt	-12.4391
▁shark	-12.4391
▁shibuya	-12.4391
▁shinano	-12.4391
▁sidewalk	-12.4391
▁snuggle	-12.4391
▁stroke	-12.4391
▁supply	-12.4391
▁surface	-12.4391
▁temporal	-12.4391
▁testamento	-12.4391
▁thursday	-12.4391
▁tobacco	-12.4391
▁tromb	-12.4391
▁tuviese	-12.4391
▁técnica	-12.4391
▁título	-12.4391
▁uneasy	-12.4391
▁unnecessary	-12.4391
▁vanidoso	-12.4391
▁vaqueros	-12.4391
▁virtud	-12.4391
▁virtue	-12.4391
▁voces	-12.4391
▁votó	-12.4391
▁wisdom	-12.4391
▁withdrew	-12.4391
▁accurate	-12.4391
▁automático	-12.4391
▁cacahu	-12.4391
▁context	-12.4391
▁entorno	-12.4391
▁gramatical	-12.4391
▁holanda	-12.4391
▁maletín	-12.4391
▁nasty	-12.4391
▁pochoclo	-12.4391
▁sauce	-12.4391
▁sharing	-12.4391
▁sobresaliente	-12.4391
▁sobrina	-12.4391
▁tequila	-12.4391
▁watermelon	-12.4391
▁culpó	-12.4391
▁cántaros	-12.4391
▁disney	-12.4391
▁escondas	-12.4391
▁exhilarat	-12.4391
▁sector	-12.4391
▁setenta	-12.4391
▁waist	-12.4391
▁automatically	-12.4391
▁delicate	-12.4391
▁explotó	-12.4391
▁palillos	-12.4391
▁apagué	-12.4391
▁jewelry	-12.4391
▁máscara	-12.4391
▁quote	-12.4391
▁rational	-12.4391
▁repetí	-12.4391
órale	-12.4391
▁calculadora	-12.4391
▁delfines	-12.4391
▁northern	-12.4391
▁recibo	-12.4391
▁tejiendo	-12.4391
▁nintendo	-12.4391
▁refugiados	-12.4391
▁desconcertado	-12.4391
▁thailand	-12.4391
▁algodón	-12.4391
▁connection	-12.4391
▁juzgue	-12.4391
▁steam	-12.4391
▁enfrí	-12.4391
▁enlace	-12.4391
▁ficción	-12.4391
▁fiction	-12.4391
▁firewood	-12.4391
▁limón	-12.4391
▁loving	-12.4391
▁unwilling	-12.4391
▁clue	-12.4391
▁griega	-12.4391
▁huracán	-12.4391
▁natación	-12.4391
▁consciencia	-12.4391
▁creative	-12.4391
▁melted	-12.4391
▁tailandia	-12.4391
▁memories	-12.4391
▁tradición	-12.4391
▁dinosaurio	-12.4391
▁flojo	-12.4391
▁huelo	-12.4391
▁invención	-12.4391
▁guitarrista	-12.4391
▁versión	-12.4391
▁activa	-12.4391
▁encontremos	-12.4391
▁almorzado	-12.4391
▁interrumpió	-12.4391
▁partner	-12.4391
▁community	-12.4391
▁fuéramos	-12.4391
▁formula	-12.4391
▁carelessness	-12.4391
▁agosto	-12.4391
▁ocurriendo	-12.4391
▁calculator	-12.4391
▁nacionalidad	-12.4391
▁crane	-12.4391
▁cupboard	-12.4391
▁quédese	-12.4391
▁consciousness	-12.4391
▁sunlight	-12.4391
▁agradecimiento	-12.4391
▁exhibition	-12.4391
▁parallel	-12.4391
▁knitting	-12.4391
▁ballet	-12.4391
▁estallar	-12.4391
▁previous	-12.4391
▁automáticamente	-12.4391
▁curb	-12.4392
▁suertudo	-12.4392
▁salesman	-12.4392
▁bombones	-12.4392
▁govern	-12.4392
▁ipod	-12.4392
oru	-12.4392
▁escondí	-12.4392
▁deadline	-12.4392
▁reap	-12.4392
▁preocupo	-12.4392
▁aplicación	-12.4392
▁caramelo	-12.4392
▁descuidado	-12.4392
▁instalar	-12.4392
▁existence	-12.4392
▁murmurando	-12.4392
▁agradecería	-12.4392
▁costosa	-12.4392
▁liado	-12.4393
▁preocupaciones	-12.4393
▁relajarse	-12.4393
▁arco	-12.4393
▁pronunciation	-12.4393
▁basic	-12.4393
▁pulsar	-12.4393
▁espantoso	-12.4393
▁tempt	-12.4393
▁elija	-12.4393
▁prediction	-12.4393
▁disparado	-12.4393
▁fundamental	-12.4393
▁fracasado	-12.4393
semeja	-12.4393
▁váyase	-12.4393
▁trasero	-12.4393
▁title	-12.4393
▁cepillo	-12.4393
▁chairman	-12.4393
▁disfrazado	-12.4393
▁llamá	-12.4393
▁motivado	-12.4394
▁motion	-12.4394
hower	-12.4394
▁feriado	-12.4394
▁rebelde	-12.4394
▁perlas	-12.4394
▁robé	-12.4394
▁carné	-12.4394
▁poli	-12.4394
▁policemen	-12.4394
▁fuss	-12.4394
▁disculparse	-12.4394
▁flock	-12.4395
▁alfabeto	-12.4395
▁luchando	-12.4395
▁bañando	-12.4395
▁distingue	-12.4395
▁dental	-12.4395
▁trasera	-12.4395
▁temporary	-12.4395
▁indignado	-12.4395
▁dependable	-12.4395
▁querrá	-12.4395
▁lamentable	-12.4396
▁fry	-12.4396
▁pues	-12.4396
▁cardíaco	-12.4396
inició	-12.4396
stén	-12.4396
▁furiosa	-12.4396
▁ruego	-12.4396
▁version	-12.4397
▁desprecio	-12.4397
▁pescando	-12.4398
▁fantástico	-12.4398
▁rodeos	-12.4398
hablá	-12.4398
▁comprando	-12.4398
▁artificiales	-12.4399
legó	-12.4399
▁mandado	-12.4399
▁superficial	-12.4399
▁firmemente	-12.44
▁confront	-12.44
▁destinad	-12.44
▁makeup	-12.44
▁americana	-12.44
▁gay	-12.44
▁print	-12.44
▁lazie	-12.4401
▁viking	-12.4401
▁signal	-12.4401
▁toneladas	-12.4401
▁croa	-12.4401
▁preso	-12.4401
▁llámalo	-12.4402
▁costaría	-12.4402
▁gata	-12.4402
▁feder	-12.4402
going	-12.4402
▁voyage	-12.4403
▁duck	-12.4403
▁ileso	-12.4404
▁periodo	-12.4404
▁pensamos	-12.4405
▁abandonaron	-12.4405
▁logic	-12.4405
▁presté	-12.4405
▁corporal	-12.4406
▁fastest	-12.4406
▁reports	-12.4407
▁exacto	-12.4407
▁ocup	-12.4407
▁tape	-12.4407
▁perdonaré	-12.4407
▁counter	-12.4407
▁somehow	-12.4407
▁caída	-12.4407
▁focused	-12.4408
▁molestado	-12.4408
▁enfadarse	-12.4408
▁abrazo	-12.4409
▁apagaron	-12.4409
▁ju	-12.4409
▁violento	-12.441
▁absurda	-12.441
▁cuba	-12.441
▁navegar	-12.4411
▁accomplished	-12.4411
▁gray	-12.4411
▁ruta	-12.4412
▁apostar	-12.4412
▁visitarnos	-12.4412
▁create	-12.4413
▁criticized	-12.4413
▁presentarme	-12.4414
▁nik	-12.4414
▁moverse	-12.4415
▁funcionando	-12.4415
▁guardaré	-12.4416
▁niece	-12.4417
▁acostarte	-12.4417
▁costado	-12.4417
▁visado	-12.4418
▁attic	-12.4419
▁evitarlo	-12.4419
▁intentaron	-12.4419
bérmelo	-12.4419
▁racista	-12.4419
▁bay	-12.4419
▁flute	-12.442
▁entramos	-12.4421
▁vuelan	-12.4421
▁darker	-12.4422
hea	-12.4424
▁pacientemente	-12.4424
▁conflicto	-12.4425
▁sillón	-12.4425
▁hail	-12.4428
▁conocés	-12.4429
vives	-12.443
▁quedaste	-12.443
▁besarte	-12.443
▁ironing	-12.4434
▁protegerte	-12.4434
▁maintain	-12.4435
ona	-12.4435
▁salty	-12.4436
▁encontraremos	-12.4436
▁lifted	-12.4437
▁cogeré	-12.4438
▁nadador	-12.4439
▁diferenciar	-12.4439
▁contradict	-12.444
▁destaca	-12.4441
▁pasteles	-12.4441
▁picky	-12.4441
▁eliminar	-12.4443
▁ganaron	-12.4444
▁farther	-12.4447
▁terriblemente	-12.4447
rado	-12.4447
▁apretar	-12.4448
isen	-12.4448
▁familiares	-12.4448
▁bridges	-12.4449
▁mudo	-12.4451
▁visitamos	-12.4452
▁hip	-12.4453
▁relaxing	-12.4455
▁mide	-12.4456
▁galletitas	-12.4456
▁dolphins	-12.4456
▁sábanas	-12.4456
▁colegas	-12.4456
▁intercambiar	-12.4457
▁obeyed	-12.4458
pensás	-12.4462
▁payment	-12.4466
▁ganamos	-12.4468
▁llamarlo	-12.4469
▁gotea	-12.447
▁goma	-12.447
▁admito	-12.447
▁strangely	-12.447
▁islam	-12.447
▁perd	-12.4475
▁terroristas	-12.4476
▁comporta	-12.4476
▁cuidarte	-12.4477
▁libras	-12.4479
▁arreglo	-12.448
▁sn	-12.448
▁aterroriza	-12.4481
▁obedece	-12.4482
▁creés	-12.4484
▁esperaron	-12.4485
▁armada	-12.4488
▁runner	-12.4488
▁recupere	-12.4492
▁ganará	-12.4495
▁dormi	-12.4498
▁absorbe	-12.45
▁hacés	-12.4512
▁parientes	-12.4513
▁bones	-12.4515
▁confundid	-12.4516
cos	-12.4519
▁landing	-12.452
▁pandas	-12.4525
▁cri	-12.4529
▁disparos	-12.4531
▁ayudaron	-12.4532
▁pararme	-12.4533
comes	-12.4534
▁ajo	-12.4536
▁llamarte	-12.4537
▁mini	-12.4537
▁vini	-12.4541
▁encontraría	-12.4542
ache	-12.4557
▁v	-12.4562
▁pap	-12.4564
▁reported	-12.4565
bamos	-12.4566
▁víctimas	-12.4568
▁limits	-12.4569
▁rights	-12.4569
nic	-12.4573
▁faults	-12.4575
▁triple	-12.458
▁enseñe	-12.4581
▁bob	-12.4585
▁coja	-12.4586
▁entiendas	-12.4586
▁male	-12.4587
▁olvid	-12.4593
dores	-12.4594
▁realiza	-12.4597
▁aterrizar	-12.46
▁archivos	-12.4606
▁blankets	-12.4606
queda	-12.4607
▁dejarle	-12.4616
▁ol	-12.462
▁acompañar	-12.4621
▁descansa	-12.4622
▁ganaría	-12.4622
ríamos	-12.4623
▁diamantes	-12.4625
▁pigs	-12.4625
▁mosquitos	-12.4626
▁cables	-12.4626
▁sabrás	-12.4626
▁fáciles	-12.4627
▁dejamos	-12.4629
▁competente	-12.4631
▁aproxima	-12.4632
▁ending	-12.4638
▁deba	-12.4641
▁atrac	-12.4642
▁goats	-12.4643
▁mensajes	-12.4648
▁chocolates	-12.4648
▁vencer	-12.4649
▁vuelvan	-12.4649
▁marks	-12.4656
▁helada	-12.4667
▁varía	-12.4671
▁arroj	-12.4675
▁brains	-12.4682
▁afueras	-12.4684
▁mol	-12.4692
dico	-12.4698
▁roman	-12.47
▁ayudase	-12.4704
▁vidas	-12.4709
▁tin	-12.4711
▁casara	-12.4719
▁cuentos	-12.472
▁pelos	-12.4727
▁hoteles	-12.473
▁dejad	-12.4739
▁consulta	-12.4739
▁forth	-12.475
sería	-12.4751
▁fingir	-12.4752
▁parecidos	-12.4758
▁disponibles	-12.4758
▁gallinas	-12.4758
▁aprendes	-12.4761
▁negociar	-12.4768
▁ayuden	-12.4772
▁debts	-12.4775
▁apt	-12.4784
értelo	-12.4787
▁morirá	-12.4792
devuélveme	-12.4794
▁copas	-12.4794
▁sostiene	-12.4801
▁altas	-12.4811
▁lé	-12.4813
▁tube	-12.4814
▁actions	-12.4816
▁conseguirá	-12.4817
▁calcul	-12.4841
▁pastor	-12.4842
▁produces	-12.4847
▁mejore	-12.4848
▁serlo	-12.4854
▁ships	-12.4855
▁costar	-12.4858
▁condena	-12.486
▁aspectos	-12.4873
awa	-12.4874
aid	-12.489
▁interests	-12.4894
▁castiga	-12.4907
▁goals	-12.4911
▁training	-12.4912
▁ordenar	-12.4919
▁procur	-12.4926
▁pes	-12.4927
▁besado	-12.4927
ping	-12.493
▁kn	-12.4948
▁materials	-12.4949
▁orbit	-12.4962
▁limpiara	-12.497
ight	-12.4973
▁barcos	-12.4981
▁abiertos	-12.4989
▁recort	-12.499
▁fo	-12.4992
jones	-12.4993
▁presum	-12.5014
▁patients	-12.5018
▁coste	-12.5038
▁ache	-12.5038
date	-12.5055
▁cumpl	-12.5058
▁echas	-12.5059
▁recompensa	-12.5068
preció	-12.507
▁chi	-12.5072
▁tr	-12.5073
naciones	-12.508
▁exige	-12.5091
▁fondos	-12.5102
▁busque	-12.5104
▁holes	-12.5107
▁rooms	-12.5112
▁despe	-12.5112
▁entres	-12.5115
vando	-12.512
▁casos	-12.512
▁acaban	-12.5123
▁poné	-12.5124
▁caballeros	-12.513
▁bombs	-12.5136
▁skip	-12.5136
pagando	-12.514
▁chup	-12.5144
▁coc	-12.5153
▁diseñ	-12.5156
▁remo	-12.5162
▁opens	-12.5173
tenía	-12.5177
▁salva	-12.5179
aza	-12.5197
▁pint	-12.5198
▁exists	-12.5206
▁levantan	-12.5213
▁favoritos	-12.5215
▁forms	-12.5216
▁representa	-12.5219
▁dolls	-12.5222
ain	-12.5222
▁blancas	-12.5225
icked	-12.5225
▁desorden	-12.5236
▁detesta	-12.5241
ondas	-12.5243
▁flights	-12.5245
▁esperan	-12.5245
▁restaurants	-12.5254
bel	-12.5262
▁indicate	-12.5272
▁realiz	-12.5276
ai	-12.5276
tely	-12.5295
▁mile	-12.5301
▁medias	-12.5301
▁nadaba	-12.5307
▁points	-12.532
yendo	-12.5335
▁escapa	-12.5344
▁cantantes	-12.5345
▁cerradas	-12.5366
▁singers	-12.5368
gar	-12.5368
▁formar	-12.537
▁intentas	-12.5376
▁oje	-12.5377
▁tomara	-12.5378
▁vestidos	-12.5379
▁contesta	-12.5395
▁barri	-12.5405
▁preparados	-12.5406
▁raises	-12.5409
▁islands	-12.5429
▁aspir	-12.5437
▁tí	-12.5445
▁frances	-12.5463
▁principios	-12.5465
ps	-12.548
▁banks	-12.5495
eight	-12.5496
bul	-12.5515
seguro	-12.5523
escrib	-12.5524
▁uniform	-12.5525
toca	-12.5525
▁desear	-12.5529
▁humillad	-12.5532
▁abr	-12.5535
▁encarg	-12.5558
▁includ	-12.5563
▁vendid	-12.558
ensa	-12.5586
▁enterrar	-12.5592
▁instant	-12.5605
▁evita	-12.5608
▁remark	-12.5611
desea	-12.5617
pensá	-12.5626
▁carreras	-12.5628
▁gua	-12.5629
▁atender	-12.5645
▁invadi	-12.5648
primió	-12.565
▁arriesga	-12.566
sador	-12.5661
ple	-12.5661
▁volverás	-12.5662
▁cheer	-12.5663
▁restos	-12.5671
▁stir	-12.5671
▁capítulo	-12.5672
▁minifalda	-12.5672
▁kitten	-12.5672
▁aliado	-12.5672
▁pendiente	-12.5672
▁crí	-12.5675
▁bacteria	-12.5676
▁maravilla	-12.5676
▁recuperará	-12.5676
▁confirmar	-12.5677
▁anuncio	-12.5677
▁liberado	-12.5678
▁candidate	-12.5678
▁graciosa	-12.5679
▁lavarropa	-12.568
▁clavo	-12.5681
▁pariente	-12.5682
▁brake	-12.5684
▁mueva	-12.5684
▁estampilla	-12.5684
▁británico	-12.5685
▁crop	-12.5686
▁lip	-12.5686
▁peanut	-12.5687
▁mueble	-12.5688
▁sock	-12.5689
itos	-12.57
▁panda	-12.57
▁hacé	-12.5703
▁arranca	-12.5708
▁errors	-12.571
▁marc	-12.5711
▁charges	-12.5712
▁milla	-12.5719
▁pal	-12.572
▁exhibi	-12.5721
vie	-12.5727
▁transporte	-12.5728
▁ayudan	-12.5731
▁sigh	-12.5731
▁encontrará	-12.5739
▁resfri	-12.574
▁irrelevant	-12.5741
▁sets	-12.5742
▁cojo	-12.5745
▁reí	-12.5747
▁cl	-12.5757
▁corro	-12.5758
▁aprendi	-12.576
▁escabull	-12.5766
rang	-12.5767
bló	-12.5767
flexible	-12.5768
successful	-12.577
water	-12.577
podrá	-12.5771
minute	-12.5771
ojal	-12.5771
ciento	-12.5771
había	-12.5771
saw	-12.5772
▁temía	-12.5775
▁supus	-12.5777
▁admiraba	-12.5777
▁instal	-12.5786
▁rellen	-12.5786
estuviste	-12.5787
sois	-12.5787
hablaste	-12.579
torio	-12.5793
▁crear	-12.5796
▁investiga	-12.58
▁abro	-12.5802
juegas	-12.5802
▁stays	-12.5803
▁involve	-12.5805
▁disguise	-12.5805
▁stress	-12.5806
▁resuelv	-12.5806
▁interrumpir	-12.581
▁compulsiv	-12.581
▁fascina	-12.581
▁wink	-12.5811
▁cristal	-12.5811
▁separar	-12.5811
▁traductor	-12.5812
▁mona	-12.5812
▁fund	-12.5812
▁volcano	-12.5813
▁contribute	-12.5813
hand	-12.5814
▁accu	-12.5814
▁observa	-12.5815
▁indigna	-12.5815
▁necessar	-12.5816
▁adecuada	-12.5817
▁valle	-12.5817
▁vestir	-12.5817
▁chase	-12.5817
▁tomato	-12.5818
▁gasoline	-12.5819
cript	-12.5819
▁insiste	-12.5819
▁futbol	-12.5819
▁previo	-12.5819
▁significant	-12.5819
▁casual	-12.5819
▁calendar	-12.5819
▁opone	-12.5819
▁react	-12.5819
▁sentís	-12.5819
▁drastic	-12.5819
óxido	-12.5819
▁agriculture	-12.5819
▁ambiente	-12.5819
▁archaeologist	-12.5819
▁asesinó	-12.5819
▁astronomía	-12.5819
▁attribute	-12.5819
▁banquero	-12.5819
▁batteries	-12.5819
▁bulb	-12.5819
▁calcetín	-12.5819
▁calefacción	-12.5819
▁calurosa	-12.5819
▁catálogo	-12.5819
▁cenizas	-12.5819
▁chantaje	-12.5819
▁cirugía	-12.5819
▁comestibles	-12.5819
▁conducción	-12.5819
▁confidencial	-12.5819
▁cradle	-12.5819
▁crítico	-12.5819
▁democracia	-12.5819
▁democracy	-12.5819
▁descifr	-12.5819
▁devuelto	-12.5819
▁dictionaries	-12.5819
▁dishonest	-12.5819
▁divertiste	-12.5819
▁duties	-12.5819
▁edge	-12.5819
▁efficient	-12.5819
▁elevó	-12.5819
▁embajador	-12.5819
▁encantó	-12.5819
▁encerrado	-12.5819
▁entusiasmo	-12.5819
▁especie	-12.5819
▁esperándote	-12.5819
▁estrelló	-12.5819
▁estupideces	-12.5819
▁exactitud	-12.5819
▁expliqué	-12.5819
▁fabuloso	-12.5819
▁fountain	-12.5819
▁fregadero	-12.5819
▁harbor	-12.5819
▁hiciéramos	-12.5819
▁hidrógeno	-12.5819
▁hígado	-12.5819
▁infarto	-12.5819
▁inhabitants	-12.5819
▁injury	-12.5819
▁instinto	-12.5819
▁intenso	-12.5819
▁inversión	-12.5819
▁irresponsible	-12.5819
▁jungle	-12.5819
▁lastimé	-12.5819
▁lechuga	-12.5819
▁magician	-12.5819
▁nacido	-12.5819
▁netherlands	-12.5819
▁ofender	-12.5819
▁palideció	-12.5819
▁palomitas	-12.5819
▁panadería	-12.5819
▁peculiar	-12.5819
▁perfección	-12.5819
▁pesimista	-12.5819
▁portugués	-12.5819
▁precisa	-12.5819
▁promising	-12.5819
▁psiquiatra	-12.5819
▁pulmón	-12.5819
▁quebrado	-12.5819
▁questionnaire	-12.5819
▁receipt	-12.5819
▁refiero	-12.5819
▁relájate	-12.5819
▁rudo	-12.5819
▁sartén	-12.5819
▁satisfacer	-12.5819
▁satélite	-12.5819
▁signature	-12.5819
▁slump	-12.5819
▁snoring	-12.5819
▁squirrel	-12.5819
▁stadium	-12.5819
▁stranded	-12.5819
▁sunbathing	-12.5819
▁sólida	-12.5819
▁sótano	-12.5819
▁telescope	-12.5819
▁telescopio	-12.5819
▁tournament	-12.5819
▁tripulación	-12.5819
▁troops	-12.5819
▁tropez	-12.5819
▁unattended	-12.5819
▁vacuum	-12.5819
▁valentín	-12.5819
▁veinticinco	-12.5819
▁venecia	-12.5819
▁vergonzoso	-12.5819
▁yield	-12.5819
▁accidentalmente	-12.5819
▁acertijo	-12.5819
▁ambition	-12.5819
▁apuñala	-12.5819
▁belief	-12.5819
▁benefit	-12.5819
▁carpenter	-12.5819
▁contagiosa	-12.5819
▁conversamos	-12.5819
▁despierte	-12.5819
▁destruido	-12.5819
▁diligent	-12.5819
▁errand	-12.5819
▁farmacia	-12.5819
▁intersection	-12.5819
▁intimida	-12.5819
▁mammal	-12.5819
▁masculine	-12.5819
▁nochebuena	-12.5819
▁padrastro	-12.5819
▁picó	-12.5819
▁positivo	-12.5819
▁recoja	-12.5819
▁romántica	-12.5819
▁rural	-12.5819
▁scandal	-12.5819
▁sorrow	-12.5819
▁souvenir	-12.5819
▁spouse	-12.5819
▁stream	-12.5819
▁survivor	-12.5819
▁tabla	-12.5819
▁valiosa	-12.5819
▁widow	-12.5819
▁blend	-12.5819
▁criticism	-12.5819
▁debiera	-12.5819
▁lettuce	-12.5819
▁pickpocket	-12.5819
▁torneo	-12.5819
▁roast	-12.5819
▁afición	-12.5819
▁communication	-12.5819
▁representative	-12.5819
▁sequía	-12.5819
▁amenazó	-12.582
▁aéreo	-12.582
▁proposición	-12.582
▁rebaja	-12.582
▁silenciosamente	-12.582
▁cuídate	-12.582
▁espinacas	-12.582
▁foul	-12.582
▁quédense	-12.582
▁separó	-12.582
▁chofer	-12.582
▁distraído	-12.582
▁folk	-12.582
▁quíte	-12.582
▁compasión	-12.582
▁specific	-12.582
▁wreck	-12.582
▁cooperation	-12.582
▁estrés	-12.582
▁diplomatic	-12.582
▁dominio	-12.582
▁doorbell	-12.582
▁estadio	-12.582
▁psychiatrist	-12.582
▁reemplazar	-12.582
▁rompiste	-12.582
▁disputa	-12.582
▁britain	-12.582
▁emoción	-12.582
▁pecado	-12.582
▁salmon	-12.582
▁vestía	-12.582
rupción	-12.582
▁reflection	-12.582
▁sacudirse	-12.582
▁sorda	-12.582
▁calendario	-12.582
▁secure	-12.582
▁dispers	-12.582
▁mommy	-12.582
▁cafe	-12.582
▁calificaciones	-12.582
▁grueso	-12.582
▁exceso	-12.582
▁haciéndolo	-12.582
▁categoría	-12.582
▁proverbio	-12.582
▁meditating	-12.582
▁torpe	-12.582
▁reflexionar	-12.582
▁entendiera	-12.582
▁humid	-12.582
▁dudé	-12.582
▁fiddle	-12.582
▁objective	-12.582
▁factories	-12.582
▁identificar	-12.582
▁bakery	-12.582
▁carcajada	-12.582
▁compass	-12.582
▁cartero	-12.582
▁unbearable	-12.582
▁nationality	-12.582
▁temblando	-12.582
▁díganme	-12.582
▁enseñanza	-12.582
▁villagers	-12.582
▁disappointment	-12.582
▁skeptic	-12.582
▁accountant	-12.582
▁handbag	-12.582
▁pudiéramos	-12.582
▁regañado	-12.582
▁rainbow	-12.582
▁luckily	-12.582
▁ojeada	-12.582
▁gravedad	-12.582
▁apresurado	-12.582
▁hormigas	-12.582
▁tremble	-12.582
▁aparcado	-12.582
▁defectuoso	-12.582
▁dentífrico	-12.582
▁function	-12.582
▁temperamento	-12.582
▁descuido	-12.582
▁regalado	-12.582
▁tasty	-12.582
▁podrido	-12.582
▁reflect	-12.582
▁fatter	-12.582
▁mostrame	-12.582
▁pulsera	-12.582
▁actuación	-12.5821
▁perdóneme	-12.5821
▁realistic	-12.5821
▁espina	-12.5821
▁mankind	-12.5821
▁pronunciación	-12.5821
▁desempleado	-12.5821
▁inspired	-12.5821
▁alpes	-12.5821
▁opuesto	-12.5821
▁destrozado	-12.5821
▁complacer	-12.5821
▁tóme	-12.5821
▁fíe	-12.5821
▁humanity	-12.5821
▁bailarín	-12.5821
▁entregué	-12.5821
▁venice	-12.5821
▁avísame	-12.5821
▁existir	-12.5821
▁arduamente	-12.5821
▁regardless	-12.5821
▁alcoholic	-12.5821
▁spin	-12.5821
▁vanished	-12.5821
▁comic	-12.5821
▁gesto	-12.5821
▁airmail	-12.5821
▁passage	-12.5821
▁jardinero	-12.5822
▁cocido	-12.5822
▁cesta	-12.5822
▁contaste	-12.5822
▁critical	-12.5822
▁dimitir	-12.5822
▁maleducado	-12.5822
▁deshonesto	-12.5822
▁ahogando	-12.5822
▁cockroaches	-12.5822
▁centr	-12.5822
▁pospondr	-12.5822
▁gris	-12.5822
▁aventón	-12.5822
▁extraordinario	-12.5822
▁hotter	-12.5822
▁shortage	-12.5822
▁caminé	-12.5822
▁salsa	-12.5822
irás	-12.5822
▁basis	-12.5822
▁crecido	-12.5822
▁sociable	-12.5823
▁contratado	-12.5823
▁graduarse	-12.5823
▁minerales	-12.5823
bebes	-12.5823
▁mataste	-12.5823
▁desayuné	-12.5823
▁vigilando	-12.5823
▁alcance	-12.5823
▁frustrado	-12.5823
▁valley	-12.5823
▁especialidad	-12.5823
▁fist	-12.5823
▁escondiste	-12.5823
▁compleja	-12.5824
▁vestirse	-12.5824
▁global	-12.5824
▁innecesario	-12.5824
▁ligeramente	-12.5824
▁educated	-12.5824
▁tiny	-12.5824
▁instantly	-12.5824
▁recovery	-12.5824
▁speechless	-12.5824
▁entretenido	-12.5824
▁daily	-12.5824
▁súbe	-12.5824
▁estupendamente	-12.5824
▁recordado	-12.5825
employment	-12.5825
▁chile	-12.5825
▁snowman	-12.5825
▁prepárate	-12.5825
▁damp	-12.5825
▁obligaron	-12.5825
▁implicado	-12.5825
▁evitando	-12.5825
▁examinar	-12.5825
▁desarrollo	-12.5826
sterna	-12.5826
▁tender	-12.5826
▁misteriosa	-12.5826
▁worthless	-12.5826
▁reímos	-12.5826
▁indefenso	-12.5827
▁traduzca	-12.5827
▁childish	-12.5827
▁sickness	-12.5827
▁retirarse	-12.5827
▁barra	-12.5828
▁fama	-12.5828
▁untied	-12.5828
▁perdonará	-12.5828
▁dispararon	-12.5828
▁barrer	-12.5828
▁manejando	-12.5828
▁conquer	-12.5828
▁sailing	-12.5828
▁fabricado	-12.5828
▁anticipated	-12.5828
▁déjelo	-12.5829
▁interferir	-12.5829
▁repetirlo	-12.5829
▁conocerla	-12.583
▁nacionales	-12.583
▁ticking	-12.583
▁intentemos	-12.583
▁wax	-12.583
▁commander	-12.583
▁entraste	-12.583
▁fade	-12.5831
▁decepción	-12.5831
▁conveniente	-12.5831
▁chopsticks	-12.5832
▁estribos	-12.5832
▁villancicos	-12.5832
▁dímelo	-12.5832
▁necesitáis	-12.5832
▁racional	-12.5832
▁suelta	-12.5832
▁secuestrado	-12.5832
▁agitó	-12.5832
▁cantemos	-12.5833
▁trajiste	-12.5833
▁orilla	-12.5834
▁socio	-12.5834
▁spying	-12.5834
010.	-12.5835
▁prestada	-12.5835
▁despedirse	-12.5836
▁liberal	-12.5837
▁dna	-12.5837
▁quemando	-12.5837
▁arrestada	-12.5837
▁lejano	-12.5837
▁moriría	-12.5837
▁competed	-12.5838
▁dull	-12.5839
▁captured	-12.5839
▁apunté	-12.5839
▁outcome	-12.5839
▁ripe	-12.5839
▁phrase	-12.584
▁triunfará	-12.584
▁bandage	-12.584
▁atraviesa	-12.584
prendieron	-12.584
▁alley	-12.584
▁apretado	-12.584
▁capacidades	-12.584
▁subimos	-12.584
▁esconderse	-12.5841
▁amigable	-12.5842
▁shaving	-12.5843
▁preparé	-12.5843
▁barked	-12.5843
▁witnesses	-12.5844
▁reírse	-12.5844
▁gardener	-12.5844
▁alps	-12.5845
▁reporter	-12.5846
cakes	-12.5846
▁update	-12.5846
▁leíste	-12.5846
gave	-12.5847
▁sandía	-12.5847
▁envío	-12.5847
▁envíame	-12.5848
▁paseando	-12.5848
▁subieron	-12.5848
▁packing	-12.5849
▁loaded	-12.5849
▁easter	-12.5851
▁amará	-12.5851
▁débiles	-12.5851
▁consideraría	-12.5851
▁sello	-12.5852
▁mariscos	-12.5852
▁refugees	-12.5852
▁siembras	-12.5852
▁apoyes	-12.5853
▁reserved	-12.5854
ncionado	-12.5854
▁viajero	-12.5856
▁fled	-12.5856
▁choke	-12.5858
▁flipp	-12.5858
▁exponer	-12.586
▁cenando	-12.586
▁mejorará	-12.586
▁invenci	-12.5863
▁permitiré	-12.5864
▁pony	-12.5864
cidimos	-12.5864
▁enfrente	-12.5865
▁cured	-12.5865
▁limpiado	-12.5866
▁callada	-12.5871
▁flexible	-12.5872
▁intentamos	-12.5872
▁canceló	-12.5873
▁descubrirá	-12.5874
▁inseguro	-12.5874
▁indios	-12.5874
▁owls	-12.5874
▁muelas	-12.5874
▁cacahuetes	-12.5874
▁hamburgers	-12.5874
▁freezes	-12.5874
bó	-12.5874
▁llamarle	-12.5875
▁visitantes	-12.5875
▁comparta	-12.5876
▁disturbed	-12.5876
▁patas	-12.5877
▁fasten	-12.5878
▁increased	-12.5878
▁italiana	-12.5878
▁lamentar	-12.5881
▁ironed	-12.5884
▁escucharon	-12.5886
▁visitarle	-12.5886
▁conocerlo	-12.5887
▁salada	-12.5888
▁completar	-12.5888
▁planeamos	-12.5888
▁cruzado	-12.5889
▁terminarlo	-12.5891
▁sáca	-12.5892
▁boasts	-12.5895
▁stinks	-12.5896
▁cucarachas	-12.5896
▁asians	-12.5896
▁cultivos	-12.5896
▁detente	-12.5896
▁helados	-12.5897
cendió	-12.5897
▁stores	-12.5898
▁travelers	-12.5899
▁conducía	-12.5899
▁usarlo	-12.5899
▁irrelevante	-12.59
▁pensaría	-12.5901
▁creerlo	-12.5901
▁armado	-12.5902
▁toser	-12.5902
▁echarme	-12.5903
▁conocerle	-12.5903
▁poorly	-12.5903
▁anchor	-12.5903
▁planchar	-12.5905
vivieron	-12.5905
▁strongly	-12.5908
▁cebollas	-12.5917
▁colleagues	-12.5917
▁pigeons	-12.5917
▁terrorists	-12.5917
▁employed	-12.5919
▁signs	-12.5919
▁decirnos	-12.5922
▁examin	-12.5925
▁cambiarme	-12.5925
▁gaze	-12.5925
wed	-12.5927
vendrás	-12.5932
▁calculat	-12.5933
tivos	-12.5934
▁extraordinaria	-12.5934
▁relaje	-12.5935
▁fumes	-12.5937
▁leaks	-12.5939
▁scraps	-12.5939
▁mueras	-12.5939
▁flota	-12.594
▁prefieren	-12.5941
▁cría	-12.5942
▁hum	-12.5945
▁delight	-12.5948
▁extinct	-12.5948
▁alrededores	-12.595
▁bathing	-12.595
▁puño	-12.5951
cera	-12.5951
fit	-12.5952
▁descubra	-12.5952
▁rías	-12.5954
▁islas	-12.5954
estaría	-12.5955
▁anti	-12.5956
▁presione	-12.5958
▁footing	-12.5958
cula	-12.5958
▁haríamos	-12.596
▁cantes	-12.5961
▁lavarropas	-12.5961
▁dais	-12.5968
▁encontrarla	-12.5969
▁seller	-12.5976
illos	-12.5978
▁culpado	-12.5978
▁formed	-12.5979
▁mascotas	-12.5983
▁codos	-12.5983
▁docenas	-12.5983
▁surf	-12.5986
▁christians	-12.5987
▁lidiar	-12.5989
▁vean	-12.5989
▁reales	-12.599
▁modernos	-12.5993
▁creerá	-12.5996
▁abejas	-12.6005
▁pisos	-12.6005
▁spie	-12.6007
▁dolores	-12.601
▁plantar	-12.6013
▁salgan	-12.6014
▁peaceful	-12.6017
▁argumento	-12.6024
ack	-12.6024
▁cámaras	-12.6026
▁temen	-12.6026
▁comenzará	-12.603
▁noel	-12.6044
▁relojes	-12.6046
▁slices	-12.6048
▁kites	-12.6048
▁ping	-12.605
▁union	-12.6052
sant	-12.6052
alizado	-12.6053
▁exceptions	-12.606
jaba	-12.6062
▁importado	-12.6063
▁ingresar	-12.6067
▁estimate	-12.607
▁violenta	-12.6083
▁decida	-12.6084
▁probe	-12.6084
▁debían	-12.6087
▁compensar	-12.6088
▁smoked	-12.6088
▁mejoró	-12.6089
▁límites	-12.6093
▁boils	-12.6093
▁economics	-12.6095
▁atacar	-12.6099
▁proven	-12.6101
▁ayudarlos	-12.6104
ridad	-12.6106
▁tierras	-12.6106
▁envi	-12.611
▁suspendi	-12.611
▁secos	-12.6111
▁characters	-12.6115
▁preguntaste	-12.6117
xed	-12.6119
▁acostumbra	-12.6121
▁últimas	-12.6128
▁cortés	-12.6134
▁ordena	-12.6137
▁aceptara	-12.6138
▁pila	-12.6144
▁adivine	-12.6145
right	-12.6148
coming	-12.615
▁armar	-12.6152
▁cro	-12.6157
ana	-12.6157
▁pesadillas	-12.6159
▁cometas	-12.6164
▁favorable	-12.6165
bi	-12.6166
▁cantan	-12.6168
vida	-12.6168
▁ants	-12.6172
urged	-12.6176
▁compraré	-12.6176
▁aparecer	-12.6189
▁amables	-12.619
▁expres	-12.6196
▁amado	-12.6199
▁za	-12.6199
ino	-12.6201
▁guardias	-12.6204
▁oscuras	-12.6207
▁eater	-12.6207
▁misa	-12.621
▁dejaba	-12.6215
adores	-12.6217
iva	-12.6218
▁imitar	-12.622
uta	-12.622
▁hatch	-12.6222
▁pidas	-12.6223
▁gal	-12.6232
▁machines	-12.6234
▁librar	-12.6235
▁enterr	-12.624
▁decepcione	-12.624
▁demandas	-12.6241
▁quedate	-12.6246
▁photographs	-12.6248
sitting	-12.625
bieron	-12.625
▁intent	-12.6258
▁desp	-12.6259
▁percat	-12.6264
▁regreses	-12.6268
▁cosechas	-12.6271
▁matará	-12.6271
▁extrañas	-12.6272
▁ji	-12.6275
▁falt	-12.6275
▁cubr	-12.628
▁obligar	-12.6285
▁veían	-12.629
▁pierdes	-12.6293
▁testigos	-12.6293
af	-12.6295
▁estudian	-12.6309
▁flo	-12.6324
▁expertos	-12.6324
▁manifestan	-12.6325
▁comerse	-12.6325
▁aguard	-12.6338
▁medidas	-12.6338
▁francesas	-12.634
▁consumi	-12.6341
▁recorte	-12.6349
▁apariencias	-12.636
▁impacientes	-12.636
irse	-12.6364
▁pato	-12.6365
▁mencionar	-12.637
▁questioned	-12.6372
▁maravillosas	-12.6379
▁finja	-12.6379
▁recibier	-12.6381
▁causas	-12.641
▁confies	-12.6414
▁sopla	-12.6423
▁experts	-12.6427
▁lindos	-12.6429
▁pisa	-12.6434
▁tests	-12.6443
▁ro	-12.6443
▁hicieran	-12.6454
▁desayunas	-12.6457
hei	-12.6458
▁decor	-12.6462
▁chu	-12.6465
▁vivirá	-12.6467
▁veranos	-12.6475
culo	-12.6484
▁permití	-12.6486
▁ceder	-12.6498
▁tear	-12.65
tales	-12.6501
▁sujeta	-12.6502
nzaron	-12.6511
▁pl	-12.6513
▁cam	-12.6515
hu	-12.6522
imiento	-12.6523
▁shoulders	-12.6532
tomas	-12.6534
▁quedaras	-12.6538
avo	-12.6539
▁fr	-12.6539
▁host	-12.6545
▁vendrán	-12.6552
▁bajos	-12.6552
▁tocas	-12.6561
▁motivos	-12.6566
table	-12.6572
▁preocupar	-12.6573
▁encantar	-12.6585
▁llenar	-12.6611
▁artículos	-12.6611
▁dormitorios	-12.6611
gle	-12.6618
▁choices	-12.6625
▁presenta	-12.6643
uf	-12.6644
▁computadoras	-12.6651
▁arriesgar	-12.6652
riendo	-12.6654
▁ganara	-12.6655
▁costumbres	-12.6657
lder	-12.6665
jera	-12.6666
▁comerla	-12.6667
▁pagas	-12.6677
worthy	-12.6678
▁founded	-12.6688
▁tag	-12.6697
tained	-12.6697
▁miran	-12.6699
aped	-12.6706
▁enamorar	-12.6706
▁corresponde	-12.6709
▁peleas	-12.6715
▁aconseja	-12.6715
▁dies	-12.6718
▁mejora	-12.6721
▁seasons	-12.6727
cito	-12.6728
▁nu	-12.673
idos	-12.6731
▁alza	-12.6731
▁banne	-12.6739
▁renta	-12.674
▁fábricas	-12.675
mina	-12.676
▁lana	-12.6765
▁hats	-12.677
aremos	-12.6774
▁corri	-12.6782
▁award	-12.6802
▁descanse	-12.6808
▁preste	-12.681
▁écha	-12.6816
▁bord	-12.6821
▁gustos	-12.6844
▁limita	-12.6861
▁invade	-12.6862
▁mari	-12.6877
ori	-12.6881
▁modos	-12.6893
cena	-12.6898
▁quitas	-12.6908
ah	-12.6929
▁exercises	-12.6934
▁emp	-12.6934
▁cerra	-12.6937
▁cantara	-12.6942
▁recost	-12.6953
▁provoca	-12.6962
▁entendi	-12.6971
▁burla	-12.6981
▁escal	-12.6983
▁raras	-12.6986
día	-12.6989
▁trans	-12.699
▁chin	-12.7019
▁enterar	-12.7019
ap	-12.7028
▁rings	-12.7029
▁agit	-12.7036
▁reun	-12.7044
▁leap	-12.7045
▁bells	-12.7051
▁propus	-12.706
ario	-12.7062
▁golpea	-12.7064
▁cuestion	-12.7064
ivo	-12.7069
▁captura	-12.7084
▁mondays	-12.7092
▁abs	-12.7094
irte	-12.7095
cción	-12.7107
▁fij	-12.7113
▁mantene	-12.7126
▁gi	-12.7127
▁recuper	-12.7136
ence	-12.7141
volverá	-12.7151
ili	-12.7152
puso	-12.7159
▁envejec	-12.716
▁moj	-12.7165
érgico	-12.717
▁choca	-12.7174
▁conocías	-12.7181
▁regal	-12.7186
▁pónga	-12.7203
gué	-12.7206
tiva	-12.7208
▁lees	-12.7209
ddling	-12.7212
dir	-12.7212
▁portar	-12.7219
tiles	-12.7221
▁pospus	-12.7225
leading	-12.7226
ssured	-12.7227
▁pelotas	-12.7228
acción	-12.7231
fer	-12.7235
▁chatte	-12.7248
▁retrasa	-12.7249
▁pose	-12.7252
▁felicitar	-12.7253
jó	-12.7253
nero	-12.7259
▁elegi	-12.726
▁lesion	-12.726
▁pun	-12.7266
▁odias	-12.7267
▁reza	-12.7285
pón	-12.7288
▁sudar	-12.7293
light	-12.7294
▁tratas	-12.732
▁films	-12.7321
▁telefone	-12.7329
▁instrument	-12.733
▁apuesta	-12.7339
▁comience	-12.7339
▁pein	-12.7342
▁permít	-12.7342
▁ninja	-12.7343
▁lung	-12.7343
▁esclavo	-12.7343
▁expire	-12.7344
▁channel	-12.7345
▁órgano	-12.7345
▁conduzca	-12.7345
▁voto	-12.7345
▁brace	-12.7346
▁fruits	-12.7346
▁muera	-12.7349
▁huella	-12.7351
▁hueso	-12.7351
▁instrumento	-12.7352
▁herramienta	-12.7353
▁labio	-12.7353
▁option	-12.7354
▁pulga	-12.7354
▁impuesto	-12.7354
▁galleta	-12.7355
▁guest	-12.7356
▁console	-12.7359
▁bone	-12.736
▁european	-12.736
▁bombero	-12.7361
▁aparc	-12.7363
▁continu	-12.7363
▁vegetariano	-12.7366
▁ahorr	-12.7374
▁freno	-12.7374
▁scrap	-12.7375
▁acud	-12.7376
▁consulte	-12.7382
▁fume	-12.7384
sible	-12.7387
▁rescat	-12.7389
▁mezcl	-12.7392
▁incompetent	-12.7394
▁natives	-12.7396
lin	-12.74
iar	-12.7406
▁bars	-12.7407
▁leak	-12.7407
▁sentimiento	-12.7408
▁despreci	-12.7413
▁cobrar	-12.7413
her	-12.7415
▁añadi	-12.7416
demos	-12.7416
▁urban	-12.7419
▁tolerar	-12.7428
fashioned	-12.7428
creéis	-12.7429
▁eleva	-12.7432
▁pensá	-12.7432
room	-12.7432
▁tribu	-12.7433
¡	-12.7434
ulated	-12.7435
conocés	-12.7435
lloverá	-12.7437
down	-12.7437
ayuda	-12.7437
capable	-12.7437
viniste	-12.7437
sentimiento	-12.7437
américa	-12.7438
vosotros	-12.7438
judge	-12.7438
box	-12.7438
great	-12.7438
together	-12.7438
▁conflict	-12.744
comer	-12.7441
▁sueña	-12.7442
▁vuela	-12.7445
▁froze	-12.7446
hold	-12.7448
▁describir	-12.7449
ley	-12.7451
anda	-12.7453
▁persuadi	-12.7453
▁envía	-12.7453
▁arrogant	-12.7453
aleja	-12.7455
▁comedia	-12.7457
struyó	-12.7459
▁elect	-12.746
▁monta	-12.7461
▁frighten	-12.7462
▁approach	-12.7463
solo	-12.7465
▁fallo	-12.7465
▁bolsas	-12.7469
▁déja	-12.747
▁cuénta	-12.7471
▁release	-12.7471
away	-12.7471
▁amuse	-12.7472
▁struggle	-12.7472
▁relie	-12.7474
▁scold	-12.7474
▁fiel	-12.7474
▁desconocid	-12.7476
▁wi	-12.7476
▁sail	-12.7476
▁appeti	-12.7477
▁espacial	-12.7478
▁occidental	-12.7478
▁mantel	-12.7479
▁actividad	-12.7479
▁obsolet	-12.748
▁afila	-12.748
▁inund	-12.748
▁ronca	-12.748
▁attentive	-12.7481
▁escoge	-12.7482
▁proper	-12.7482
▁pregúnta	-12.7482
▁guilt	-12.7483
brieron	-12.7483
▁murmur	-12.7483
▁quinient	-12.7484
▁mug	-12.7484
▁enséñ	-12.7485
▁identi	-12.7485
▁scienti	-12.7485
ollywood	-12.7485
▁aboli	-12.7486
icycle	-12.7486
debe	-12.7486
▁ingenio	-12.7486
▁territor	-12.7486
oportuno	-12.7486
zhou	-12.7486
ófono	-12.7486
▁acantilado	-12.7486
▁acarici	-12.7486
▁acepté	-12.7486
▁ambición	-12.7486
▁amplia	-12.7486
▁approval	-12.7486
▁aprendizaje	-12.7486
▁astronomy	-12.7486
▁babysitter	-12.7486
▁background	-12.7486
▁backward	-12.7486
▁bargain	-12.7486
▁birome	-12.7486
▁blackmailed	-12.7486
▁básica	-12.7486
▁cachorrito	-12.7486
▁caigo	-12.7486
▁callejón	-12.7486
▁campesino	-12.7486
▁campeón	-12.7486
▁carpintero	-12.7486
▁carretilla	-12.7486
▁cayera	-12.7486
▁celsius	-12.7486
▁centímetros	-12.7486
▁cepíll	-12.7486
▁certeza	-12.7486
▁chicle	-12.7486
▁circo	-12.7486
▁cocodrilo	-12.7486
▁comandante	-12.7486
▁compromise	-12.7486
▁comunican	-12.7486
▁comunidad	-12.7486
▁conclude	-12.7486
▁conexión	-12.7486
▁construí	-12.7486
▁cricket	-12.7486
▁crocodile	-12.7486
▁cuenco	-12.7486
▁cuervo	-12.7486
▁cuñado	-12.7486
▁cólera	-12.7486
▁deceased	-12.7486
▁decírtelo	-12.7486
▁derribó	-12.7486
▁desacuerdo	-12.7486
▁descompuesto	-12.7486
▁desilusionado	-12.7486
▁desperdicie	-12.7486
▁despidió	-12.7486
▁detroit	-12.7486
▁devorado	-12.7486
▁diabetic	-12.7486
▁disorder	-12.7486
▁distraiga	-12.7486
▁divierte	-12.7486
▁divulg	-12.7486
▁dreadful	-12.7486
▁dripping	-12.7486
▁duplicado	-12.7486
▁ebriedad	-12.7486
▁eclipse	-12.7486
▁eficaz	-12.7486
▁eficiente	-12.7486
▁eiffel	-12.7486
▁elogió	-12.7486
▁embrujada	-12.7486
▁enthusiasm	-12.7486
▁equivoqué	-12.7486
▁escéptic	-12.7486
▁escúchame	-12.7486
▁estrecho	-12.7486
▁estresante	-12.7486
▁evacuate	-12.7486
▁eventualmente	-12.7486
▁exceed	-12.7486
▁expedition	-12.7486
▁eyebrows	-12.7486
▁ferrocarril	-12.7486
▁financieros	-12.7486
▁fingerprints	-12.7486
▁giraffe	-12.7486
▁gramática	-12.7486
▁gratuita	-12.7486
▁greedy	-12.7486
▁gunshot	-12.7486
▁hairdresser	-12.7486
▁hakone	-12.7486
▁happily	-12.7486
▁helsinki	-12.7486
▁hesitation	-12.7486
▁hiciese	-12.7486
▁himalaya	-12.7486
▁honshu	-12.7486
▁hyogo	-12.7486
▁immature	-12.7486
▁immigrants	-12.7486
▁impolite	-12.7486
▁improvis	-12.7486
▁inaceptable	-12.7486
▁ingleses	-12.7486
▁inmaduro	-12.7486
▁inmigrantes	-12.7486
▁insensible	-12.7486
▁intrigued	-12.7486
▁invasores	-12.7486
▁janeiro	-12.7486
▁jirafa	-12.7486
▁jodiendo	-12.7486
▁jubiló	-12.7486
▁karaoke	-12.7486
▁kennedy	-12.7486
▁knives	-12.7486
▁lemonade	-12.7486
▁liquid	-12.7486
▁llanto	-12.7486
▁medication	-12.7486
▁mendigo	-12.7486
▁mercurio	-12.7486
▁mercury	-12.7486
▁mermelada	-12.7486
▁microscope	-12.7486
▁montgomery	-12.7486
▁muerda	-12.7486
▁murciélago	-12.7486
▁mysteries	-12.7486
▁neblina	-12.7486
▁neutral	-12.7486
▁nitrógeno	-12.7486
▁nocturna	-12.7486
▁ofendido	-12.7486
▁offensive	-12.7486
▁olfato	-12.7486
▁ordeña	-12.7486
▁orientación	-12.7486
▁otorg	-12.7486
▁pascua	-12.7486
▁patinaje	-12.7486
▁peasant	-12.7486
▁penicil	-12.7486
▁permanezca	-12.7486
▁perspectiva	-12.7486
▁picadura	-12.7486
▁pioneer	-12.7486
▁plagi	-12.7486
▁plague	-12.7486
▁plumber	-12.7486
▁poesía	-12.7486
▁polonia	-12.7486
▁potential	-12.7486
▁privacidad	-12.7486
▁proceed	-12.7486
▁profile	-12.7486
▁protección	-12.7486
▁quisquilloso	-12.7486
▁rascacielo	-12.7486
▁recesión	-12.7486
▁reflejo	-12.7486
▁reggae	-12.7486
▁rehús	-12.7486
▁religious	-12.7486
▁rubber	-12.7486
▁sample	-12.7486
▁señas	-12.7486
▁shiegal	-12.7486
▁shikoku	-12.7486
▁sigilosamente	-12.7486
▁singapore	-12.7486
▁singapur	-12.7486
▁skyscraper	-12.7486
▁sloppy	-12.7486
▁sobrepeso	-12.7486
▁solitaria	-12.7486
▁species	-12.7486
▁splendid	-12.7486
▁suburbs	-12.7486
▁sunscreen	-12.7486
▁sweden	-12.7486
▁swimsuit	-12.7486
▁tahit	-12.7486
▁technique	-12.7486
▁titanic	-12.7486
▁tradiciones	-12.7486
▁tragedia	-12.7486
▁tragedy	-12.7486
[...]
