<pad>	0
<s>	0
</s>	0
<unk>	0
s	-3.15653
▁the	-3.19276
▁,	-3.28243
▁.	-3.29165
ed	-3.81624
▁a	-3.8409
"	-3.88726
▁"	-3.89492
▁to	-3.9726
▁of	-4.02493
▁in	-4.13496
▁and	-4.15196
ing	-4.24389
▁s	-4.44988
y	-4.51414
▁said	-4.8819
▁be	-5.03682
▁that	-5.04389
▁on	-5.04904
▁for	-5.07482
d	-5.18475
ly	-5.1917
▁is	-5.26399
e	-5.33917
▁was	-5.34201
▁with	-5.38358
▁it	-5.60749
the	-5.61459
▁	-5.65307
▁at	-5.65309
▁he	-5.68324
▁from	-5.71649
▁an	-5.74075
▁by	-5.80856
▁has	-5.82018
n	-5.82443
▁have	-5.85958
▁as	-5.89186
en	-5.89948
▁are	-5.93736
▁his	-5.94055
▁were	-6.00627
a	-6.04238
▁who	-6.05428
▁not	-6.09352
▁will	-6.1067
▁but	-6.15291
▁u	-6.17292
t	-6.25765
▁t	-6.25857
▁had	-6.30029
ies	-6.30834
▁people	-6.33983
er	-6.34744
▁their	-6.34924
▁after	-6.35326
▁cnn	-6.36446
▁about	-6.40598
in	-6.42691
▁her	-6.44515
st	-6.46126
▁more	-6.49011
▁year	-6.49041
al	-6.50476
▁they	-6.52495
▁which	-6.52546
i	-6.53029
es	-6.53276
▁new	-6.53826
▁or	-6.53833
r	-6.54384
▁president	-6.5458
▁this	-6.55966
▁two	-6.57997
▁its	-6.589
▁up	-6.59168
▁one	-6.60028
▁than	-6.63311
▁she	-6.64368
▁other	-6.67217
o	-6.67611
lso	-6.68286
▁out	-6.68324
▁i	-6.68816
ma	-6.69114
▁would	-6.70646
▁government	-6.70899
▁we	-6.7539
▁al	-6.75445
▁man	-6.78271
▁m	-6.78351
▁day	-6.78824
▁police	-6.78862
▁over	-6.79994
man	-6.88251
▁last	-6.88295
ce	-6.88898
on	-6.89089
▁when	-6.89169
▁some	-6.89684
▁told	-6.91651
▁all	-6.9201
▁say	-6.93837
▁you	-6.93932
▁first	-6.94219
▁no	-6.95189
▁into	-6.96677
▁state	-6.9789
▁can	-6.998
an	-7.01651
▁world	-7.0225
▁years	-7.04516
▁time	-7.0482
▁percent	-7.04967
▁call	-7.05005
▁go	-7.05279
▁there	-7.0834
▁according	-7.11166
▁country	-7.11261
▁tuesday	-7.11837
▁monday	-7.12207
▁could	-7.12583
▁again	-7.13715
▁north	-7.14004
▁united	-7.14404
ish	-7.14584
uch	-7.14727
▁million	-7.18507
▁oba	-7.20738
▁month	-7.21212
▁three	-7.21357
▁b	-7.22848
▁re	-7.22857
▁wednesday	-7.22861
▁south	-7.23629
▁sunday	-7.23702
▁them	-7.2503
▁officials	-7.25745
cause	-7.26167
it	-7.26492
ion	-7.26714
▁old	-7.29193
▁like	-7.29934
▁us	-7.30345
▁most	-7.30346
▁where	-7.31454
▁what	-7.31737
▁before	-7.32025
▁do	-7.32202
▁states	-7.32813
▁near	-7.33721
▁week	-7.3379
▁so	-7.3386
▁militar	-7.34028
▁spokes	-7.34037
▁clinton	-7.3436
▁take	-7.34784
▁group	-7.34952
▁home	-7.35097
m	-7.35405
▁kill	-7.35939
ese	-7.36947
▁him	-7.37341
▁thursday	-7.38289
▁korea	-7.38322
▁high	-7.38377
▁reported	-7.38791
▁off	-7.39056
▁report	-7.39936
▁any	-7.40641
▁minister	-7.41246
ve	-7.41541
▁if	-7.42011
▁china	-7.42421
▁back	-7.42641
▁may	-7.44239
▁party	-7.46134
c	-7.46196
▁iraq	-7.46232
▁city	-7.47095
▁since	-7.48548
▁p	-7.49015
▁official	-7.49745
▁national	-7.50347
▁nation	-7.51076
he	-7.531
▁down	-7.53178
▁know	-7.53681
z	-7.53803
▁made	-7.54282
▁un	-7.5524
▁long	-7.55977
▁just	-7.55995
p	-7.56115
▁statement	-7.56797
▁four	-7.56955
▁part	-7.57001
▁american	-7.57024
▁now	-7.58751
▁our	-7.58758
▁dur	-7.58979
▁former	-7.594
▁end	-7.59838
tween	-7.59896
▁through	-7.60114
▁election	-7.60726
hose	-7.60834
▁my	-7.61092
▁under	-7.61116
l	-7.6283
▁war	-7.63976
▁work	-7.64459
▁securit	-7.64741
▁japan	-7.66358
h	-7.66536
▁death	-7.673
▁news	-7.67389
▁including	-7.67629
▁leader	-7.68104
▁did	-7.68203
▁international	-7.68282
▁right	-7.68317
▁make	-7.6839
▁attack	-7.68495
▁help	-7.68496
▁whil	-7.68662
but	-7.69166
▁ver	-7.69423
▁n	-7.69616
▁found	-7.70885
out	-7.72087
u	-7.73041
▁expect	-7.7317
▁house	-7.7323
round	-7.7438
▁democratic	-7.74391
ial	-7.74583
▁campaign	-7.75264
▁large	-7.75305
▁show	-7.7674
▁c	-7.76961
ity	-7.77216
▁site	-7.77792
▁children	-7.77925
able	-7.77932
we	-7.78089
other	-7.78846
▁get	-7.7889
▁de	-7.78921
ers	-7.79479
▁being	-7.79629
▁see	-7.80088
▁fire	-7.81014
▁way	-7.8175
▁nuclear	-7.82086
▁close	-7.82261
▁d	-7.8249
▁authorit	-7.82625
▁how	-7.82732
▁recent	-7.82856
▁five	-7.8288
▁place	-7.83123
▁car	-7.83236
one	-7.83557
▁come	-7.83774
▁still	-7.83886
est	-7.8403
▁york	-7.84112
▁court	-7.84395
▁won	-7.84539
▁bush	-7.84686
▁second	-7.84891
to	-7.85449
▁hour	-7.85933
▁prime	-7.85952
▁well	-7.85979
▁public	-7.86125
at	-7.86321
way	-7.86488
le	-7.86495
land	-7.86718
▁want	-7.86949
▁lead	-7.87086
▁korean	-7.87399
▁believe	-7.87506
▁late	-7.87895
▁brit	-7.88573
▁pakistan	-7.88636
ic	-7.89574
▁six	-7.8978
ment	-7.90139
▁human	-7.91313
▁support	-7.9161
▁talk	-7.92113
▁vote	-7.92568
▁company	-7.92662
▁set	-7.93103
▁sever	-7.93482
▁plan	-7.94136
▁arm	-7.95327
▁next	-7.95496
▁k	-7.95638
▁power	-7.95782
▁even	-7.96546
ation	-7.96555
▁took	-7.97083
▁chin	-7.97472
▁agency	-7.9752
▁issue	-7.97974
▁head	-7.98259
▁your	-7.9859
▁case	-7.98715
▁air	-7.99247
▁think	-7.99296
if	-7.99364
ther	-7.99369
▁use	-7.99635
▁died	-7.99864
▁friday	-7.99899
▁women	-7.99913
▁area	-7.99916
▁th	-8.00137
▁number	-8.005
▁market	-8.00502
▁should	-8.00638
▁result	-8.00796
▁office	-8.01252
▁service	-8.01401
▁play	-8.01407
▁oil	-8.01765
▁e	-8.01834
um	-8.0201
▁arrest	-8.02012
▁w	-8.02313
ary	-8.02839
▁program	-8.03111
▁return	-8.03249
▁press	-8.03891
▁members	-8.04126
▁turn	-8.04201
th	-8.04578
▁good	-8.0472
▁top	-8.05151
▁point	-8.05818
▁run	-8.06468
▁night	-8.06821
▁put	-8.0716
▁f	-8.0723
▁region	-8.07306
▁left	-8.07352
▁troop	-8.07362
▁health	-8.07366
▁look	-8.07394
as	-8.07559
▁don	-8.07579
▁both	-8.07813
▁follow	-8.08245
▁billion	-8.08374
▁countr	-8.08566
▁water	-8.0941
▁charge	-8.09515
▁saturday	-8.09978
▁ministr	-8.10311
▁john	-8.10337
▁saying	-8.10592
▁injur	-8.10647
▁men	-8.10666
▁political	-8.10705
▁release	-8.1087
▁ago	-8.11003
▁need	-8.11145
▁every	-8.11528
▁general	-8.11654
▁capital	-8.11984
is	-8.12003
▁forces	-8.12247
ember	-8.13369
▁sen	-8.13542
▁bar	-8.13684
▁same	-8.13748
▁white	-8.13774
gan	-8.14298
▁order	-8.14431
▁far	-8.14455
▁try	-8.1465
▁iraqi	-8.1469
▁life	-8.15082
▁food	-8.1509
▁win	-8.15887
▁early	-8.16232
▁real	-8.16463
▁mccain	-8.16534
▁continue	-8.1662
▁own	-8.1698
▁foreign	-8.17246
▁few	-8.1759
▁french	-8.17932
▁concern	-8.1864
▁count	-8.19155
▁later	-8.19225
thing	-8.1926
▁family	-8.19363
▁chief	-8.19372
▁came	-8.19377
▁among	-8.19421
▁record	-8.20091
▁center	-8.20537
▁hit	-8.20879
▁open	-8.21336
▁poll	-8.21548
▁web	-8.22039
▁dead	-8.22294
us	-8.22484
▁bas	-8.22511
jing	-8.22827
▁face	-8.23208
▁game	-8.23457
▁me	-8.23683
▁allow	-8.2385
▁hospital	-8.24085
▁major	-8.24096
b	-8.24618
ton	-8.24815
▁afghan	-8.24983
▁team	-8.24986
raf	-8.24998
▁workers	-8.25107
▁best	-8.25379
▁force	-8.25566
▁visit	-8.25957
▁department	-8.26145
▁protest	-8.26228
ack	-8.26627
w	-8.27041
▁media	-8.27302
▁candidate	-8.27319
▁tak	-8.27356
▁remain	-8.27812
▁school	-8.28226
▁march	-8.28534
istan	-8.29204
▁meeting	-8.29336
▁half	-8.29345
▁add	-8.29655
▁com	-8.29675
▁increase	-8.29715
▁washington	-8.2982
▁announc	-8.29976
▁appear	-8.30103
go	-8.30228
▁past	-8.30232
▁university	-8.30568
▁gas	-8.30693
▁per	-8.31123
▁clear	-8.31376
▁ask	-8.31508
▁along	-8.31617
▁wound	-8.32168
ntil	-8.32506
▁great	-8.32584
▁small	-8.32587
son	-8.32607
▁does	-8.3262
ty	-8.32678
▁miles	-8.32825
k	-8.33077
▁?	-8.33418
▁primar	-8.3352
▁earlie	-8.33629
▁free	-8.33757
▁video	-8.33819
▁claim	-8.33841
▁hand	-8.33856
▁opposition	-8.34279
▁bank	-8.34296
▁name	-8.34477
each	-8.3458
▁suspect	-8.34691
▁film	-8.34706
g	-8.35234
▁third	-8.35537
▁change	-8.35647
▁leas	-8.35674
▁business	-8.35972
▁law	-8.35995
▁main	-8.36096
and	-8.36499
▁whe	-8.36505
▁economic	-8.36833
▁internet	-8.36835
▁local	-8.36849
self	-8.36927
▁start	-8.37026
or	-8.3708
▁iran	-8.37314
▁young	-8.37366
▁these	-8.37558
▁england	-8.37701
▁sign	-8.38013
cy	-8.38257
re	-8.38275
▁leaders	-8.38421
▁student	-8.38581
▁border	-8.38581
▁prices	-8.38842
▁fight	-8.39085
▁race	-8.39728
ta	-8.39786
▁jan	-8.39795
▁led	-8.40331
▁side	-8.40337
▁soldier	-8.40371
▁move	-8.40523
f	-8.40629
▁woman	-8.40648
▁keep	-8.40816
mar	-8.40958
formation	-8.41143
▁post	-8.41227
▁hope	-8.41337
▁secretar	-8.41387
read	-8.41754
▁final	-8.41947
▁offer	-8.42142
▁london	-8.42372
▁estimate	-8.42652
▁times	-8.42918
▁german	-8.43124
most	-8.43708
▁union	-8.43775
▁conference	-8.44029
▁deal	-8.44079
▁system	-8.44435
▁musha	-8.44481
▁reach	-8.44515
▁cause	-8.44598
▁consider	-8.44923
▁los	-8.44944
▁econom	-8.4524
▁northern	-8.45475
▁space	-8.45537
▁bei	-8.45692
by	-8.45802
ry	-8.45847
▁line	-8.45884
▁rule	-8.4619
▁violen	-8.46212
▁co	-8.46372
▁attacks	-8.46565
▁killing	-8.46899
▁must	-8.4692
▁operation	-8.46925
▁give	-8.46975
▁israel	-8.47134
▁european	-8.4741
▁outside	-8.47435
hutto	-8.47598
age	-8.47682
▁decision	-8.4789
▁town	-8.48029
day	-8.48068
▁emergency	-8.48366
ous	-8.48404
▁big	-8.48535
▁bomb	-8.48602
▁star	-8.48627
cross	-8.48788
▁director	-8.48821
▁held	-8.48836
▁station	-8.48847
▁demand	-8.4929
▁source	-8.49782
▁thousand	-8.49808
▁control	-8.49923
▁base	-8.50434
▁person	-8.50483
▁mean	-8.50918
▁ga	-8.50928
▁en	-8.51081
▁street	-8.51284
cnn	-8.51396
▁israeli	-8.51531
▁palestinian	-8.51789
▁rebel	-8.51803
▁delegates	-8.5209
ng	-8.52104
▁lea	-8.52143
▁mak	-8.52288
▁full	-8.52318
whil	-8.52408
▁releas	-8.52445
▁eight	-8.52819
▁weeks	-8.52998
▁supporter	-8.53203
▁hard	-8.53514
▁cut	-8.53526
▁black	-8.5377
▁province	-8.54272
▁become	-8.54846
▁california	-8.5485
▁strong	-8.54853
▁comment	-8.54892
▁study	-8.54896
▁building	-8.55365
▁southern	-8.55403
▁train	-8.55424
▁grow	-8.55877
▁newspaper	-8.55893
▁cost	-8.56087
▁morning	-8.56434
▁se	-8.56469
head	-8.56581
▁seven	-8.56763
▁attempt	-8.56945
▁france	-8.56994
▁find	-8.572
▁ve	-8.57321
ar	-8.57633
▁russian	-8.57747
▁live	-8.57754
▁hold	-8.57804
▁include	-8.57935
ber	-8.5849
ive	-8.58519
▁target	-8.5855
▁qa	-8.58557
▁child	-8.58558
▁hillary	-8.58576
▁associat	-8.58777
uar	-8.58818
▁develop	-8.59049
▁plann	-8.59247
▁confirm	-8.5929
▁commission	-8.59641
▁britain	-8.59665
▁wide	-8.59684
▁travel	-8.59707
▁immediate	-8.60185
▁defense	-8.60215
▁condition	-8.6073
▁level	-8.60734
▁companies	-8.60737
▁republican	-8.60775
▁agree	-8.60792
el	-8.60828
▁safe	-8.61317
▁weapons	-8.6143
▁west	-8.61469
▁sea	-8.61825
▁short	-8.61845
▁test	-8.62352
for	-8.62533
▁strike	-8.62801
▁fe	-8.62818
▁park	-8.62992
ble	-8.63166
ten	-8.63243
▁disease	-8.63523
spite	-8.63696
they	-8.63803
this	-8.63863
▁red	-8.64262
▁cit	-8.64516
▁age	-8.64579
▁global	-8.64668
▁bill	-8.64735
▁fall	-8.64784
though	-8.64949
▁action	-8.65312
▁reporter	-8.65724
▁never	-8.65858
▁research	-8.65951
▁less	-8.6606
▁shot	-8.66193
▁suicide	-8.66407
co	-8.66988
▁nov	-8.67046
▁total	-8.67086
▁might	-8.6757
▁little	-8.6757
▁stop	-8.67634
▁heart	-8.67693
▁read	-8.67771
▁russia	-8.67895
▁watch	-8.68181
▁east	-8.68215
ship	-8.68295
▁hotel	-8.68761
▁committee	-8.68762
▁television	-8.68772
▁launch	-8.69091
▁peace	-8.69226
▁voter	-8.69273
▁too	-8.69314
▁walk	-8.69342
▁militant	-8.69361
ard	-8.69367
▁animal	-8.69376
▁aid	-8.69547
woman	-8.69575
▁sex	-8.69652
▁accus	-8.69893
▁olympic	-8.69922
▁organization	-8.69967
▁hundred	-8.70015
▁cha	-8.70339
▁central	-8.70565
▁scientist	-8.70598
▁carry	-8.7062
ra	-8.70671
▁airport	-8.71183
▁rate	-8.71554
▁hav	-8.71701
▁minutes	-8.72562
▁america	-8.72759
▁december	-8.73029
▁goal	-8.732
▁member	-8.73357
▁incident	-8.73651
▁money	-8.73676
▁baghdad	-8.73738
▁mid	-8.73842
ally	-8.74117
▁working	-8.74169
ough	-8.74246
▁weekend	-8.74286
▁better	-8.74372
▁key	-8.7444
▁victory	-8.74459
less	-8.74781
▁india	-8.74795
▁serious	-8.74913
▁couple	-8.74927
▁turkey	-8.74938
▁body	-8.75081
▁front	-8.75574
▁federal	-8.75625
▁lot	-8.75734
▁o	-8.75904
ur	-8.75906
▁ap	-8.75937
▁toward	-8.75944
there	-8.76075
▁g	-8.76172
▁decade	-8.76192
▁light	-8.76526
ance	-8.76713
▁cris	-8.76732
▁search	-8.7684
▁season	-8.76883
▁coast	-8.77185
▁am	-8.77265
▁ever	-8.77309
▁efforts	-8.77427
▁nomination	-8.775
▁ban	-8.77654
▁break	-8.77667
▁ship	-8.77749
▁join	-8.78055
ch	-8.78055
▁dozen	-8.78153
▁warn	-8.78234
▁areas	-8.78332
she	-8.78697
▁current	-8.7882
▁room	-8.78857
be	-8.78974
▁r	-8.79024
▁investigation	-8.79133
▁question	-8.79163
▁event	-8.79215
▁ta	-8.79387
bru	-8.79445
▁previous	-8.79475
▁wif	-8.795
▁interview	-8.79541
▁share	-8.79582
▁judge	-8.79703
▁suggest	-8.8003
after	-8.80416
▁term	-8.80545
▁energ	-8.80786
▁terrorist	-8.80899
▁alleged	-8.80933
new	-8.81044
▁mother	-8.81194
▁cross	-8.81226
▁problem	-8.81274
no	-8.81275
▁act	-8.81324
▁pay	-8.81412
ne	-8.81487
▁western	-8.81613
▁bring	-8.81781
▁flight	-8.81984
▁vehicle	-8.82152
▁fuel	-8.82164
▁got	-8.82265
abe	-8.82385
▁florida	-8.82852
▁possible	-8.82963
▁leave	-8.83126
▁involv	-8.83139
la	-8.83409
▁dollar	-8.83529
▁administration	-8.83532
▁texas	-8.83534
▁foot	-8.83535
▁resident	-8.83542
▁angel	-8.83551
ong	-8.8381
▁view	-8.83815
when	-8.83859
▁due	-8.83869
▁island	-8.84012
▁process	-8.84087
▁future	-8.84088
▁interest	-8.84147
▁meet	-8.84198
▁seat	-8.84431
▁risk	-8.84924
▁civilian	-8.84928
▁medical	-8.84928
een	-8.85389
▁project	-8.85488
▁pakistani	-8.85503
ness	-8.85509
▁protect	-8.85557
▁senator	-8.85654
▁turk	-8.85661
ful	-8.85684
▁prison	-8.86093
side	-8.86204
▁happen	-8.86219
▁sell	-8.8632
▁chance	-8.86337
▁storm	-8.86344
▁threaten	-8.86545
▁anti	-8.86873
▁tibet	-8.86963
▁important	-8.8708
▁agreement	-8.87097
▁plane	-8.87237
▁san	-8.87261
▁sept	-8.87396
▁pro	-8.87602
ist	-8.87711
▁democrac	-8.87768
▁paris	-8.87774
▁church	-8.87778
▁chair	-8.8778
▁movie	-8.8783
▁form	-8.87975
▁apri	-8.88567
▁father	-8.88604
▁caus	-8.88749
▁here	-8.8881
▁parliament	-8.88956
▁different	-8.89227
▁blood	-8.89244
▁gold	-8.89249
▁st	-8.89296
▁june	-8.89488
▁cell	-8.89511
▁bus	-8.89521
ia	-8.89553
▁started	-8.89949
▁attend	-8.89964
▁cover	-8.90513
hind	-8.90608
▁article	-8.90698
▁situation	-8.90699
▁popular	-8.907
am	-8.90772
oul	-8.90903
▁provide	-8.9108
▁direct	-8.91107
▁liv	-8.91385
▁friend	-8.917
▁tried	-8.91775
ought	-8.91859
▁list	-8.92035
▁august	-8.92197
▁ceremon	-8.92197
▁council	-8.92197
▁further	-8.92216
▁ki	-8.92361
▁lower	-8.92369
▁victims	-8.92416
▁figure	-8.92569
▁europe	-8.92877
▁inside	-8.92935
▁damage	-8.93009
▁price	-8.93285
▁muslim	-8.93718
▁barrel	-8.93723
ri	-8.93969
▁job	-8.94063
▁h	-8.94425
▁saudi	-8.94506
ley	-8.94574
▁tell	-8.9461
▁send	-8.94799
▁trip	-8.94847
▁davi	-8.94929
▁bigge	-8.94955
▁speak	-8.9514
▁suffer	-8.95263
▁crime	-8.95268
▁crew	-8.95284
▁serve	-8.95295
▁tour	-8.95354
▁girl	-8.95699
▁boy	-8.95756
▁ground	-8.95937
▁prevent	-8.96043
▁population	-8.96052
▁technology	-8.96066
▁role	-8.96068
▁tv	-8.96163
▁stay	-8.9621
▁problems	-8.96272
▁complete	-8.96337
▁seek	-8.96488
▁protester	-8.96679
▁gen	-8.967
▁democrat	-8.96757
▁stock	-8.9689
▁product	-8.97007
▁receiv	-8.97164
that	-8.97371
▁land	-8.97617
▁pass	-8.97627
▁senior	-8.97629
▁justice	-8.97634
▁lawyer	-8.97644
▁road	-8.97859
▁islam	-8.97896
wide	-8.98049
▁award	-8.98186
de	-8.9829
▁daughter	-8.98444
yet	-8.98449
▁special	-8.98518
▁nine	-8.9863
▁embass	-8.99231
▁financial	-8.99243
▁mission	-8.99284
▁officer	-8.99391
▁seem	-8.99447
▁sent	-8.99576
▁bad	-8.99636
▁policy	-8.99734
▁given	-8.99906
▁industry	-9.00044
▁speech	-9.00044
▁rival	-9.00044
▁expert	-9.00058
oft	-9.00343
▁destroy	-9.00565
up	-9.00573
▁broke	-9.00588
hua	-9.00634
▁trade	-9.00911
▁wanted	-9.01036
▁runn	-9.0115
▁kim	-9.01501
▁computer	-9.01589
went	-9.01667
▁executive	-9.01695
▁congress	-9.01698
▁king	-9.01743
with	-9.02149
ung	-9.02203
▁pressure	-9.02279
ether	-9.02358
▁husband	-9.02523
▁fell	-9.02548
▁brown	-9.02581
▁soon	-9.0315
▁ba	-9.03234
▁conduct	-9.03336
▁nominee	-9.03364
▁scene	-9.03366
▁ruling	-9.03368
▁discover	-9.03376
▁crowd	-9.03388
▁let	-9.03413
▁production	-9.03443
▁colombia	-9.03933
▁summer	-9.04211
bi	-9.04371
rice	-9.04382
▁board	-9.04452
▁officers	-9.04485
ine	-9.05005
▁ex	-9.05048
▁transport	-9.05066
▁league	-9.0507
▁kind	-9.05072
▁position	-9.0509
▁shar	-9.05091
▁missing	-9.05136
▁ho	-9.05226
mid	-9.0588
▁missile	-9.05928
▁private	-9.05931
▁evidence	-9.05939
▁histor	-9.05943
▁easter	-9.05961
▁sarkozy	-9.05979
▁fee	-9.05987
▁pick	-9.0599
▁gaza	-9.06
▁effort	-9.06004
▁village	-9.06026
▁serie	-9.06038
ves	-9.06069
▁needed	-9.06351
ham	-9.06368
down	-9.0641
▁express	-9.06721
▁octo	-9.06819
▁message	-9.06839
▁kong	-9.06853
▁image	-9.06859
▁fund	-9.06928
came	-9.07295
▁battle	-9.07295
▁australia	-9.07389
▁address	-9.07476
▁ben	-9.0762
▁pull	-9.07733
▁movement	-9.07752
▁wall	-9.07802
▁inter	-9.07938
more	-9.08142
▁round	-9.0825
▁rais	-9.08431
▁paul	-9.08606
▁drug	-9.08682
te	-9.08783
london	-9.09069
▁stand	-9.09217
▁focus	-9.09452
▁account	-9.09464
▁parent	-9.09484
▁robert	-9.09502
▁link	-9.09505
▁growth	-9.09507
▁low	-9.09521
▁plant	-9.09638
▁mi	-9.09826
kyo	-9.09961
na	-9.10013
▁son	-9.10138
▁feel	-9.10201
▁earth	-9.10363
▁development	-9.10428
eda	-9.11241
▁appeal	-9.11262
▁quick	-9.11265
▁title	-9.11265
▁schedul	-9.11276
▁crack	-9.11297
terior	-9.11333
▁letter	-9.11333
▁ra	-9.11378
ism	-9.11602
▁fear	-9.11766
▁tog	-9.12021
▁l	-9.12062
▁treat	-9.12158
▁communist	-9.12186
▁natural	-9.12189
▁journalist	-9.12199
▁getting	-9.12209
▁rain	-9.12371
▁measure	-9.12433
pent	-9.12963
▁things	-9.13071
▁crash	-9.1311
▁staff	-9.13122
▁moment	-9.13137
▁threat	-9.13183
▁match	-9.13265
▁community	-9.1335
▁rise	-9.13392
▁buy	-9.13429
▁online	-9.13447
▁phone	-9.13538
▁arriv	-9.13577
▁fact	-9.13982
▁blast	-9.14093
▁player	-9.14214
▁accident	-9.14231
▁thought	-9.14267
▁met	-9.1446
ney	-9.14766
▁urg	-9.14878
▁care	-9.14924
▁reason	-9.14958
▁ohio	-9.14984
▁cup	-9.15043
▁african	-9.15279
▁though	-9.15483
▁refus	-9.15681
▁cat	-9.15766
ian	-9.15895
▁begin	-9.15934
▁intelligen	-9.15936
▁xin	-9.15989
▁rose	-9.16072
▁loss	-9.16379
▁africa	-9.16607
coming	-9.16691
▁carolina	-9.16897
▁pound	-9.16897
▁similar	-9.16897
▁survey	-9.16897
▁poor	-9.16913
▁heavy	-9.16922
▁analyst	-9.16955
▁green	-9.17052
▁included	-9.17077
▁network	-9.17361
▁prince	-9.17496
▁mov	-9.17582
▁difficult	-9.17698
▁neighbor	-9.17866
▁rest	-9.18015
▁visitor	-9.1826
▁step	-9.18409
▁fan	-9.18564
▁personal	-9.18614
▁airline	-9.187
ant	-9.18756
▁le	-9.18843
▁sexual	-9.18856
▁often	-9.19119
▁toll	-9.19273
▁ll	-9.19433
et	-9.19484
▁exchange	-9.19592
men	-9.19747
▁idea	-9.1979
▁district	-9.19839
▁pennsylvania	-9.19841
▁thai	-9.19947
▁approv	-9.20076
▁bid	-9.20176
▁river	-9.20532
▁minute	-9.20593
ither	-9.2077
▁effect	-9.2082
▁middle	-9.20839
▁centur	-9.2085
▁certain	-9.20868
▁treatment	-9.2088
▁occurr	-9.20898
▁asia	-9.21124
some	-9.21156
▁saw	-9.21167
wood	-9.21463
▁kid	-9.21713
▁spoke	-9.21715
▁civil	-9.21844
▁square	-9.21851
yang	-9.21858
▁flood	-9.21866
▁dar	-9.21972
▁gain	-9.22184
bo	-9.22386
▁opening	-9.22751
▁burn	-9.22828
▁kurd	-9.22872
▁murder	-9.22872
▁lift	-9.22914
▁vi	-9.22985
▁create	-9.2299
▁mass	-9.23055
▁consumer	-9.23062
▁die	-9.2319
▁carri	-9.23463
police	-9.23518
truck	-9.23532
▁driver	-9.23627
▁music	-9.23744
▁deliver	-9.23835
▁con	-9.24026
▁rock	-9.24456
▁fail	-9.2453
however	-9.2456
▁enter	-9.24573
ro	-9.24687
▁elect	-9.24784
▁apparent	-9.24943
▁lawmaker	-9.24946
▁george	-9.24956
▁why	-9.24958
ways	-9.25178
▁identified	-9.25195
▁pop	-9.25225
▁however	-9.25366
nato	-9.25495
▁draw	-9.25584
▁opened	-9.25813
▁camp	-9.2585
▁size	-9.25982
▁trad	-9.25982
▁summit	-9.25995
▁delay	-9.26017
▁tourist	-9.26072
▁na	-9.2612
▁july	-9.26151
▁pe	-9.2623
▁lives	-9.26279
▁majorit	-9.26341
▁non	-9.26408
ever	-9.26809
▁la	-9.26884
▁discuss	-9.26946
▁micros	-9.26985
▁detain	-9.27043
▁suspend	-9.27058
▁museum	-9.27059
▁host	-9.27064
▁coalition	-9.27065
▁mug	-9.27121
my	-9.27167
▁mark	-9.27195
▁vice	-9.27223
▁truck	-9.2746
▁environmental	-9.27598
▁access	-9.27641
▁publish	-9.27717
odies	-9.27933
▁marine	-9.27998
▁availab	-9.28134
▁story	-9.28149
▁matter	-9.28157
▁course	-9.28161
▁document	-9.28413
▁tree	-9.28443
▁dail	-9.28747
▁date	-9.28839
▁contain	-9.28943
▁researcher	-9.29034
▁explosion	-9.29221
▁relationship	-9.29222
▁attorney	-9.29227
▁avoid	-9.2924
▁rare	-9.29256
▁italy	-9.29341
▁manager	-9.29369
▁ran	-9.29411
▁relations	-9.29451
▁beat	-9.29619
oba	-9.29682
ern	-9.29867
▁employees	-9.29979
▁push	-9.30253
liban	-9.30298
▁present	-9.30383
▁association	-9.30451
▁lee	-9.30538
▁book	-9.30603
▁social	-9.30659
ka	-9.30966
according	-9.31049
yong	-9.31049
▁harr	-9.31092
▁driv	-9.31124
▁sentence	-9.31212
▁shows	-9.3128
▁describ	-9.3138
▁declar	-9.31409
▁reject	-9.31431
▁weather	-9.31432
▁limit	-9.31452
▁patient	-9.31462
▁ne	-9.31488
hi	-9.31514
li	-9.31679
▁sales	-9.31719
ner	-9.3183
pain	-9.31883
▁relat	-9.32249
▁gather	-9.3231
▁love	-9.32441
▁contact	-9.32554
▁kilometer	-9.32554
▁satellite	-9.32554
▁attention	-9.32554
▁royal	-9.32556
▁jail	-9.3256
▁common	-9.32565
▁independent	-9.32726
▁design	-9.3284
id	-9.3291
mo	-9.32929
▁bear	-9.3314
▁indian	-9.33143
▁asian	-9.33358
nois	-9.33359
x	-9.33449
ling	-9.33559
▁thing	-9.33683
▁rising	-9.33717
▁lack	-9.33728
▁model	-9.33741
▁camera	-9.3375
▁j	-9.33797
▁wear	-9.33816
▁tibetan	-9.33838
▁jon	-9.33855
ter	-9.33919
▁legal	-9.34271
▁van	-9.34412
night	-9.34421
▁contract	-9.34709
▁slow	-9.3479
▁famili	-9.34831
▁female	-9.3484
▁request	-9.3484
▁hostage	-9.34864
▁block	-9.34884
▁average	-9.34997
▁speed	-9.35096
ba	-9.35147
▁single	-9.35167
▁li	-9.35171
▁lo	-9.35208
▁provid	-9.35468
▁grand	-9.3553
cially	-9.35548
▁ice	-9.35552
▁gun	-9.35615
▁rescue	-9.35717
▁leav	-9.35841
ca	-9.35856
▁initial	-9.36047
▁pa	-9.36188
di	-9.36209
▁warning	-9.36256
▁ro	-9.36258
▁nav	-9.3643
▁sure	-9.36563
▁done	-9.36568
▁mo	-9.36781
▁screen	-9.37008
▁abo	-9.37124
▁illegal	-9.37179
▁afternoon	-9.3718
▁aircraft	-9.3719
▁brother	-9.37196
▁deput	-9.37197
▁southeast	-9.37201
▁somali	-9.37209
▁espe	-9.37226
▁spread	-9.37446
her	-9.37544
▁wor	-9.37931
▁moon	-9.38002
▁arab	-9.38348
▁helicopter	-9.38372
▁rally	-9.38404
▁normal	-9.38412
▁mail	-9.38462
▁tru	-9.38588
ell	-9.38698
▁jo	-9.38717
▁factor	-9.38721
▁mountain	-9.3884
▁drive	-9.3905
rought	-9.3908
▁continu	-9.39112
▁wen	-9.39311
ez	-9.39527
▁approach	-9.39575
▁response	-9.39575
▁credit	-9.39575
▁virginia	-9.39588
▁kosov	-9.39591
▁boat	-9.39602
▁torch	-9.39604
▁illi	-9.39668
ak	-9.397
▁critical	-9.39853
▁understand	-9.39857
▁ball	-9.39867
▁color	-9.39936
▁fast	-9.40019
▁passengers	-9.40175
▁guard	-9.40265
▁forest	-9.40323
▁ka	-9.40468
▁super	-9.40556
▁stage	-9.40829
rude	-9.40941
▁experience	-9.41088
tan	-9.41174
▁period	-9.41827
▁creat	-9.4186
▁themsel	-9.41915
▁bur	-9.41945
▁particular	-9.42029
▁quot	-9.42045
▁iranian	-9.42058
▁paper	-9.42069
▁investigator	-9.42201
▁drink	-9.42228
▁sold	-9.42312
▁challenge	-9.42473
▁colombian	-9.42473
▁australian	-9.42476
▁decided	-9.42871
▁friends	-9.42874
▁deep	-9.43001
▁professor	-9.4328
▁earthquake	-9.43286
▁trial	-9.43332
▁olympics	-9.43353
▁activities	-9.43391
▁insist	-9.43399
▁stopp	-9.43451
▁customer	-9.43552
▁nothing	-9.43639
da	-9.43716
his	-9.43808
▁doctors	-9.44047
▁store	-9.44277
▁ma	-9.4434
▁independen	-9.44358
▁christ	-9.44394
▁republic	-9.44457
▁warm	-9.44464
▁success	-9.44485
▁quarter	-9.44544
▁value	-9.44557
nt	-9.44747
▁commander	-9.44822
▁joint	-9.44907
▁accept	-9.44917
▁separate	-9.44978
▁labor	-9.45008
aba	-9.45295
▁ye	-9.45321
▁clean	-9.45384
ability	-9.45617
▁convict	-9.45727
▁!	-9.45827
▁english	-9.45827
▁prize	-9.4583
▁giant	-9.45835
▁club	-9.4585
▁significant	-9.45852
▁radio	-9.45855
▁wait	-9.45857
▁committ	-9.45866
▁prosecutor	-9.45876
▁michael	-9.45879
▁dr	-9.45898
over	-9.46034
▁winn	-9.46319
▁gate	-9.4635
▁details	-9.46484
last	-9.46593
▁terroris	-9.46642
stead	-9.46734
azir	-9.46841
▁kenya	-9.46846
▁remark	-9.46984
▁hop	-9.47078
▁exile	-9.47134
▁solution	-9.47138
▁born	-9.47299
▁bin	-9.47384
▁writ	-9.47758
▁broadcast	-9.47939
▁snow	-9.48001
▁holding	-9.48043
▁nor	-9.48217
▁sale	-9.48282
▁societ	-9.48449
ie	-9.48471
▁finish	-9.48473
▁negotiation	-9.48485
▁blue	-9.48531
▁jun	-9.48542
▁data	-9.48555
▁raise	-9.48705
▁planet	-9.48863
time	-9.49021
▁class	-9.49077
▁eu	-9.4919
▁georgia	-9.4948
▁rich	-9.4965
▁dropp	-9.49689
▁fly	-9.49719
▁opportunit	-9.49774
▁conflict	-9.49774
▁shiite	-9.49775
▁nepal	-9.49788
▁activist	-9.49788
▁necessar	-9.49888
▁spend	-9.49895
▁hu	-9.49957
▁jer	-9.49986
▁forward	-9.50051
ki	-9.50228
▁shooting	-9.50338
▁require	-9.50361
▁debate	-9.5037
▁produce	-9.50469
▁del	-9.50698
about	-9.50766
bc	-9.50777
▁supplie	-9.50888
▁sh	-9.50892
▁compar	-9.509
▁check	-9.51114
▁monitor	-9.51126
▁impact	-9.51127
▁dispute	-9.5113
▁actual	-9.51137
▁operat	-9.51142
▁zone	-9.51143
▁electric	-9.51145
▁respond	-9.51147
▁showing	-9.51206
▁eat	-9.5134
▁aim	-9.51344
▁sun	-9.51415
bei	-9.51636
pp	-9.51685
▁abuse	-9.51846
▁pai	-9.52219
▁secret	-9.52223
▁miss	-9.5238
ami	-9.52382
▁sa	-9.52478
▁condemn	-9.52496
▁criminal	-9.52496
▁learn	-9.52497
▁ambassador	-9.52499
▁beginning	-9.52502
▁increasing	-9.52504
▁electronic	-9.52504
▁resign	-9.52505
▁establish	-9.52509
▁peaceful	-9.52529
▁raid	-9.52547
▁giv	-9.52566
▁leg	-9.52598
▁et	-9.52621
▁investigat	-9.52718
▁mind	-9.5283
our	-9.52844
▁severe	-9.52985
▁rape	-9.53208
▁buil	-9.53246
▁vot	-9.53251
▁jobs	-9.53259
▁receive	-9.53297
▁fine	-9.53465
▁traffic	-9.53611
▁partie	-9.5375
▁represent	-9.53859
▁holiday	-9.53886
▁adult	-9.53893
▁investor	-9.5394
▁perve	-9.53987
▁range	-9.53991
▁worth	-9.54002
▁intend	-9.54014
▁actor	-9.54051
board	-9.54068
▁everyone	-9.54077
rote	-9.54094
▁cent	-9.54119
▁field	-9.54168
▁citizens	-9.54178
▁fill	-9.54238
win	-9.54314
▁farmer	-9.54606
▁surger	-9.54993
▁territor	-9.55105
▁institute	-9.55293
▁maintain	-9.55293
▁index	-9.553
do	-9.55419
▁terror	-9.55442
▁track	-9.55521
▁traditional	-9.5564
der	-9.55938
▁mile	-9.56036
▁annual	-9.56144
▁wing	-9.56295
iz	-9.56346
where	-9.56346
▁custod	-9.56722
▁iowa	-9.56722
▁relay	-9.56726
▁fair	-9.56738
▁supreme	-9.56739
▁francis	-9.5674
▁option	-9.56756
▁jet	-9.56813
▁od	-9.56859
▁page	-9.56882
▁po	-9.56907
▁span	-9.5695
▁cars	-9.5702
▁save	-9.57071
▁fil	-9.5709
▁deni	-9.57264
▁build	-9.57419
ho	-9.57478
clinton	-9.57529
▁pain	-9.57604
town	-9.57652
washington	-9.57788
body	-9.57797
▁venezuela	-9.57879
▁scor	-9.58109
▁responsibilit	-9.58171
▁defeat	-9.58171
▁difference	-9.58171
▁window	-9.58173
▁potential	-9.58173
▁choice	-9.58187
▁broad	-9.58277
▁double	-9.58288
▁hous	-9.58298
▁reform	-9.5836
▁sub	-9.58434
▁tax	-9.58607
▁honor	-9.5862
▁winner	-9.58697
▁highway	-9.58845
▁ii	-9.59228
earlie	-9.59259
ent	-9.59277
▁pre	-9.59285
▁arabia	-9.59351
▁author	-9.59418
▁mexic	-9.59595
ani	-9.59606
▁supply	-9.59641
▁michigan	-9.59641
▁jump	-9.59642
▁quake	-9.59643
▁sanction	-9.59643
▁sound	-9.59658
▁superdelegate	-9.59662
▁probabl	-9.59717
dur	-9.59766
ahoo	-9.59832
▁fish	-9.59883
▁agent	-9.60171
ko	-9.60273
▁ko	-9.60476
ha	-9.60512
▁finding	-9.6071
ana	-9.60821
▁peter	-9.60912
▁reduce	-9.61005
▁bombing	-9.61112
▁material	-9.61121
▁zimbabwe	-9.61129
▁software	-9.61134
▁assembl	-9.61134
▁singapore	-9.61166
▁announcement	-9.61179
▁education	-9.61183
▁usual	-9.61192
▁corp	-9.61253
▁forc	-9.61355
▁nam	-9.61465
▁sharp	-9.61685
gen	-9.61778
rt	-9.61821
ni	-9.62099
▁art	-9.62298
▁plu	-9.62598
▁college	-9.62649
▁prompt	-9.62649
▁soviet	-9.62649
▁route	-9.62675
lost	-9.62771
▁port	-9.62781
▁riot	-9.62796
ium	-9.62838
▁canno	-9.63121
▁fa	-9.63126
▁parliamentar	-9.63227
▁premier	-9.63408
▁promise	-9.63634
▁remains	-9.63806
▁training	-9.63821
▁indonesia	-9.63925
▁dis	-9.64067
▁meter	-9.64101
▁ha	-9.64111
▁italian	-9.64189
▁cancel	-9.64193
▁massive	-9.64216
▁sudan	-9.64223
▁else	-9.64238
▁adviser	-9.6425
berg	-9.64265
▁admitted	-9.64412
im	-9.64414
▁changes	-9.64479
▁holly	-9.64598
▁el	-9.64598
▁recover	-9.64636
▁beach	-9.6501
▁export	-9.6521
▁touch	-9.65361
▁produc	-9.65362
▁facilit	-9.65604
▁evening	-9.65722
all	-9.65729
▁progress	-9.6575
▁type	-9.65753
▁neighborhood	-9.65754
▁cruise	-9.65755
▁device	-9.65762
baki	-9.65764
▁communication	-9.65765
▁marriage	-9.65765
▁climat	-9.65766
▁standard	-9.65779
▁spear	-9.65804
▁bit	-9.65887
▁words	-9.65938
▁engineer	-9.66036
kk	-9.66156
▁contest	-9.6616
▁slight	-9.66564
▁huge	-9.6682
▁lad	-9.67231
▁bird	-9.67267
▁drop	-9.67316
▁assault	-9.67337
▁surprise	-9.67337
▁language	-9.67341
▁brazil	-9.67348
▁hearing	-9.6735
▁northeast	-9.6737
▁richard	-9.67409
▁worrie	-9.67415
▁protection	-9.67501
▁computers	-9.67591
▁original	-9.67609
▁hear	-9.67682
▁im	-9.67704
▁flights	-9.67777
▁male	-9.67896
▁guilt	-9.68154
▁gu	-9.68175
▁adding	-9.68291
mi	-9.68402
kept	-9.68434
▁islami	-9.68518
bon	-9.68575
▁euro	-9.68852
▁telephone	-9.6895
▁palace	-9.68951
▁reveal	-9.68951
▁presum	-9.68966
▁commercial	-9.6897
▁punish	-9.68972
▁code	-9.69018
▁piece	-9.69023
▁criticiz	-9.69023
▁unit	-9.69033
so	-9.69044
▁hama	-9.69419
▁violent	-9.69587
▁cast	-9.69895
▁writer	-9.70141
two	-9.70157
▁command	-9.70233
▁addition	-9.70355
▁hands	-9.70481
▁entire	-9.7059
▁voice	-9.70595
▁performance	-9.70604
▁firm	-9.70605
▁adopt	-9.70614
▁dress	-9.70634
▁cancer	-9.70662
▁mosco	-9.70684
▁pack	-9.70781
▁below	-9.70835
▁additional	-9.70835
▁card	-9.71138
▁doctor	-9.71312
▁quit	-9.7134
▁girls	-9.71373
▁wild	-9.71405
han	-9.71458
▁determine	-9.71639
▁di	-9.71776
▁controll	-9.71776
ul	-9.71816
rdon	-9.72055
▁owner	-9.7208
▁affair	-9.72256
▁corrupt	-9.72257
▁boycott	-9.72258
▁review	-9.72264
▁disaster	-9.7227
▁dangerous	-9.72271
▁alert	-9.72297
▁brain	-9.72298
▁bridge	-9.72318
▁hurt	-9.7232
▁che	-9.72425
▁eye	-9.72457
▁specific	-9.72517
ger	-9.72541
▁shown	-9.72628
▁shop	-9.7269
▁studie	-9.72772
▁convention	-9.72909
ol	-9.72911
diana	-9.73118
▁refugee	-9.73383
rai	-9.73473
▁affect	-9.73476
▁fighter	-9.73755
▁mil	-9.73932
ors	-9.73938
▁cabinet	-9.73953
▁qualit	-9.73955
▁allegation	-9.73956
▁agenci	-9.73963
▁management	-9.73967
lew	-9.73978
▁chica	-9.7402
▁appearance	-9.74025
▁extend	-9.74064
▁discussion	-9.74142
▁industrial	-9.74143
▁diplomatic	-9.74296
▁formal	-9.74332
▁mayor	-9.74349
▁affected	-9.74466
▁caucuse	-9.74584
ad	-9.74649
▁su	-9.75122
rs	-9.75147
▁ky	-9.75197
▁ali	-9.75226
ier	-9.75275
▁regime	-9.75667
▁example	-9.75675
▁magazine	-9.75675
▁virtual	-9.75675
▁style	-9.75678
▁cyclone	-9.75679
▁behavior	-9.7568
▁freedom	-9.75683
▁individual	-9.75699
▁investment	-9.75753
▁sometime	-9.75833
▁decline	-9.76122
▁tear	-9.76166
ler	-9.76172
▁bo	-9.76293
▁fears	-9.76523
▁rocket	-9.76638
▁ru	-9.76648
il	-9.76933
you	-9.76979
▁waste	-9.77039
▁nicol	-9.77228
aught	-9.77375
▁polic	-9.77402
▁wrong	-9.77414
▁headquarter	-9.7743
▁spirit	-9.7743
▁tournament	-9.7743
▁enjoy	-9.7743
▁resolution	-9.77437
▁fifth	-9.77447
▁import	-9.77503
▁weight	-9.77529
▁exit	-9.77577
▁struggl	-9.77599
▁seed	-9.77675
▁brief	-9.77698
now	-9.7789
v	-9.78
lo	-9.78062
▁questions	-9.78229
▁chang	-9.78601
▁val	-9.78668
▁spot	-9.78668
▁contests	-9.78686
ado	-9.78732
under	-9.7874
work	-9.78838
spread	-9.7884
ory	-9.78954
▁boost	-9.79047
▁bomber	-9.79141
▁abandon	-9.79215
▁frequent	-9.79215
▁straight	-9.79215
▁ticket	-9.79215
▁responsibl	-9.79216
▁medicine	-9.79217
▁complex	-9.79217
▁display	-9.79218
▁oscar	-9.79219
▁assistance	-9.79225
rizon	-9.79226
▁spark	-9.79231
▁regard	-9.79235
▁declaration	-9.7927
▁dark	-9.79299
▁dutch	-9.79313
▁repeated	-9.79638
▁trouble	-9.79704
nel	-9.79777
▁surrounding	-9.79786
▁fac	-9.79818
▁items	-9.79826
▁blam	-9.79915
▁rod	-9.80107
line	-9.80133
▁yu	-9.80265
▁kar	-9.80364
pol	-9.8037
authorit	-9.80651
▁constitution	-9.80725
▁sadd	-9.8075
▁environment	-9.80775
▁cap	-9.80819
▁senat	-9.80825
▁stone	-9.80851
▁elector	-9.80979
▁birth	-9.81012
▁zoo	-9.81019
▁alliance	-9.81034
▁failure	-9.81041
▁egypt	-9.81041
▁felt	-9.81059
▁demonstrator	-9.8106
▁hussein	-9.81066
▁science	-9.8108
▁koreans	-9.81325
▁venezuelan	-9.81419
▁kenyan	-9.81476
▁tough	-9.81608
▁uk	-9.81932
▁perform	-9.82016
huse	-9.82035
lief	-9.82117
tts	-9.82177
▁lake	-9.82239
ov	-9.8233
▁victim	-9.82343
ota	-9.82432
▁trail	-9.82459
▁self	-9.82685
▁witness	-9.82718
▁respect	-9.8285
▁resort	-9.82885
▁answer	-9.82886
▁fraud	-9.82887
▁nevad	-9.82887
▁kenne	-9.82893
▁hair	-9.82897
▁remov	-9.82906
▁referr	-9.82935
▁winter	-9.82939
chuan	-9.82943
▁feature	-9.82966
per	-9.82979
▁secure	-9.82993
▁dan	-9.8304
▁boss	-9.83083
ga	-9.83276
off	-9.83397
▁tie	-9.83408
▁propos	-9.83483
▁arrive	-9.83526
▁promis	-9.83568
▁determined	-9.83577
▁organizer	-9.83693
▁scale	-9.83722
ily	-9.83887
house	-9.83893
▁blame	-9.84075
▁bag	-9.84172
un	-9.84273
▁indicat	-9.84321
field	-9.84375
speak	-9.84389
president	-9.84396
▁drugs	-9.84533
▁massac	-9.8456
▁complain	-9.84585
▁smok	-9.84626
▁opinion	-9.84772
▁penalt	-9.84773
▁orbit	-9.84775
▁rapid	-9.84776
▁queen	-9.84785
▁extreme	-9.84794
▁kick	-9.84798
▁assassination	-9.84811
▁baby	-9.84834
▁describe	-9.8487
ph	-9.84886
▁shut	-9.8491
▁apartment	-9.84969
▁auction	-9.84993
tra	-9.84998
ate	-9.85064
▁pictures	-9.85096
har	-9.85129
▁sentenc	-9.85157
▁cold	-9.85269
▁demonstrations	-9.85384
▁da	-9.85447
▁climb	-9.85584
▁collapse	-9.85635
▁seiz	-9.85732
▁ji	-9.85739
▁farm	-9.85819
▁jame	-9.85869
▁runner	-9.85916
▁rat	-9.86041
▁allie	-9.86272
▁citizen	-9.863
space	-9.86313
tic	-9.86356
mean	-9.86365
▁politic	-9.86407
since	-9.86449
ated	-9.86484
▁remove	-9.8652
alem	-9.86592
▁locat	-9.86621
▁character	-9.86668
even	-9.86686
▁destructi	-9.86695
▁equipment	-9.86695
▁peninsula	-9.86695
▁resource	-9.86695
▁practice	-9.86695
▁ocean	-9.86696
▁session	-9.86697
▁malik	-9.86701
▁content	-9.86702
▁disney	-9.8671
▁crucial	-9.86716
▁twic	-9.86718
▁exist	-9.86733
▁leban	-9.86745
bel	-9.86798
▁dala	-9.86802
▁culture	-9.86803
▁proposal	-9.86842
▁rough	-9.86846
▁row	-9.86946
▁user	-9.86953
▁memor	-9.87162
aks	-9.87274
▁earn	-9.87399
▁resolve	-9.87455
▁ensure	-9.87478
▁rail	-9.87522
▁gov	-9.87617
zza	-9.87717
▁dog	-9.87889
▁photograph	-9.88009
▁flow	-9.88072
what	-9.88277
▁reserve	-9.88296
za	-9.88299
▁picture	-9.88322
▁license	-9.88333
▁wave	-9.88436
▁ring	-9.88596
▁bombings	-9.88607
▁journal	-9.88642
▁dvd	-9.88656
▁influence	-9.88659
▁regular	-9.8866
▁floor	-9.88661
▁vow	-9.88669
▁famous	-9.88675
▁setting	-9.88675
▁possibilit	-9.8868
▁christian	-9.88683
▁ronald	-9.88692
▁sadr	-9.88727
▁madrid	-9.88744
▁active	-9.88752
▁powerful	-9.88755
like	-9.88779
▁sky	-9.88866
▁lama	-9.8889
▁advance	-9.88916
▁stoo	-9.89169
▁mar	-9.89218
▁improve	-9.89368
▁tin	-9.89376
▁steps	-9.89376
▁terms	-9.89384
▁yang	-9.89428
▁names	-9.89914
▁inc	-9.90014
led	-9.90069
▁plot	-9.90372
▁cuba	-9.9053
ious	-9.90549
▁door	-9.90636
▁competition	-9.90656
▁representative	-9.90659
cal	-9.90661
▁modern	-9.90668
▁coach	-9.9067
▁cash	-9.90673
▁conservative	-9.90677
▁governor	-9.9068
▁shift	-9.90709
▁survivor	-9.90796
▁km	-9.90845
▁trust	-9.90952
▁score	-9.90983
ptive	-9.91006
▁works	-9.91052
ud	-9.91109
▁champions	-9.9113
▁bann	-9.91149
▁net	-9.91201
▁stake	-9.91287
▁career	-9.91292
▁pc	-9.91369
▁word	-9.91529
▁nasa	-9.91546
▁imposed	-9.91634
western	-9.91793
▁involve	-9.91817
rew	-9.91872
▁employ	-9.91933
can	-9.91935
▁schools	-9.92125
▁makes	-9.92132
▁declin	-9.92174
▁northwest	-9.92208
ester	-9.92294
▁historic	-9.9235
back	-9.92412
▁speci	-9.9243
▁song	-9.92458
▁pledg	-9.92459
hire	-9.92552
▁indiana	-9.92668
▁advertis	-9.92694
▁error	-9.92697
▁perfect	-9.92697
▁sheriff	-9.92697
▁trigger	-9.92697
▁register	-9.92697
▁shuttle	-9.92697
▁domestic	-9.92697
▁ukrain	-9.92699
▁combat	-9.92703
▁studio	-9.9271
▁pump	-9.92713
▁fellow	-9.92724
▁mount	-9.92746
▁taiwan	-9.92749
▁amount	-9.92783
▁location	-9.92807
▁delivery	-9.92828
▁khan	-9.9288
▁activit	-9.9289
▁theater	-9.9289
▁sense	-9.93103
▁jose	-9.9313
of	-9.93188
▁williams	-9.9319
▁box	-9.93422
tion	-9.93542
▁tensions	-9.93769
▁wind	-9.94105
ches	-9.94156
right	-9.94273
construction	-9.94441
▁tight	-9.94496
▁academ	-9.94558
▁flag	-9.94585
▁prepared	-9.94684
▁rom	-9.94707
▁happy	-9.9478
▁louis	-9.94781
▁stadium	-9.94781
▁positive	-9.94781
▁division	-9.94791
▁ethnic	-9.94793
gun	-9.94812
▁halt	-9.94828
▁physical	-9.94841
▁effective	-9.94849
▁violation	-9.94851
▁mike	-9.94882
▁indicate	-9.9503
oil	-9.95036
▁han	-9.95134
ond	-9.95147
▁abbas	-9.95398
▁mine	-9.95526
▁smoke	-9.9554
iro	-9.95599
▁edge	-9.95723
pped	-9.9596
aro	-9.96474
chi	-9.96531
rack	-9.96653
▁whole	-9.96698
▁tens	-9.96763
▁chad	-9.96794
▁favor	-9.96818
▁equal	-9.96841
▁dialogue	-9.96908
▁magnitude	-9.96908
▁condole	-9.96908
▁blow	-9.9695
▁teacher	-9.96996
▁canad	-9.97077
sburg	-9.97078
▁era	-9.97093
▁movies	-9.97126
▁marri	-9.97297
▁hole	-9.97393
▁announce	-9.9762
ap	-9.97944
▁teen	-9.98078
▁pacifi	-9.98093
▁producer	-9.98249
▁standing	-9.98455
▁critic	-9.98528
ari	-9.98548
▁easi	-9.98557
▁god	-9.98849
▁agricultur	-9.99082
▁catholic	-9.99082
▁explod	-9.99082
▁shock	-9.99082
▁surface	-9.99083
▁narrow	-9.99083
▁various	-9.99085
▁canadian	-9.99093
▁portug	-9.99107
▁successful	-9.99107
▁enem	-9.99112
▁sleep	-9.9913
▁generation	-9.99135
▁eventual	-9.99138
▁version	-9.99138
▁execution	-9.99146
▁replace	-9.99181
▁hall	-9.99235
▁globe	-9.99282
wa	-9.99371
▁presen	-9.9945
▁lose	-9.99621
ence	-9.99924
▁minor	-10.0002
▁guards	-10.0012
▁carrier	-10.0014
▁tall	-10.0024
ru	-10.0024
▁tape	-10.0027
▁dam	-10.007
j	-10.0078
angi	-10.009
▁ca	-10.0106
hai	-10.0112
▁object	-10.0115
ire	-10.0117
▁mis	-10.0118
oline	-10.0118
▁simpl	-10.0119
▁predict	-10.0124
▁militia	-10.013
▁pirate	-10.0133
▁doubt	-10.0134
▁transfer	-10.0135
▁columbia	-10.0136
▁wake	-10.0137
▁shortage	-10.0139
▁guest	-10.014
china	-10.0143
ribal	-10.0146
▁roh	-10.0146
▁basic	-10.0149
▁partner	-10.0156
▁witnesses	-10.0157
▁brand	-10.0159
▁dogs	-10.0176
ities	-10.0189
▁prisoner	-10.0208
▁roads	-10.0238
▁wood	-10.0242
▁counter	-10.0243
▁southwest	-10.0245
▁chose	-10.0246
ah	-10.025
▁phones	-10.0263
▁forecast	-10.0268
ville	-10.0274
ja	-10.0275
cha	-10.0275
▁zealand	-10.029
▁dut	-10.0308
▁traveler	-10.0327
▁fit	-10.0327
▁syria	-10.0328
▁enforce	-10.0335
ck	-10.0337
▁attract	-10.0345
▁damag	-10.0345
▁extra	-10.035
▁feder	-10.0356
▁dismiss	-10.0358
▁margin	-10.0358
▁obtain	-10.0358
▁remote	-10.0358
▁sponsor	-10.0358
▁suburb	-10.0358
▁audience	-10.0358
▁shelter	-10.0358
▁actress	-10.0358
▁alaska	-10.0358
▁edward	-10.0358
▁huck	-10.0359
▁criticism	-10.0359
▁mohamm	-10.036
▁fresh	-10.0361
▁bangladesh	-10.0363
▁heavi	-10.0363
▁split	-10.0366
▁thank	-10.0368
▁task	-10.037
▁mont	-10.0376
▁tom	-10.0393
▁metal	-10.0399
light	-10.0414
tar	-10.0425
▁stores	-10.0444
▁capture	-10.0461
ze	-10.0464
▁heat	-10.0472
▁crop	-10.0477
que	-10.0479
cia	-10.0501
table	-10.0515
▁gar	-10.0517
▁artist	-10.052
suu	-10.0523
▁restaurants	-10.0527
not	-10.0529
drew	-10.0545
▁entertain	-10.0556
▁decide	-10.056
▁serbia	-10.0566
nivers	-10.057
▁sp	-10.0581
▁hamp	-10.0584
▁danger	-10.0589
▁profile	-10.059
▁temporar	-10.059
▁virus	-10.0591
▁panel	-10.0592
▁festival	-10.0593
▁outbreak	-10.0593
▁prove	-10.0597
▁casualt	-10.0601
▁connection	-10.0603
▁flame	-10.0605
▁catch	-10.0612
▁martin	-10.0615
dney	-10.0617
▁percentage	-10.0633
▁hug	-10.0651
▁bang	-10.0657
▁legislat	-10.0658
▁brun	-10.0665
▁band	-10.0686
▁princes	-10.0687
▁il	-10.0693
ny	-10.0693
ina	-10.0726
▁propert	-10.0736
ft	-10.074
cer	-10.0748
▁arms	-10.0752
▁revolutionar	-10.0755
known	-10.0799
ept	-10.0803
well	-10.0807
▁pr	-10.0823
▁coffee	-10.0828
▁disappoint	-10.0828
▁subject	-10.0828
▁dream	-10.0828
▁pilot	-10.0828
▁bottle	-10.0828
▁kingdom	-10.0829
▁opponent	-10.083
▁proud	-10.083
▁breath	-10.083
▁machine	-10.0831
▁restriction	-10.0838
▁winds	-10.0855
▁cave	-10.0859
ual	-10.0859
▁systems	-10.0861
▁withdraw	-10.0862
▁inform	-10.087
▁hung	-10.0875
che	-10.088
▁har	-10.0884
▁relative	-10.0886
▁signal	-10.0911
▁du	-10.0926
lor	-10.0928
▁jur	-10.0933
▁fled	-10.0962
▁barr	-10.0967
vili	-10.0972
▁manufactur	-10.0995
▁lady	-10.0997
▁suit	-10.1007
▁provinc	-10.101
▁finance	-10.1041
▁mad	-10.1043
▁erupt	-10.1064
▁robot	-10.1068
cient	-10.107
▁colleague	-10.1072
▁vietnam	-10.1072
▁devastat	-10.1072
▁capacit	-10.1072
▁plastic	-10.1072
▁exhibit	-10.1073
▁maryland	-10.1073
▁assistant	-10.1073
▁athlete	-10.1074
▁religious	-10.1074
▁genetic	-10.1074
▁vitamin	-10.1075
▁philippine	-10.1075
▁sector	-10.1076
▁x	-10.1078
let	-10.1078
▁abdulla	-10.108
▁frank	-10.1081
▁pose	-10.1087
▁weaken	-10.1091
▁cow	-10.1094
▁sister	-10.11
▁soar	-10.1103
▁organiz	-10.1108
tt	-10.1114
sh	-10.1117
▁offering	-10.1119
▁whale	-10.1125
▁vessel	-10.1135
▁defend	-10.1137
▁restaurant	-10.114
▁youth	-10.1149
▁path	-10.115
▁sports	-10.1175
haps	-10.1178
▁welcome	-10.1183
▁faye	-10.1197
▁surviv	-10.1216
ff	-10.1258
▁multi	-10.1289
▁schedule	-10.132
▁client	-10.1322
▁ecuador	-10.1322
▁exact	-10.1322
▁temperature	-10.1322
▁channel	-10.1322
▁ballot	-10.1322
▁sweet	-10.1322
▁boyfriend	-10.1322
▁nadal	-10.1322
▁degree	-10.1323
▁celebrit	-10.1324
▁atmospher	-10.1324
▁commitment	-10.1324
▁sunni	-10.1324
▁label	-10.1325
▁remember	-10.1327
▁tsv	-10.1328
▁campus	-10.1329
▁insurgent	-10.1331
ntagon	-10.1331
▁teenager	-10.1333
▁profit	-10.1334
▁loan	-10.1341
▁choose	-10.1346
▁easy	-10.1352
▁pledge	-10.1352
▁ten	-10.1361
▁buri	-10.1365
▁gay	-10.1373
▁duba	-10.1378
▁divers	-10.1385
▁painting	-10.1392
▁chi	-10.1396
▁ray	-10.1401
me	-10.1401
▁benefit	-10.1402
▁probe	-10.1404
▁encourage	-10.1409
ab	-10.141
los	-10.1413
▁singer	-10.1418
ev	-10.1419
▁notice	-10.1423
attle	-10.1425
▁symbol	-10.1438
▁bay	-10.1446
bar	-10.1461
▁print	-10.1526
▁possibl	-10.1531
mph	-10.1541
▁confiden	-10.156
▁ri	-10.1561
iana	-10.1567
ke	-10.1568
▁table	-10.1569
▁connect	-10.1572
▁convoy	-10.1579
▁purpose	-10.1579
▁stretch	-10.1579
▁emission	-10.1579
▁separatist	-10.1579
▁ceo	-10.1581
▁charit	-10.1582
▁runoff	-10.1583
▁daniel	-10.1584
▁rush	-10.1586
▁exercise	-10.1588
▁afford	-10.159
▁calm	-10.1592
▁mouth	-10.1592
jo	-10.1593
▁structure	-10.1594
▁bright	-10.1594
▁hang	-10.1596
▁complaint	-10.1604
▁recognize	-10.1614
▁foundation	-10.1619
gh	-10.1621
▁carrie	-10.1622
overall	-10.1628
jad	-10.1636
▁cable	-10.1639
▁chain	-10.1649
ical	-10.1656
▁putt	-10.1657
▁delegate	-10.168
▁charg	-10.1684
▁pott	-10.1692
▁hill	-10.17
▁mars	-10.1704
▁bombers	-10.1706
erson	-10.1715
ure	-10.1715
aid	-10.1724
▁cultur	-10.1725
▁closer	-10.1734
▁accepted	-10.1764
▁acknowledg	-10.177
▁id	-10.1775
mon	-10.1777
ified	-10.1779
▁mor	-10.1784
ino	-10.179
▁prepar	-10.1794
people	-10.1804
▁hot	-10.1806
bush	-10.1807
▁pursu	-10.1809
among	-10.1809
▁malaysia	-10.1812
▁roll	-10.1838
▁alcohol	-10.1838
▁jew	-10.1842
▁advantage	-10.1842
▁chemical	-10.1842
▁identify	-10.1842
▁pregnant	-10.1842
▁recession	-10.1842
▁strategy	-10.1842
▁hawaii	-10.1842
▁wildlife	-10.1842
▁illness	-10.1843
▁enrich	-10.1843
▁numer	-10.1844
▁resume	-10.1844
ix	-10.1845
▁roman	-10.1846
▁delta	-10.1846
▁peak	-10.1846
▁te	-10.1847
▁neck	-10.1847
▁highlight	-10.1849
▁qu	-10.1856
▁mix	-10.1856
ean	-10.187
▁flu	-10.1873
mont	-10.1879
▁internal	-10.1879
▁fo	-10.1886
▁package	-10.1909
▁organ	-10.1916
▁invit	-10.1931
▁escap	-10.1934
▁survive	-10.1942
▁bone	-10.1954
▁glass	-10.1956
min	-10.1962
▁skin	-10.1964
lie	-10.197
▁liver	-10.1978
▁rank	-10.2
▁statu	-10.2004
▁osa	-10.2026
▁sw	-10.2031
▁ski	-10.2038
▁diplomat	-10.2066
▁manch	-10.2071
baghdad	-10.2074
▁books	-10.2079
▁struggle	-10.2086
▁lay	-10.209
▁presiden	-10.2099
▁detect	-10.2101
▁diamond	-10.2112
▁temple	-10.2114
▁knee	-10.2114
▁birthday	-10.2115
▁dramatic	-10.2116
au	-10.2121
▁accuse	-10.2126
▁santa	-10.2131
▁chile	-10.2131
▁founder	-10.2139
▁stepp	-10.2144
▁wi	-10.2148
▁belong	-10.2152
▁arrival	-10.2154
▁hospitaliz	-10.2155
ican	-10.216
▁spring	-10.2163
▁dub	-10.2171
▁mobil	-10.2188
▁photos	-10.2189
▁evacuat	-10.2207
▁provinces	-10.2211
▁speaker	-10.2211
▁col	-10.2235
▁isolat	-10.2241
▁gang	-10.2247
▁restore	-10.2248
▁par	-10.2253
▁participate	-10.2269
▁clashe	-10.2297
▁patrol	-10.2336
▁engine	-10.2345
pool	-10.2351
fall	-10.2355
▁steve	-10.2365
surance	-10.2374
▁disappear	-10.2389
▁landslide	-10.239
▁mahmoud	-10.239
▁urban	-10.239
▁unveil	-10.239
▁outrage	-10.239
▁rallie	-10.239
▁sustain	-10.239
▁dump	-10.239
▁motor	-10.239
▁serving	-10.239
▁regulation	-10.2391
▁acre	-10.2391
▁detonat	-10.2391
▁alternative	-10.2392
▁select	-10.2392
▁hunt	-10.2392
▁throw	-10.2392
▁arsenal	-10.2393
▁urani	-10.2394
▁extremist	-10.2395
▁simple	-10.2396
▁wonder	-10.2399
▁lung	-10.2401
▁banks	-10.2407
▁strengthen	-10.2413
put	-10.2421
▁laho	-10.2423
▁peru	-10.2437
▁constitutional	-10.2443
▁maker	-10.2446
pe	-10.2447
▁violat	-10.2459
ex	-10.2464
▁meh	-10.2466
▁fatal	-10.248
▁mart	-10.2485
▁yi	-10.2486
▁beck	-10.2508
▁expand	-10.2524
▁detail	-10.2533
▁passenger	-10.2534
con	-10.2542
putin	-10.2547
ensive	-10.2549
▁eyes	-10.2551
▁lu	-10.2553
▁lin	-10.2553
▁olme	-10.2565
▁feeling	-10.2566
▁aide	-10.2569
ella	-10.2592
dev	-10.2604
▁asp	-10.2618
▁matche	-10.2633
islam	-10.2637
organ	-10.2637
mccain	-10.2637
japan	-10.2637
book	-10.2638
water	-10.264
ren	-10.2641
▁promote	-10.2644
both	-10.2648
▁si	-10.2657
omic	-10.2668
▁infect	-10.2668
ir	-10.267
▁astronaut	-10.2676
▁compound	-10.2676
▁quiet	-10.2676
▁reconciliation	-10.2676
▁succeed	-10.2676
▁vladimir	-10.2676
▁sudden	-10.2676
▁faith	-10.2676
▁scandal	-10.2676
▁babies	-10.2676
▁technical	-10.2676
itarian	-10.2676
▁technique	-10.2676
▁lawsuit	-10.2676
▁knowledge	-10.2676
▁editor	-10.2676
▁assessment	-10.2676
▁bullet	-10.2677
▁cheap	-10.2677
▁recall	-10.2678
▁lanka	-10.268
▁apple	-10.2681
acco	-10.2681
▁lock	-10.2683
▁palm	-10.2687
▁tiger	-10.269
▁unlike	-10.2693
rome	-10.2701
▁angr	-10.2708
▁twin	-10.2717
▁explosives	-10.2719
robi	-10.2725
▁beef	-10.2735
ribe	-10.2756
▁donor	-10.2764
▁ab	-10.2775
▁pho	-10.2777
iya	-10.2794
have	-10.2797
ward	-10.2802
▁cor	-10.2808
▁reading	-10.2811
war	-10.2814
▁merc	-10.2819
▁surge	-10.2827
enko	-10.284
istic	-10.2852
▁escape	-10.2868
▁min	-10.2877
▁relatives	-10.2903
ize	-10.2912
▁landing	-10.2922
po	-10.2941
witz	-10.2945
▁thanks	-10.2952
▁currenc	-10.297
▁convince	-10.297
▁delegation	-10.297
▁length	-10.297
▁routine	-10.297
▁striking	-10.297
▁unusual	-10.297
▁creature	-10.2971
▁explain	-10.2971
bus	-10.2973
▁distance	-10.2973
precedent	-10.2974
▁preliminar	-10.2974
gone	-10.2975
▁strain	-10.2975
▁gallon	-10.2975
▁section	-10.2975
▁boom	-10.2979
ground	-10.2983
▁switch	-10.2986
▁offender	-10.299
▁meat	-10.3001
▁shoe	-10.3002
▁plate	-10.3002
live	-10.3003
▁complicat	-10.3005
▁cal	-10.301
▁abu	-10.3011
▁wins	-10.3036
▁ark	-10.3048
htt	-10.3062
▁ti	-10.3076
▁cons	-10.3076
red	-10.3086
dari	-10.3086
rah	-10.3108
ang	-10.3108
▁sit	-10.3112
▁mate	-10.3119
king	-10.3122
▁cb	-10.3122
▁pet	-10.3169
▁moo	-10.3175
lanta	-10.3176
▁ram	-10.3198
▁sport	-10.3208
▁politicians	-10.3208
these	-10.3214
beth	-10.3218
▁freed	-10.323
court	-10.3235
four	-10.3241
▁intens	-10.3247
cu	-10.3257
▁settle	-10.327
▁maxim	-10.3272
▁budget	-10.3273
▁divorce	-10.3273
▁reflect	-10.3273
▁invasion	-10.3273
▁method	-10.3273
▁desert	-10.3273
▁salmon	-10.3273
▁jungle	-10.3274
▁income	-10.3274
▁evolution	-10.3275
▁yard	-10.3275
▁controversial	-10.3276
▁volcano	-10.3276
▁coup	-10.3276
▁assist	-10.3276
▁marked	-10.3277
▁charles	-10.3278
▁yemen	-10.3278
▁typical	-10.3278
▁barcelon	-10.3278
▁smith	-10.3278
▁reaction	-10.3279
▁worry	-10.328
▁professional	-10.328
▁defendant	-10.3281
▁corner	-10.3282
▁bond	-10.3285
▁fat	-10.3286
▁squad	-10.3287
▁sort	-10.3288
▁pitt	-10.3294
▁inflation	-10.3296
▁skill	-10.3301
▁sam	-10.3307
▁stag	-10.3319
▁cheer	-10.3344
▁wal	-10.3356
▁sri	-10.3367
▁compete	-10.338
▁rome	-10.3386
▁beating	-10.3387
▁listen	-10.3388
ig	-10.3389
▁clon	-10.3396
arachi	-10.3398
▁nur	-10.3417
▁engag	-10.3429
bed	-10.3433
▁harm	-10.3444
▁benefits	-10.3487
ture	-10.3532
tube	-10.3548
just	-10.3562
▁replac	-10.3568
▁knock	-10.358
▁tank	-10.3581
▁govern	-10.3581
▁conversation	-10.3585
▁revenue	-10.3585
▁function	-10.3585
▁vacation	-10.3585
▁hindu	-10.3586
▁trend	-10.3586
▁variet	-10.3586
▁favorite	-10.3586
▁fashion	-10.3587
▁expensive	-10.3587
▁edition	-10.3588
▁stole	-10.3588
▁prett	-10.3588
llah	-10.3589
▁football	-10.3589
▁reactor	-10.359
▁monk	-10.359
▁asset	-10.359
▁castro	-10.3591
ippi	-10.3593
▁wealth	-10.3593
▁economist	-10.3595
▁jack	-10.3595
erdog	-10.3595
▁vast	-10.3597
▁digital	-10.3602
▁shore	-10.3609
▁coordinat	-10.3615
▁zar	-10.3615
▁oppos	-10.3617
▁shang	-10.3618
▁renew	-10.362
▁trapped	-10.3625
ac	-10.3627
▁pair	-10.3634
▁wa	-10.3635
af	-10.3637
lin	-10.3639
▁wage	-10.365
vi	-10.365
▁handle	-10.3655
▁ei	-10.3657
▁tee	-10.366
vic	-10.3678
▁guide	-10.3683
▁pushing	-10.3684
▁gree	-10.369
▁tire	-10.3693
▁bak	-10.3728
▁lie	-10.3746
▁waters	-10.375
▁requir	-10.3756
▁restor	-10.3756
▁spy	-10.3759
▁captur	-10.3764
ge	-10.377
▁hol	-10.3772
▁fed	-10.3772
▁improv	-10.3784
▁attacker	-10.3785
▁argentin	-10.38
▁demonstration	-10.3805
▁associate	-10.3807
▁investigate	-10.3809
▁rang	-10.3812
▁hat	-10.3816
▁inch	-10.3817
nature	-10.3824
▁pu	-10.3833
▁lind	-10.3838
▁foreigner	-10.3869
seas	-10.3885
▁restrict	-10.3895
▁nominat	-10.3902
▁anonym	-10.3906
▁categor	-10.3908
▁aftershock	-10.3908
▁convert	-10.3908
▁dissident	-10.3908
▁pilgrim	-10.3908
▁captain	-10.3908
▁identit	-10.3908
▁sheikh	-10.3908
▁cartoon	-10.3908
▁bull	-10.3908
▁await	-10.3908
▁gulf	-10.3909
▁oust	-10.3909
akash	-10.3909
▁championship	-10.3909
▁flee	-10.391
▁egyptian	-10.391
▁glacier	-10.391
▁inspector	-10.3911
▁cool	-10.3912
▁innocent	-10.3912
▁unclea	-10.3913
▁settlement	-10.3914
▁celebrat	-10.3916
▁firefighter	-10.3923
▁shark	-10.3924
▁withdrawal	-10.3928
▁fin	-10.3929
▁kidnapping	-10.393
▁ride	-10.3931
▁cafe	-10.3932
▁laurea	-10.3938
ech	-10.3946
▁gap	-10.3948
▁overwhelming	-10.3949
▁ya	-10.3952
den	-10.3956
▁institution	-10.3956
▁mal	-10.396
▁scar	-10.397
▁vat	-10.3973
▁anger	-10.3975
▁lt	-10.3975
▁authoriz	-10.3981
▁ku	-10.3984
hattan	-10.3985
ci	-10.3985
▁hero	-10.3991
▁gathering	-10.4004
ural	-10.4005
▁rescuer	-10.4005
▁ok	-10.4013
ax	-10.4022
amid	-10.403
▁shape	-10.403
▁sons	-10.4042
ions	-10.405
▁participat	-10.405
▁wis	-10.4052
▁ways	-10.4052
ral	-10.4053
cut	-10.4057
▁stress	-10.406
▁balance	-10.4067
athrow	-10.4075
▁wish	-10.4082
lain	-10.4092
▁issu	-10.4095
▁clo	-10.4095
▁gunm	-10.4095
▁petr	-10.4112
▁threats	-10.4113
▁diet	-10.4127
▁manag	-10.4127
▁mc	-10.4135
stein	-10.4137
ants	-10.4138
▁mistake	-10.4147
▁au	-10.4148
▁weapon	-10.4151
▁je	-10.4155
ow	-10.416
eath	-10.416
▁depend	-10.4168
em	-10.4173
▁photo	-10.418
ending	-10.4194
ef	-10.4196
prime	-10.4203
still	-10.4205
▁strength	-10.4213
ver	-10.4222
van	-10.4224
▁mur	-10.4228
▁scot	-10.4229
▁except	-10.4232
▁buddhist	-10.4241
▁envoy	-10.4241
▁muscle	-10.4241
▁scientific	-10.4241
▁surveill	-10.4241
▁venue	-10.4241
▁permanent	-10.4241
▁monarch	-10.4241
▁sweep	-10.4241
mate	-10.4241
▁toxic	-10.4241
▁wedding	-10.4242
▁shopping	-10.4242
▁dinner	-10.4242
▁loyal	-10.4243
▁priva	-10.4243
▁lord	-10.4243
▁elder	-10.4243
▁debt	-10.4246
▁blaze	-10.4246
▁strict	-10.4246
▁trader	-10.4247
▁deadline	-10.4247
▁frame	-10.4248
▁negotiator	-10.4248
▁corporation	-10.4248
▁memorial	-10.4249
▁collection	-10.425
▁pattern	-10.425
▁master	-10.4251
▁fortune	-10.4252
ord	-10.4252
▁slipp	-10.4253
once	-10.4255
▁native	-10.4262
▁iron	-10.4266
▁via	-10.427
ira	-10.4277
▁tend	-10.428
▁wine	-10.4291
▁crossing	-10.4297
fare	-10.4301
▁cuban	-10.4303
▁debut	-10.4306
kok	-10.4308
sey	-10.4311
▁dominat	-10.4316
▁ja	-10.4317
▁ni	-10.4321
harto	-10.4326
indi	-10.4349
▁negotiate	-10.4361
▁tob	-10.4398
▁battl	-10.4404
▁aware	-10.4405
▁shoot	-10.4409
▁lewi	-10.4419
▁bell	-10.442
agan	-10.4431
▁taxe	-10.4436
▁haven	-10.444
▁priorit	-10.4446
nix	-10.4475
ization	-10.4487
▁ahmad	-10.4491
lu	-10.4497
▁champion	-10.4505
▁file	-10.451
him	-10.4512
▁stands	-10.4522
▁overcom	-10.4529
air	-10.453
▁cloth	-10.4546
north	-10.4548
▁retir	-10.4551
south	-10.4551
▁soc	-10.4565
▁collect	-10.4567
hud	-10.4568
▁tech	-10.457
▁declare	-10.4582
▁mer	-10.4583
▁holy	-10.4584
▁detention	-10.4586
▁guarantee	-10.4586
▁journey	-10.4586
▁transplant	-10.4586
▁vaccine	-10.4586
▁concert	-10.4586
▁libert	-10.4586
▁ordinar	-10.4586
▁girlfriend	-10.4586
▁luxur	-10.4586
▁toilet	-10.4586
▁reduction	-10.4587
▁reference	-10.4587
▁disappearance	-10.4588
▁mississ	-10.4588
▁michel	-10.459
▁ultimate	-10.4591
▁familiar	-10.4592
▁cd	-10.46
▁storie	-10.46
▁grave	-10.4602
hran	-10.4605
▁reduc	-10.4616
▁serbian	-10.4631
▁musical	-10.4638
▁truth	-10.4638
▁pol	-10.4643
sul	-10.4648
▁prop	-10.4656
wi	-10.4659
▁runway	-10.4672
▁anna	-10.4678
▁maria	-10.468
▁acknowledge	-10.4683
▁emerged	-10.4701
opec	-10.4702
ago	-10.471
▁cult	-10.4724
▁heads	-10.4726
▁stalin	-10.4727
▁proper	-10.4742
▁ease	-10.4744
▁rep	-10.4754
erland	-10.4762
tor	-10.4764
▁bound	-10.4769
▁cooperati	-10.4776
▁br	-10.48
ement	-10.4805
nc	-10.4806
cher	-10.4816
▁chao	-10.482
▁stem	-10.4837
je	-10.4838
ast	-10.4839
▁recommend	-10.4858
▁v	-10.4858
▁landed	-10.4859
▁kiss	-10.4869
▁operate	-10.4871
look	-10.4893
▁expos	-10.4898
broad	-10.4905
paris	-10.4905
fire	-10.491
▁celebrate	-10.4921
car	-10.4921
▁weigh	-10.4926
▁sch	-10.493
▁boe	-10.4933
▁deploy	-10.4939
▁drama	-10.4942
va	-10.4943
▁crocodile	-10.4943
▁experiment	-10.4943
▁mortgage	-10.4943
▁anticipat	-10.4943
▁circumstance	-10.4943
▁emirate	-10.4943
▁cleric	-10.4943
▁thomas	-10.4944
▁inquest	-10.4944
▁monkey	-10.4944
▁mccorm	-10.4944
▁technologi	-10.4946
aw	-10.4946
▁endorsement	-10.4946
▁ibm	-10.4947
▁wireless	-10.4947
▁vega	-10.4947
▁auto	-10.4947
▁fix	-10.4948
▁kuwait	-10.4949
▁garden	-10.4956
▁ag	-10.4958
▁medal	-10.496
▁fox	-10.496
stone	-10.4966
gi	-10.4972
aq	-10.4972
▁cargo	-10.4979
▁kidnapped	-10.498
▁copy	-10.4983
▁corporat	-10.4984
ku	-10.4985
▁ear	-10.4993
viel	-10.4997
▁hide	-10.5
row	-10.5013
col	-10.5016
ank	-10.5024
▁historical	-10.5039
▁striker	-10.5045
▁string	-10.5067
sus	-10.5076
▁shots	-10.5084
▁entering	-10.5089
▁feed	-10.5093
▁shin	-10.5096
▁conclud	-10.5096
lein	-10.511
bu	-10.512
nai	-10.5124
▁op	-10.5128
▁ire	-10.5138
▁cru	-10.5146
olar	-10.5152
▁cre	-10.5162
ansa	-10.5167
▁viewer	-10.5167
ib	-10.5171
▁ch	-10.5177
▁guy	-10.5189
keeper	-10.52
lee	-10.5203
▁recovery	-10.5206
▁abus	-10.5212
mer	-10.5217
former	-10.5218
▁gene	-10.5234
▁jim	-10.524
▁purchase	-10.5241
▁pleas	-10.5248
fur	-10.5249
enna	-10.5258
▁explosive	-10.5258
wise	-10.5274
cent	-10.5275
▁divid	-10.5277
▁laws	-10.5279
du	-10.5279
▁worse	-10.5294
▁execut	-10.5301
▁dai	-10.5305
▁consult	-10.5307
▁pos	-10.531
▁bureau	-10.5313
▁caution	-10.5313
▁cigarette	-10.5313
▁relax	-10.5313
▁uniform	-10.5313
▁clinch	-10.5313
▁veteran	-10.5313
▁tennesse	-10.5313
▁drove	-10.5314
▁laptop	-10.5314
▁referend	-10.5314
▁album	-10.5314
▁cease	-10.5314
▁clinic	-10.5314
▁orlean	-10.5314
▁panama	-10.5314
▁shirt	-10.5314
▁element	-10.5314
▁barrier	-10.5315
▁bitter	-10.5316
▁brazilian	-10.5316
ification	-10.5317
▁motion	-10.5317
▁rawal	-10.5318
▁stall	-10.5318
▁deployment	-10.5318
▁root	-10.5319
val	-10.5324
▁kent	-10.5326
▁tower	-10.5327
▁weak	-10.5329
▁swed	-10.533
▁indication	-10.533
▁lowest	-10.5331
▁mac	-10.5333
▁berlin	-10.5336
▁gmt	-10.5339
▁endors	-10.5348
▁brad	-10.5349
▁steven	-10.5356
▁handl	-10.5362
ran	-10.5368
fp	-10.5369
▁expectation	-10.5371
ou	-10.5381
▁hospitals	-10.5382
▁ker	-10.5383
▁excit	-10.5388
▁firing	-10.5392
▁endur	-10.54
▁cart	-10.5404
ehouse	-10.5405
ask	-10.5419
▁carlo	-10.5428
officials	-10.5439
▁flower	-10.5439
▁hyun	-10.5443
dc	-10.5446
soo	-10.5456
shi	-10.5456
▁kyo	-10.546
▁rockets	-10.5488
pl	-10.5493
lated	-10.5511
▁argu	-10.5518
▁victor	-10.5523
▁introduc	-10.5523
▁habitat	-10.5531
▁ju	-10.5531
▁note	-10.5533
▁complet	-10.5556
kin	-10.5569
▁henr	-10.5595
arta	-10.5601
▁cutt	-10.5603
▁approve	-10.5605
▁shap	-10.5612
mond	-10.562
▁william	-10.5626
▁oppose	-10.5652
craft	-10.5656
▁unity	-10.5667
▁stan	-10.5685
east	-10.5689
▁disrupt	-10.5689
ju	-10.569
▁assassinat	-10.5692
▁react	-10.5697
▁influ	-10.5698
▁denounc	-10.5698
▁guerrilla	-10.5698
▁immigrant	-10.5698
▁immigrat	-10.5698
▁implement	-10.5698
▁multiple	-10.5698
▁yonhap	-10.5698
▁googl	-10.5698
▁conservation	-10.5698
▁ambitio	-10.5698
▁solve	-10.5698
▁terminal	-10.5698
▁radical	-10.5699
▁impossibl	-10.5699
▁judicia	-10.57
▁upset	-10.5701
▁priest	-10.5701
▁stephen	-10.5702
edict	-10.5703
▁dalla	-10.5704
▁federation	-10.5704
▁mention	-10.5705
▁wolf	-10.5705
▁eliza	-10.5707
▁sailor	-10.5708
▁mous	-10.5711
▁mourn	-10.5711
▁hopeful	-10.5711
ries	-10.5712
state	-10.5712
▁villa	-10.5713
▁patric	-10.5714
▁z	-10.5714
▁leftist	-10.5716
▁citi	-10.5726
▁dow	-10.5733
▁transition	-10.5734
▁writing	-10.5741
▁pollut	-10.5756
▁classic	-10.5764
▁nai	-10.5765
ular	-10.5769
▁branch	-10.5771
▁aren	-10.5772
ose	-10.5776
▁sand	-10.579
ional	-10.5817
het	-10.5821
▁clash	-10.5838
▁hasn	-10.5845
ick	-10.5856
▁failing	-10.5857
▁apologiz	-10.5858
dish	-10.5868
▁argue	-10.5878
ik	-10.5892
cc	-10.5904
eva	-10.591
io	-10.5911
qu	-10.5912
▁ranking	-10.5913
▁negotiat	-10.5934
▁soil	-10.5942
▁hid	-10.5943
▁tr	-10.5943
▁ze	-10.5945
▁lights	-10.5954
▁lui	-10.5967
consi	-10.5984
▁demonstrate	-10.5995
▁earning	-10.5995
▁worker	-10.5997
▁guil	-10.6001
▁write	-10.6004
▁tradition	-10.6005
bas	-10.6009
▁custom	-10.601
gar	-10.601
▁dat	-10.6031
▁consum	-10.6034
ub	-10.6036
▁generate	-10.6042
itting	-10.6052
hood	-10.6058
hundred	-10.606
from	-10.6061
▁chip	-10.6063
▁pitch	-10.6068
rigue	-10.6075
ux	-10.6075
▁dry	-10.6079
▁meaning	-10.608
▁featur	-10.6081
▁fernand	-10.6089
▁las	-10.609
say	-10.6091
hu	-10.6095
▁appoint	-10.6095
ova	-10.6095
▁combin	-10.6097
▁dinosaur	-10.6098
▁surrender	-10.6098
▁attribut	-10.6098
▁concept	-10.6098
▁constant	-10.6098
▁endanger	-10.6098
▁mosque	-10.6098
▁autonom	-10.6098
▁rumor	-10.6098
▁confess	-10.6098
▁conclusion	-10.6098
▁quarterfinal	-10.6098
▁steel	-10.6098
▁gift	-10.6099
▁torture	-10.6099
▁dispatch	-10.6099
▁petrole	-10.6099
▁flash	-10.61
▁abdul	-10.61
▁float	-10.61
▁stroke	-10.6101
▁argument	-10.6102
▁grew	-10.6102
▁tropic	-10.6102
▁moga	-10.6102
▁solid	-10.6103
▁contrast	-10.6105
▁batter	-10.6105
▁specialist	-10.6105
▁shell	-10.6114
▁unknown	-10.6116
▁wheel	-10.6116
▁operator	-10.612
▁confident	-10.6123
▁plead	-10.6137
pover	-10.6139
ail	-10.6141
▁pace	-10.6144
▁apolog	-10.6148
▁bail	-10.6157
▁retailer	-10.6163
▁regions	-10.6178
▁shipp	-10.6183
▁lion	-10.6194
▁banner	-10.6196
▁clar	-10.6207
▁follower	-10.6224
▁fever	-10.6231
▁bacteria	-10.6246
▁rubb	-10.6246
▁odd	-10.6251
standing	-10.6252
ade	-10.6255
▁kissing	-10.6266
▁bal	-10.6288
▁hir	-10.629
▁mel	-10.6293
▁engage	-10.6298
▁prov	-10.6298
ega	-10.6305
▁pole	-10.6313
▁fri	-10.6322
▁collaps	-10.6325
▁mari	-10.6358
▁clothe	-10.636
com	-10.6365
▁contribute	-10.637
▁liter	-10.6377
▁mill	-10.6399
▁pres	-10.6399
▁owners	-10.6401
▁sha	-10.6406
▁rap	-10.6412
▁surg	-10.6413
rian	-10.6424
▁none	-10.6425
▁reli	-10.6427
▁colli	-10.6433
▁correct	-10.6434
▁moral	-10.6441
▁cub	-10.6449
▁achieve	-10.647
uff	-10.6472
every	-10.6475
before	-10.6477
▁fi	-10.648
▁austria	-10.6484
itzer	-10.6492
room	-10.6497
ok	-10.6498
▁fl	-10.6499
▁abduct	-10.6505
▁invest	-10.6505
▁treasur	-10.6506
▁spill	-10.6508
▁infection	-10.6509
▁aggressive	-10.6515
▁bottom	-10.6515
▁exploit	-10.6515
▁genocid	-10.6515
▁landscape	-10.6515
▁negative	-10.6515
▁testimon	-10.6515
▁courage	-10.6515
▁coincide	-10.6515
▁semifinal	-10.6515
delphi	-10.6515
▁antarctic	-10.6515
▁agenda	-10.6515
▁yellow	-10.6515
▁benchmark	-10.6515
▁orange	-10.6515
▁mccann	-10.6515
▁displac	-10.6515
▁liquid	-10.6515
▁cloud	-10.6515
▁hybrid	-10.6516
▁steal	-10.6516
▁clock	-10.6516
▁chelsea	-10.6517
▁confus	-10.6519
▁beaut	-10.6521
▁fierce	-10.6521
▁atlantic	-10.6522
▁roof	-10.6522
▁closing	-10.6523
▁careful	-10.6523
▁tomb	-10.6526
▁novel	-10.6527
▁ethiopian	-10.6527
▁mental	-10.6527
▁communit	-10.6528
▁mask	-10.6529
▁continent	-10.6529
▁evacuation	-10.653
▁realize	-10.6533
▁designat	-10.6533
low	-10.6534
▁bowl	-10.6535
sterda	-10.6538
▁accusation	-10.6538
▁portion	-10.6539
▁payment	-10.6539
▁mwa	-10.6541
▁load	-10.6543
▁prayer	-10.6545
▁railway	-10.6546
lum	-10.6549
gender	-10.6549
▁hitt	-10.6549
ullah	-10.6553
▁sensitiv	-10.6563
▁oversee	-10.6576
ji	-10.6577
▁urge	-10.6577
shar	-10.6589
▁tun	-10.6596
▁futures	-10.6597
▁eggs	-10.6602
therland	-10.6605
▁em	-10.6607
▁gi	-10.6608
musha	-10.6633
▁mom	-10.6641
▁revolution	-10.6645
rod	-10.6652
▁refuge	-10.6658
▁photographer	-10.6661
estate	-10.6664
rich	-10.6676
▁sick	-10.6679
▁copie	-10.6687
▁hum	-10.6704
▁escalat	-10.6707
▁prospect	-10.6708
▁tackle	-10.671
▁uni	-10.6713
amil	-10.6717
ila	-10.672
how	-10.6728
nan	-10.6738
ala	-10.6758
▁avi	-10.676
losi	-10.6764
▁minorit	-10.6769
▁rac	-10.6787
▁pen	-10.6807
ug	-10.6808
ron	-10.6812
▁sir	-10.6819
llo	-10.6819
▁imp	-10.6831
▁va	-10.6844
▁whal	-10.6858
▁str	-10.6863
▁mr	-10.6869
▁prais	-10.688
ray	-10.6891
▁ph	-10.6904
stream	-10.691
world	-10.6911
three	-10.6911
▁airway	-10.6918
▁marks	-10.6926
▁industri	-10.6934
five	-10.6935
▁plac	-10.6937
▁speculat	-10.6938
▁latin	-10.6944
▁breed	-10.6949
▁precaution	-10.695
▁suspension	-10.695
▁suspicion	-10.695
▁uncover	-10.695
▁liberal	-10.695
▁brutal	-10.695
▁prosper	-10.695
rbach	-10.695
▁occupation	-10.695
▁offense	-10.695
▁false	-10.6951
▁campbell	-10.6952
▁smash	-10.6953
▁panda	-10.6953
▁harsh	-10.6953
▁frontier	-10.6954
▁obvious	-10.6954
▁detainee	-10.6956
▁giuli	-10.6957
▁amnes	-10.6958
▁slamm	-10.6959
▁everywhere	-10.6959
▁tool	-10.696
▁reward	-10.696
▁basi	-10.6962
▁jackson	-10.6963
▁rent	-10.6967
▁drought	-10.697
▁spin	-10.6973
turm	-10.6973
▁flags	-10.6976
▁greet	-10.6976
pr	-10.6978
ball	-10.6979
▁conviction	-10.6984
▁stead	-10.6984
▁clark	-10.6986
zai	-10.6986
▁ill	-10.6989
▁hy	-10.6989
▁worsen	-10.6989
▁icon	-10.6993
▁craft	-10.6994
▁sect	-10.6998
▁malaysian	-10.6999
▁wire	-10.7011
▁observer	-10.7014
▁newly	-10.7018
▁riding	-10.7019
▁pursue	-10.7021
▁deny	-10.7024
▁arti	-10.7027
▁chest	-10.7028
▁peacekeep	-10.7036
▁gray	-10.7046
oney	-10.7064
fre	-10.707
▁emp	-10.7082
onia	-10.7088
▁manufacturer	-10.7091
ngue	-10.7094
▁fame	-10.7096
▁spott	-10.7097
ll	-10.7104
▁tim	-10.7106
▁pal	-10.7107
▁univers	-10.7107
▁kat	-10.7141
ura	-10.7142
▁fun	-10.7146
near	-10.7152
▁permissi	-10.7168
▁statue	-10.7171
ica	-10.7175
▁goods	-10.7187
imed	-10.7188
▁lab	-10.7197
tro	-10.7212
▁dia	-10.7214
▁intention	-10.7217
▁mountains	-10.7218
▁ke	-10.7218
erto	-10.7238
▁rafa	-10.7241
omar	-10.7242
izing	-10.7247
▁encourag	-10.7247
▁surround	-10.7259
▁ramo	-10.7261
ulous	-10.7276
ette	-10.7287
▁cl	-10.7293
ider	-10.7299
tter	-10.731
▁sacr	-10.7313
▁whit	-10.7322
▁ir	-10.7329
▁decisions	-10.7342
take	-10.7351
▁andrew	-10.7359
ford	-10.7364
through	-10.7368
half	-10.7368
▁strip	-10.7378
▁towns	-10.7402
▁polar	-10.7402
▁dictator	-10.7403
▁imprison	-10.7404
▁recycl	-10.7404
▁asteroid	-10.7404
▁disorder	-10.7404
▁fulfill	-10.7404
▁jordan	-10.7404
▁recruit	-10.7404
▁sovereign	-10.7404
▁wreck	-10.7404
▁dolphin	-10.7404
▁calculat	-10.7404
▁funeral	-10.7404
▁protein	-10.7404
▁hurri	-10.7404
▁warrant	-10.7404
▁dawn	-10.7404
▁patriot	-10.7404
▁shareholder	-10.7405
▁tunnel	-10.7405
▁initiative	-10.7405
▁obligation	-10.7405
▁eric	-10.7405
▁legitimate	-10.7406
▁rec	-10.7406
▁inquir	-10.7406
▁deteriorat	-10.7407
▁submit	-10.7407
▁phase	-10.7408
▁minus	-10.7409
▁persist	-10.741
▁snake	-10.741
ioxid	-10.741
▁gibbon	-10.7413
▁substantial	-10.7417
▁pig	-10.7417
▁charter	-10.7419
▁phila	-10.7421
ide	-10.7429
▁hawk	-10.743
▁trace	-10.7431
▁rudd	-10.7436
evin	-10.744
waz	-10.7445
▁undermine	-10.7447
ably	-10.7449
▁fisherm	-10.7453
▁jak	-10.7463
▁ranch	-10.748
▁hi	-10.748
▁dust	-10.7486
▁purchas	-10.7494
▁proceeding	-10.7498
▁traffick	-10.7498
▁impo	-10.7506
▁prepare	-10.7506
▁wale	-10.7515
▁spa	-10.7518
▁tri	-10.7521
▁ahmadi	-10.7536
ging	-10.754
▁islands	-10.7541
ada	-10.7542
dale	-10.7563
olo	-10.7564
ake	-10.7565
ouri	-10.7576
▁joe	-10.7581
▁plung	-10.7585
▁drawing	-10.7593
▁direction	-10.7593
tti	-10.76
iran	-10.76
long	-10.7639
▁trick	-10.7653
▁grant	-10.7662
▁thin	-10.7663
▁welcom	-10.7695
tah	-10.77
cef	-10.77
▁killer	-10.77
▁caucus	-10.7702
▁imagine	-10.7728
▁desire	-10.7736
mu	-10.7739
▁legislati	-10.7741
veral	-10.7742
▁sight	-10.7751
fo	-10.7769
▁touris	-10.7783
▁rad	-10.7801
born	-10.7805
▁cooper	-10.7806
▁sad	-10.7812
bility	-10.7814
▁recogniz	-10.7821
▁shi	-10.7838
john	-10.7842
▁partners	-10.7846
▁micro	-10.7852
▁grab	-10.7858
▁bri	-10.786
aeus	-10.7863
▁mon	-10.787
tri	-10.7874
▁vulnerab	-10.7874
▁controvers	-10.7876
▁embarrass	-10.788
▁extraordinar	-10.788
▁mirror	-10.788
▁platform	-10.788
▁skull	-10.788
▁suspicious	-10.788
▁tissue	-10.788
▁typhoon	-10.788
▁rebuild	-10.788
▁reiterat	-10.788
▁rifle	-10.788
▁depict	-10.788
▁excess	-10.788
▁serb	-10.788
▁postpone	-10.788
▁departure	-10.7881
▁dedicat	-10.7881
▁pipeline	-10.7881
▁insult	-10.7881
▁cyber	-10.7881
▁entrance	-10.7881
▁concede	-10.7882
▁strategic	-10.7882
▁household	-10.7882
▁attach	-10.7882
▁participant	-10.7883
▁proliferat	-10.7883
▁confrontation	-10.7883
▁embryo	-10.7884
▁dementi	-10.7884
▁greek	-10.7884
▁download	-10.7884
▁slump	-10.7885
▁apply	-10.7885
▁timor	-10.7886
▁jeff	-10.7886
▁prominent	-10.7887
▁kidney	-10.7888
▁rio	-10.7889
▁vision	-10.7889
▁coca	-10.7889
▁kir	-10.789
▁absolutely	-10.789
▁gross	-10.789
▁disruption	-10.7892
▁corps	-10.7893
▁unfortunate	-10.7893
▁torre	-10.7894
▁gear	-10.7896
▁appropriate	-10.79
▁antoni	-10.7901
▁congo	-10.7905
▁thick	-10.7906
▁mexican	-10.7912
▁creation	-10.7915
▁bow	-10.792
▁mini	-10.7921
▁trans	-10.7924
▁map	-10.7925
▁achiev	-10.7927
ucky	-10.793
▁divide	-10.793
▁homeless	-10.7931
▁donation	-10.7934
▁financ	-10.794
▁der	-10.7943
▁rear	-10.7953
▁pan	-10.7962
▁coat	-10.7968
▁indonesian	-10.7974
▁kan	-10.7976
▁hunter	-10.7993
▁apart	-10.7995
▁distribut	-10.8003
▁resistan	-10.8006
▁adam	-10.8019
▁advi	-10.8034
▁bi	-10.8039
gged	-10.8052
▁wash	-10.8054
▁belief	-10.8056
unt	-10.806
▁dot	-10.8064
ically	-10.807
▁economies	-10.8075
▁manage	-10.809
▁terr	-10.8091
▁habit	-10.8092
ei	-10.8097
▁conspira	-10.8102
▁chase	-10.8105
▁juli	-10.8125
▁shoulder	-10.814
▁undergo	-10.8158
▁fu	-10.8166
▁metropoli	-10.8175
napoli	-10.8192
▁advise	-10.821
▁seal	-10.8232
hou	-10.8235
▁violate	-10.8239
old	-10.8241
ware	-10.8245
▁vessels	-10.8253
▁resist	-10.8257
▁rating	-10.8266
▁chris	-10.8294
▁primari	-10.8294
cantil	-10.8301
▁pointed	-10.8303
▁retail	-10.8308
▁ci	-10.8323
▁ash	-10.8323
gra	-10.8326
fe	-10.8327
identified	-10.8342
women	-10.8342
,	-10.8342
stock	-10.8344
cation	-10.8347
▁occur	-10.835
tearn	-10.8361
▁teenage	-10.8364
▁wrap	-10.837
▁connecti	-10.8372
mlin	-10.8373
▁virgin	-10.8375
▁flat	-10.8376
▁expell	-10.838
▁airstrike	-10.838
▁chicken	-10.838
▁enormous	-10.838
▁expansion	-10.838
▁orthodox	-10.838
▁rhode	-10.838
▁tattoo	-10.838
▁verdict	-10.838
▁audio	-10.838
▁pepper	-10.838
▁lyric	-10.838
▁traged	-10.838
▁oregon	-10.838
starbuck	-10.838
▁consistent	-10.838
▁petition	-10.838
▁application	-10.8381
▁laute	-10.8381
▁infra	-10.8381
▁immun	-10.8381
▁haiti	-10.8381
▁vital	-10.8381
▁bodyguard	-10.8381
▁foster	-10.8382
▁stuff	-10.8382
▁roger	-10.8383
▁duck	-10.8383
▁pardon	-10.8383
▁strand	-10.8383
▁anchor	-10.8383
▁curb	-10.8384
horta	-10.8385
▁appointment	-10.8385
▁essential	-10.8385
▁shield	-10.8385
▁musician	-10.8386
▁crown	-10.8387
▁distribution	-10.8388
intend	-10.8393
▁headline	-10.8393
sky	-10.8398
▁successor	-10.8398
▁closure	-10.84
▁gra	-10.8403
▁impose	-10.8403
▁emotional	-10.8405
▁jane	-10.8411
▁tanker	-10.8417
▁laid	-10.8422
ison	-10.8428
▁dropping	-10.843
▁text	-10.8432
mandu	-10.844
efa	-10.8452
▁mrs	-10.8455
▁eve	-10.8457
▁instance	-10.8463
▁joke	-10.8464
▁wav	-10.8467
far	-10.8484
▁fate	-10.85
▁transform	-10.8502
▁polan	-10.8508
▁nak	-10.8518
▁disc	-10.8541
▁leak	-10.8543
oli	-10.8548
ative	-10.8557
▁nar	-10.8561
▁jay	-10.8571
▁publisher	-10.8581
▁peer	-10.8589
mato	-10.8601
▁launching	-10.8609
▁les	-10.861
▁hon	-10.8626
▁theory	-10.8627
▁zoe	-10.863
▁lyn	-10.8633
▁tut	-10.8644
▁shara	-10.8662
▁install	-10.8677
donald	-10.8678
▁guns	-10.8686
▁resolv	-10.8703
▁sole	-10.8727
▁chen	-10.8754
▁accord	-10.8762
▁troubl	-10.8765
▁bhut	-10.8778
▁smuggl	-10.8786
ob	-10.8786
ks	-10.8792
▁yoo	-10.8794
▁paint	-10.8807
verish	-10.8816
til	-10.8826
▁polluti	-10.8834
ox	-10.8835
▁fertil	-10.887
▁endorse	-10.8874
shore	-10.8876
laho	-10.8878
ola	-10.8879
▁gamb	-10.8883
pression	-10.8884
▁televis	-10.89
▁lobby	-10.8905
▁moham	-10.8905
▁intercept	-10.8907
▁elaborate	-10.8907
▁indefinite	-10.8907
▁religion	-10.8907
▁surprising	-10.8907
▁tabloid	-10.8907
▁transaction	-10.8907
▁spaniard	-10.8907
▁definite	-10.8907
▁deserve	-10.8907
▁morocc	-10.8907
▁absence	-10.8907
arctic	-10.8907
▁deficit	-10.8907
▁outdoor	-10.8907
▁oath	-10.8907
▁defect	-10.8907
▁limb	-10.8907
▁counterpart	-10.8907
▁yankee	-10.8907
▁domain	-10.8907
▁mortar	-10.8908
▁saving	-10.8908
▁belgi	-10.8908
▁evil	-10.8909
▁dragg	-10.8909
▁adjust	-10.8909
▁promot	-10.8909
▁taste	-10.8909
▁billionaire	-10.8909
▁exclusive	-10.8909
▁tea	-10.891
▁combination	-10.8911
▁rico	-10.8911
▁albanian	-10.8913
▁visa	-10.8915
▁hail	-10.8915
▁mumm	-10.8915
▁respective	-10.8916
▁luna	-10.8916
▁astronomer	-10.8916
▁chant	-10.8916
▁replacement	-10.8917
▁matters	-10.8917
▁oz	-10.8919
▁chamber	-10.8921
orrow	-10.8921
▁residence	-10.8923
▁hike	-10.8924
▁celebration	-10.8925
▁treasure	-10.8926
az	-10.8926
▁deck	-10.893
▁embrace	-10.8933
▁grabb	-10.8934
▁parade	-10.8934
▁nikk	-10.8938
▁lend	-10.894
▁deter	-10.8941
▁fatalit	-10.8944
▁fake	-10.8944
hal	-10.8954
aga	-10.8958
abao	-10.8961
▁dec	-10.8977
▁inspir	-10.8986
▁ferr	-10.8986
▁entry	-10.8989
▁burst	-10.899
▁rever	-10.8995
▁victoria	-10.8997
▁penn	-10.9002
hem	-10.9004
burg	-10.9013
ked	-10.9013
play	-10.9015
ulos	-10.9018
erkel	-10.9024
▁politician	-10.9025
▁feb	-10.904
▁wel	-10.9047
mert	-10.9054
▁mistakes	-10.9058
them	-10.9062
▁q	-10.9082
▁cz	-10.9083
oming	-10.9083
fi	-10.9095
▁classifie	-10.911
▁theme	-10.9113
▁hidd	-10.9114
▁colon	-10.9124
▁rig	-10.9133
▁intimidat	-10.9152
▁nud	-10.9158
▁bel	-10.9159
▁comfortabl	-10.9166
▁smil	-10.9173
ek	-10.9176
top	-10.9185
stam	-10.9195
▁pav	-10.9215
▁canne	-10.9226
▁swing	-10.9237
▁examin	-10.9242
ersey	-10.9259
▁geo	-10.9266
▁arth	-10.9269
▁arch	-10.927
▁bust	-10.9283
▁miner	-10.9289
pov	-10.9303
▁dak	-10.9303
▁statistic	-10.9308
ach	-10.9323
▁din	-10.9332
▁swis	-10.9334
▁mat	-10.9343
▁accidental	-10.9348
▁hunting	-10.9352
kat	-10.936
pic	-10.936
▁discs	-10.9365
kim	-10.9383
▁ge	-10.9391
▁philip	-10.9392
▁advanc	-10.9393
enver	-10.9403
turn	-10.9409
▁importan	-10.9418
children	-10.9424
▁kle	-10.9425
▁vil	-10.9427
france	-10.9429
henin	-10.9431
▁cambodia	-10.9431
▁bolt	-10.9432
rut	-10.9434
▁commit	-10.944
▁cleve	-10.9446
▁insurgen	-10.9449
▁chart	-10.9453
udh	-10.9457
ebras	-10.9458
▁confront	-10.9459
▁approximate	-10.9462
▁commodit	-10.9462
▁prestig	-10.9462
▁aquarium	-10.9462
▁component	-10.9462
▁congratulat	-10.9462
▁consequence	-10.9462
▁expire	-10.9462
▁fossil	-10.9462
▁motorcycle	-10.9462
▁pregnanc	-10.9462
▁sprawl	-10.9462
▁paralyz	-10.9462
▁sentiment	-10.9462
▁eager	-10.9462
▁laborator	-10.9462
▁bloom	-10.9462
▁tayyi	-10.9462
▁mcdonald	-10.9462
▁galax	-10.9463
▁oxy	-10.9463
▁bedroom	-10.9463
▁stronghold	-10.9463
▁psychologist	-10.9463
▁joseph	-10.9464
▁thrill	-10.9464
▁ahmed	-10.9465
▁potato	-10.9466
▁empty	-10.9466
▁jamie	-10.9466
▁ambush	-10.9466
grid	-10.9466
▁alarm	-10.9467
▁breach	-10.9467
▁regulator	-10.9467
▁kuznetsov	-10.9468
▁greenpeace	-10.9468
▁boston	-10.9468
▁inspection	-10.9468
▁emphasiz	-10.9469
▁picket	-10.9469
▁possession	-10.9471
▁spray	-10.9473
pact	-10.9473
▁massage	-10.9474
▁diagnos	-10.9478
▁visibl	-10.9478
held	-10.9481
▁libyan	-10.9482
▁franco	-10.9484
▁maru	-10.9485
▁subway	-10.9488
dom	-10.949
▁ideal	-10.9492
▁fleet	-10.9496
▁belt	-10.9497
▁afr	-10.95
onga	-10.9506
▁inaugurat	-10.9514
▁hd	-10.9514
▁ruin	-10.9515
uke	-10.9515
▁cage	-10.9518
▁promotion	-10.9522
▁sars	-10.9523
▁alter	-10.9524
▁bio	-10.9529
▁carac	-10.9533
▁scott	-10.9538
▁sheet	-10.9543
ague	-10.9543
▁suggestion	-10.9544
▁pool	-10.9545
▁dealing	-10.9559
▁oh	-10.9569
▁patroll	-10.9572
▁taxi	-10.958
▁rev	-10.9585
dai	-10.9589
▁sink	-10.9604
▁berna	-10.9605
▁fre	-10.961
ore	-10.9618
▁shake	-10.9621
▁ward	-10.9623
▁contribut	-10.9639
nie	-10.964
▁sail	-10.9646
▁mu	-10.9648
rey	-10.9649
hop	-10.965
▁volunteers	-10.966
bris	-10.9662
▁mall	-10.9667
▁nanc	-10.9679
▁broadcaster	-10.9682
▁bath	-10.9687
ome	-10.9696
▁dispos	-10.9696
▁introduce	-10.9721
▁caps	-10.9722
▁challeng	-10.9739
▁tho	-10.9742
▁decid	-10.9751
inho	-10.9775
▁medi	-10.9789
ula	-10.9802
▁conclude	-10.9809
▁apologize	-10.9815
▁rub	-10.9842
illa	-10.9847
▁hills	-10.9847
▁stressed	-10.9853
port	-10.9853
▁vo	-10.9856
lisa	-10.9872
then	-10.988
▁kerr	-10.992
ible	-10.9922
kara	-10.9925
▁tap	-10.9933
dr	-10.9935
▁bl	-10.994
zhe	-10.9941
▁zu	-10.9947
had	-10.9955
ltz	-10.9962
▁orchestra	-10.9964
awa	-10.9967
iri	-10.9969
ster	-10.9975
▁luc	-10.9978
▁gall	-10.999
▁carpe	-10.9992
fa	-11.0006
later	-11.0011
jiang	-11.0011
power	-11.0012
usan	-11.0013
brit	-11.0015
bol	-11.0018
▁loose	-11.0021
▁height	-11.0023
▁provider	-11.0031
ini	-11.0031
▁reverse	-11.0031
clear	-11.0036
▁pot	-11.0045
▁composit	-11.0046
▁jihad	-11.0049
rous	-11.005
▁affiliate	-11.005
▁encounter	-11.005
▁interpret	-11.005
▁migrant	-11.005
▁precinct	-11.005
▁qualify	-11.005
▁surpass	-11.005
▁unsuccessful	-11.005
▁fault	-11.005
▁hazard	-11.005
▁kashmir	-11.005
▁bargain	-11.005
▁surf	-11.005
▁volatil	-11.005
▁regain	-11.005
▁moderate	-11.005
▁competitive	-11.005
▁diabet	-11.005
▁restrain	-11.0051
▁outcome	-11.0051
▁reinstate	-11.0051
▁blanket	-11.0051
▁checkpoint	-11.0051
▁tornado	-11.0051
yongbyon	-11.0051
▁plent	-11.0051
▁fantas	-11.0051
▁landmark	-11.0052
▁hatred	-11.0052
▁exceed	-11.0052
▁amendment	-11.0052
mpson	-11.0052
▁infant	-11.0053
▁pageant	-11.0055
▁chadian	-11.0055
▁monet	-11.0055
▁implication	-11.0055
▁zero	-11.0055
▁crush	-11.0055
▁urgent	-11.0056
▁preparation	-11.0059
▁tu	-11.0061
▁impression	-11.0062
▁ol	-11.0062
▁ignor	-11.0063
▁overturn	-11.0063
▁lifetime	-11.0064
▁wrapp	-11.0065
▁grass	-11.0069
▁nice	-11.0071
▁observation	-11.0071
▁kitt	-11.0073
▁rigg	-11.0074
vinen	-11.0075
▁nin	-11.0083
▁shattered	-11.0085
▁katrin	-11.0085
▁format	-11.0086
their	-11.0094
▁happening	-11.0094
▁stick	-11.0095
▁contender	-11.0096
rac	-11.0096
▁mitt	-11.01
▁warship	-11.0101
▁kre	-11.0101
▁happens	-11.0105
▁nigeria	-11.0106
▁rob	-11.0108
▁marry	-11.0111
▁generat	-11.0114
▁massacre	-11.012
▁hell	-11.0122
▁ramp	-11.0123
▁santi	-11.0129
▁territories	-11.0131
skirt	-11.0148
▁challenger	-11.0151
▁caffein	-11.0156
▁shu	-11.0158
hav	-11.0186
▁pat	-11.0195
oc	-11.0197
alaba	-11.0202
▁antibiotics	-11.0204
oma	-11.0219
▁unres	-11.0222
▁employee	-11.024
due	-11.0246
▁argentine	-11.0253
▁radi	-11.0263
iest	-11.0268
▁provok	-11.0285
▁prior	-11.0299
▁cho	-11.0301
▁fred	-11.0304
tzl	-11.0307
▁pun	-11.0311
una	-11.0312
▁leap	-11.0336
▁granted	-11.0337
mark	-11.0339
ker	-11.0346
▁tube	-11.0359
dian	-11.036
▁files	-11.036
tada	-11.0366
gent	-11.0369
▁def	-11.0381
▁investigations	-11.0385
raul	-11.0398
iling	-11.0409
▁defending	-11.0417
▁cri	-11.0424
▁equi	-11.0447
▁debr	-11.046
▁hub	-11.046
ello	-11.0461
▁boxe	-11.0475
▁alexand	-11.0476
kar	-11.048
tak	-11.0482
▁anne	-11.0483
▁measur	-11.0484
▁tay	-11.0514
▁experienc	-11.0526
ffer	-11.0527
▁buyer	-11.0548
▁impos	-11.0549
▁ger	-11.0559
hag	-11.0559
yama	-11.0568
▁hijack	-11.0587
▁ib	-11.059
▁matsu	-11.0601
▁cur	-11.0614
▁fra	-11.0615
▁remind	-11.0622
▁swor	-11.0622
load	-11.0633
▁harv	-11.0636
hook	-11.0637
zimbabwe	-11.0637
micros	-11.0637
sarkozy	-11.0637
group	-11.0637
secretar	-11.0637
government	-11.0638
titude	-11.0638
sumption	-11.064
▁digit	-11.0645
▁chat	-11.0647
ddy	-11.0648
▁pin	-11.0648
print	-11.0658
▁portray	-11.066
▁forget	-11.0662
▁columb	-11.0667
▁possess	-11.0667
▁prohibit	-11.0668
folk	-11.0671
gue	-11.0671
▁loya	-11.0672
davi	-11.0673
▁fundamental	-11.0674
▁concentrate	-11.0675
▁enterprise	-11.0675
▁epicenter	-11.0675
▁exhaust	-11.0675
▁expedition	-11.0675
▁explanation	-11.0675
▁ibrahim	-11.0675
▁minimum	-11.0675
▁persuade	-11.0675
▁pocket	-11.0675
▁principal	-11.0675
▁rhetoric	-11.0675
▁surplus	-11.0675
▁swallow	-11.0675
▁unanimous	-11.0675
▁decrease	-11.0675
▁fruit	-11.0675
▁overthrow	-11.0675
▁froze	-11.0675
▁machete	-11.0675
▁propagand	-11.0675
bourne	-11.0675
▁biofuel	-11.0675
▁ultra	-11.0675
▁liberia	-11.0675
▁coroner	-11.0675
▁curfew	-11.0675
▁okinawa	-11.0676
▁jirga	-11.0676
▁smell	-11.0676
▁hammer	-11.0676
▁scrambl	-11.0677
▁shelve	-11.0677
droe	-11.0677
▁mohammad	-11.0677
▁advisor	-11.0677
▁eacute	-11.0677
▁interrogation	-11.0679
▁gonzale	-11.0679
▁strategist	-11.068
▁ancest	-11.0682
▁characterize	-11.0683
▁magic	-11.0684
▁hint	-11.0685
▁harvest	-11.0687
▁pronounce	-11.0687
▁pad	-11.0688
▁trill	-11.0689
▁jewel	-11.0689
▁bankruptc	-11.0697
▁helm	-11.0697
crete	-11.0698
▁jav	-11.0698
▁surgeon	-11.0699
▁alex	-11.07
▁punch	-11.0702
▁christophe	-11.0704
▁terra	-11.0708
▁slaughter	-11.0709
latter	-11.0709
▁sta	-11.0711
▁adapt	-11.0715
▁pira	-11.0715
▁ripp	-11.0715
true	-11.0717
▁forum	-11.0725
▁juan	-11.0734
▁graduate	-11.0736
▁bra	-11.0745
name	-11.0746
▁popp	-11.0748
▁contractor	-11.0749
cin	-11.0751
▁universal	-11.0751
▁slam	-11.0751
▁amounts	-11.0757
▁islamist	-11.0761
▁diya	-11.0762
▁tighten	-11.0763
▁clay	-11.0768
vacu	-11.0771
nke	-11.0777
elli	-11.0787
▁supplier	-11.0789
▁robber	-11.079
▁projection	-11.0801
▁cardi	-11.0803
enza	-11.0806
▁doors	-11.0808
tu	-11.0809
▁plea	-11.0821
schne	-11.0823
▁prostitute	-11.0824
▁larr	-11.0825
pel	-11.0832
dog	-11.0833
iband	-11.0835
▁neil	-11.0841
▁gerr	-11.0842
▁fir	-11.0843
ping	-11.0848
▁nurse	-11.085
lem	-11.0859
asia	-11.0868
fan	-11.0871
rotti	-11.0886
▁procedure	-11.0893
care	-11.0895
▁furni	-11.09
dna	-11.0908
▁comed	-11.0914
rry	-11.0934
utt	-11.0945
▁venture	-11.0952
▁hiv	-11.0959
▁tips	-11.0961
▁starr	-11.0962
▁preserve	-11.0963
▁pi	-11.0969
▁gil	-11.0971
▁beer	-11.0972
▁inmate	-11.0995
gon	-11.1001
▁premiere	-11.1006
▁networking	-11.102
▁ruler	-11.1045
lic	-11.1048
ological	-11.1058
tuck	-11.1058
otic	-11.1063
▁kh	-11.1081
structure	-11.1093
▁fif	-11.1101
▁compet	-11.1105
▁evacuate	-11.1106
▁biolog	-11.1115
▁mega	-11.1117
▁balloon	-11.1118
▁blai	-11.1123
ential	-11.1132
cumbe	-11.1137
tten	-11.1143
▁lunch	-11.1146
▁guid	-11.1149
▁origin	-11.1155
▁bol	-11.1159
cake	-11.116
▁rein	-11.1161
▁dish	-11.1171
than	-11.1174
roy	-11.1183
▁comet	-11.1185
▁sao	-11.1187
▁dominate	-11.1191
nov	-11.1197
▁hip	-11.1212
▁productiv	-11.1216
ioc	-11.1229
▁springs	-11.1237
▁shak	-11.1244
llor	-11.1254
ram	-11.1266
▁recep	-11.1267
hur	-11.1268
▁denie	-11.1278
ampa	-11.1285
▁mere	-11.1287
pakistan	-11.1289
q	-11.1298
munition	-11.1301
thousand	-11.1304
britain	-11.1304
scientist	-11.1304
mosco	-11.1304
▁cooperat	-11.1305
eight	-11.1314
researcher	-11.1316
▁menu	-11.1316
mobile	-11.132
▁phil	-11.1321
▁analys	-11.1327
bow	-11.1328
maker	-11.1335
▁populat	-11.1335
▁disable	-11.1339
▁guitar	-11.134
▁psycholog	-11.1341
▁sophisticat	-11.1342
▁breakfast	-11.1342
▁chocolate	-11.1342
▁deliberate	-11.1342
▁discriminat	-11.1342
▁elephant	-11.1342
▁equivalent	-11.1342
▁grenade	-11.1342
▁harbor	-11.1342
▁norwegian	-11.1342
▁practical	-11.1342
▁predecessor	-11.1342
▁sacrifice	-11.1342
▁tremendous	-11.1342
▁troph	-11.1342
▁unacceptabl	-11.1342
▁unemploy	-11.1342
▁widow	-11.1342
▁catastroph	-11.1342
▁knife	-11.1342
▁merchant	-11.1342
▁scatter	-11.1342
▁throat	-11.1342
▁drown	-11.1342
▁transmission	-11.1342
▁yield	-11.1342
▁himalaya	-11.1342
▁videotape	-11.1342
▁eligib	-11.1342
▁happi	-11.1342
▁sierra	-11.1342
▁conceal	-11.1342
▁indict	-11.1342
▁muq	-11.1342
▁bathroom	-11.1342
▁loot	-11.1342
▁aspect	-11.1342
▁tumor	-11.1342
▁testify	-11.1343
▁gunshot	-11.1343
▁candidac	-11.1343
▁steep	-11.1343
▁judgment	-11.1343
▁vegetable	-11.1343
▁wildfire	-11.1343
▁medication	-11.1343
▁staple	-11.1344
▁biologist	-11.1344
▁ryan	-11.1344
▁kofi	-11.1344
▁chimp	-11.1344
▁recount	-11.1345
▁bride	-11.1346
ius	-11.1346
▁dirt	-11.1346
mumba	-11.1346
▁epic	-11.1346
▁shrine	-11.1347
hasa	-11.1347
▁canoe	-11.1348
▁painful	-11.1349
▁engagement	-11.1349
▁samba	-11.135
▁stunt	-11.135
▁adventure	-11.1351
▁amazon	-11.1351
▁brook	-11.1352
▁sensor	-11.1353
▁robotic	-11.1353
refore	-11.1354
▁conscious	-11.1355
upre	-11.1356
▁xp	-11.1357
▁silver	-11.1357
▁confine	-11.1357
▁athen	-11.1358
▁proof	-11.1358
▁passage	-11.1361
▁guess	-11.1361
▁assign	-11.1363
▁smart	-11.1365
▁nano	-11.1365
▁eruption	-11.1366
▁kabul	-11.1369
qui	-11.1374
▁assured	-11.1375
bang	-11.1376
▁commuter	-11.1377
▁carla	-11.1381
▁pyr	-11.1382
▁afterward	-11.1383
▁pastor	-11.1383
▁folk	-11.1385
▁zimbabwean	-11.1386
away	-11.1386
▁kell	-11.1388
▁awake	-11.1388
▁jiang	-11.1389
ebay	-11.139
▁deadli	-11.139
▁consen	-11.1397
▁jam	-11.1397
▁torn	-11.1398
▁armor	-11.1401
▁pure	-11.1403
▁buck	-11.1404
▁emb	-11.141
▁cher	-11.1416
nish	-11.1421
▁lip	-11.1422
lf	-11.1428
▁nu	-11.143
▁opt	-11.1432
▁bog	-11.1442
▁plott	-11.1443
▁schu	-11.1445
▁extensi	-11.1445
▁sat	-11.1451
▁gaz	-11.1463
adic	-11.1464
▁admit	-11.1467
▁cooking	-11.1483
uda	-11.1484
▁pri	-11.1488
russel	-11.1499
enos	-11.1502
eigh	-11.1502
▁posting	-11.1508
▁bob	-11.1523
▁yes	-11.1524
▁lone	-11.1529
▁refuse	-11.153
▁maj	-11.1536
var	-11.1538
▁roar	-11.1539
▁jp	-11.1556
▁predominan	-11.1563
ama	-11.1571
▁liqu	-11.1573
▁racial	-11.1577
▁coin	-11.1588
ark	-11.1593
▁para	-11.1595
▁exporter	-11.1596
▁arrang	-11.1596
gt	-11.1621
▁annually	-11.1624
▁mus	-11.1628
av	-11.1629
▁tian	-11.1629
▁tribe	-11.1656
▁hostil	-11.1657
claren	-11.167
▁est	-11.1679
▁scan	-11.1689
▁pla	-11.1701
vin	-11.1712
ash	-11.1718
▁emi	-11.1737
▁sid	-11.1759
▁occasion	-11.1761
orry	-11.1765
▁shah	-11.1776
▁spectac	-11.1777
▁danc	-11.1777
cious	-11.1786
▁doll	-11.1786
▁taka	-11.1792
orti	-11.18
six	-11.1811
▁procedures	-11.1812
eh	-11.1815
ario	-11.1816
oren	-11.1821
▁roma	-11.1825
nmark	-11.1829
▁za	-11.1843
▁lean	-11.1847
▁nan	-11.185
▁khal	-11.1853
▁wan	-11.1863
ington	-11.1867
angle	-11.1868
cca	-11.1882
cio	-11.1889
fu	-11.1892
hill	-11.1893
erial	-11.1897
▁proceed	-11.1911
▁cook	-11.1912
▁slid	-11.1932
▁jin	-11.1933
oom	-11.1939
▁integrat	-11.1959
rell	-11.196
▁nh	-11.1962
▁hire	-11.1963
grade	-11.1968
kov	-11.1973
▁temp	-11.198
ologist	-11.1993
▁twist	-11.1999
▁transit	-11.2
jas	-11.2004
bound	-11.201
mouth	-11.2018
french	-11.2018
rg	-11.2018
▁dignit	-11.202
berlin	-11.2023
short	-11.2026
ogge	-11.2029
uri	-11.2036
uous	-11.2049
▁tale	-11.205
▁commerc	-11.2053
▁depart	-11.2055
▁hil	-11.2056
▁retreat	-11.2056
▁ambulance	-11.2056
▁basket	-11.2056
▁competitor	-11.2056
▁concession	-11.2056
▁descend	-11.2056
▁desperate	-11.2056
▁dissolv	-11.2056
▁exxon	-11.2056
▁hajj	-11.2056
▁juvenile	-11.2056
▁kangaroo	-11.2056
▁paraguay	-11.2056
▁phenomen	-11.2056
▁revenge	-11.2056
▁substitute	-11.2056
▁suppose	-11.2056
▁unfair	-11.2056
▁vault	-11.2056
▁voluntar	-11.2056
▁abortion	-11.2056
▁chapter	-11.2056
▁database	-11.2056
▁crippl	-11.2056
▁croatia	-11.2056
▁nichol	-11.2056
▁swift	-11.2056
▁wield	-11.2056
▁definition	-11.2056
▁uganda	-11.2057
▁autops	-11.2057
ssett	-11.2057
▁substance	-11.2057
▁toddler	-11.2057
▁repair	-11.2057
▁baggage	-11.2057
▁fuku	-11.2057
▁guideline	-11.2058
▁trademark	-11.2058
▁guang	-11.2058
▁passport	-11.2058
▁precise	-11.2058
▁decree	-11.2058
▁shopper	-11.2059
▁filmmaker	-11.2059
▁airplane	-11.2059
▁loud	-11.2059
elecommunication	-11.2059
▁pipe	-11.2059
▁disagreement	-11.206
minent	-11.206
▁baseball	-11.206
▁retirement	-11.206
▁interaction	-11.206
▁collective	-11.206
▁claus	-11.2061
▁prosecution	-11.2061
cursion	-11.2061
▁honest	-11.2061
▁dragon	-11.2062
▁strait	-11.2062
▁stabb	-11.2062
▁partnership	-11.2062
▁attractive	-11.2063
▁brave	-11.2064
▁recommendation	-11.2064
▁rebound	-11.2064
▁iphone	-11.2065
tina	-11.2065
▁golf	-11.2065
▁opposit	-11.2066
▁tumbl	-11.2066
▁socialist	-11.2066
▁flick	-11.2066
▁extension	-11.2068
▁lieu	-11.2068
▁johan	-11.2071
▁baham	-11.2071
▁noon	-11.2071
▁ferg	-11.2071
▁background	-11.2072
manuel	-11.2073
▁homicide	-11.2074
▁bernard	-11.2074
▁lafa	-11.2074
▁ethical	-11.2074
▁facial	-11.2079
▁myster	-11.2079
▁inventor	-11.2081
▁pond	-11.2083
italia	-11.2084
▁mitch	-11.2085
ert	-11.2086
▁favorabl	-11.2088
▁measurement	-11.2088
▁thron	-11.209
▁melt	-11.2091
▁attraction	-11.2091
furt	-11.2094
hel	-11.2098
▁stripp	-11.2099
▁attitude	-11.2099
▁aero	-11.2099
ott	-11.2103
▁zan	-11.2109
▁eliminat	-11.2109
▁spur	-11.2115
▁bron	-11.2118
▁expression	-11.2123
comprehensi	-11.2124
dick	-11.2124
▁vanco	-11.2126
▁circulat	-11.2129
pont	-11.213
▁selection	-11.213
▁gust	-11.2135
ria	-11.2136
roll	-11.2138
▁lucky	-11.2147
▁cu	-11.2152
elo	-11.2158
▁regret	-11.2158
▁grat	-11.216
▁mud	-11.216
▁programm	-11.216
▁stunning	-11.2163
upper	-11.2164
▁cel	-11.2172
▁praise	-11.2174
▁harris	-11.2175
gne	-11.2186
▁intensifie	-11.219
▁lesson	-11.22
zo	-11.2202
▁entr	-11.2213
▁ferry	-11.2214
▁joy	-11.2218
▁galla	-11.2242
▁partial	-11.2243
▁cry	-11.2247
▁shouted	-11.2253
▁capabilit	-11.2257
▁salt	-11.2267
▁kath	-11.2272
▁fr	-11.2276
▁cair	-11.2277
▁mem	-11.2279
early	-11.2282
ode	-11.2295
▁coal	-11.23
▁grade	-11.23
▁interviewed	-11.2305
kumar	-11.2309
▁dominic	-11.2325
try	-11.2331
▁tele	-11.2336
bul	-11.2343
tha	-11.2344
▁romania	-11.2345
▁forecaster	-11.2351
▁gal	-11.2353
▁inde	-11.2358
▁acquire	-11.2363
▁lak	-11.2367
▁installed	-11.2375
rap	-11.2377
▁ham	-11.2379
▁glen	-11.2381
▁secur	-11.2395
▁principles	-11.2421
teria	-11.2422
nal	-11.2431
▁lashe	-11.2446
awi	-11.2455
bur	-11.2459
eological	-11.2463
oise	-11.2478
hand	-11.248
▁climber	-11.2492
▁gangs	-11.2499
mura	-11.251
nova	-11.2511
▁merg	-11.2537
▁jud	-11.2548
▁bu	-11.2559
▁nazi	-11.256
▁eco	-11.2564
▁cr	-11.2597
▁clap	-11.2603
▁smoker	-11.2604
▁tre	-11.261
bin	-11.2624
▁wil	-11.2626
▁yo	-11.2651
▁wu	-11.2666
▁eta	-11.2667
▁retaliat	-11.2709
och	-11.2713
▁lan	-11.2713
rea	-11.2719
tv	-11.2725
▁ports	-11.2725
▁swimm	-11.2725
libu	-11.2732
tenant	-11.2732
tery	-11.2748
▁choos	-11.2753
▁tent	-11.2766
▁eliminate	-11.2769
▁compos	-11.277
sight	-11.2786
investigator	-11.2787
defense	-11.2787
front	-11.2787
twenty	-11.2788
▁personalit	-11.279
israeli	-11.2798
▁slip	-11.2799
▁depos	-11.2802
zemi	-11.2808
▁counsel	-11.2813
▁frustrat	-11.2815
▁exam	-11.2821
▁swim	-11.2821
▁dop	-11.2823
▁disturb	-11.2824
▁psychiatr	-11.2824
▁charisma	-11.2825
▁engulf	-11.2826
▁unexpected	-11.2826
▁accompany	-11.2826
▁administrator	-11.2826
▁bimbo	-11.2826
▁evolve	-11.2826
▁expense	-11.2826
▁guatemala	-11.2826
▁kitchen	-11.2826
▁librar	-11.2826
▁monument	-11.2826
▁nervous	-11.2826
▁raquo	-11.2826
▁satisfie	-11.2826
▁scream	-11.2826
▁servant	-11.2826
▁triumph	-11.2826
▁hydro	-11.2826
▁stockpile	-11.2826
▁streak	-11.2826
▁frog	-11.2826
▁gravit	-11.2826
▁midfielder	-11.2826
▁smurf	-11.2826
▁fragil	-11.2826
▁kilogram	-11.2826
▁squeez	-11.2826
▁dwindl	-11.2826
▁telescope	-11.2826
▁accompanie	-11.2826
▁applau	-11.2826
▁fingerprint	-11.2826
▁mutual	-11.2826
▁saint	-11.2826
▁logistic	-11.2826
▁micke	-11.2826
▁draft	-11.2826
▁yasu	-11.2826
▁silent	-11.2826
▁pension	-11.2826
▁exposure	-11.2826
▁feather	-11.2827
aspar	-11.2827
▁admir	-11.2827
▁maoist	-11.2827
▁hormone	-11.2827
▁luft	-11.2827
▁boast	-11.2827
▁vista	-11.2827
▁avert	-11.2827
▁beverage	-11.2827
▁magistrate	-11.2827
▁pichushkin	-11.2827
tile	-11.2828
▁nerve	-11.2828
▁shank	-11.2828
▁instant	-11.2828
▁tribu	-11.2828
▁fabric	-11.2828
▁archive	-11.2828
▁dictatorship	-11.2829
▁colonel	-11.2829
▁weakness	-11.2829
▁burden	-11.2829
▁psychological	-11.2829
▁spell	-11.2829
▁acid	-11.283
▁injection	-11.283
▁vincen	-11.283
▁lugg	-11.283
▁respondent	-11.283
▁bmw	-11.2831
▁mccart	-11.2831
▁shutdown	-11.2831
▁amaz	-11.2831
▁mediator	-11.2831
▁compromise	-11.2832
▁barely	-11.2832
glio	-11.2832
▁legend	-11.2832
▁consultant	-11.2833
▁detective	-11.2833
▁achievement	-11.2834
▁basque	-11.2835
vac	-11.2835
▁warehouse	-11.2836
▁hamid	-11.2836
▁hover	-11.2837
▁borrow	-11.2837
▁div	-11.2837
▁operative	-11.2837
▁contribution	-11.2838
▁herald	-11.2839
▁belgian	-11.284
▁dug	-11.284
▁improvement	-11.2842
▁refiner	-11.2842
▁irra	-11.2846
▁motive	-11.2848
▁speculati	-11.2848
rim	-11.2848
▁occupie	-11.2849
▁requirement	-11.285
▁symptoms	-11.2851
▁jean	-11.2854
▁infections	-11.2857
▁dodge	-11.2857
span	-11.2858
▁explorer	-11.2858
lov	-11.2859
▁garb	-11.286
▁moore	-11.286
▁barak	-11.2861
shmi	-11.2863
ntao	-11.2865
▁finger	-11.2866
▁pic	-11.2867
tte	-11.2867
▁separat	-11.2868
▁useful	-11.2872
▁jess	-11.2875
endar	-11.2876
▁garr	-11.288
▁dies	-11.2881
clusive	-11.2881
mil	-11.2883
▁xu	-11.2885
▁consideration	-11.2887
▁hamper	-11.2888
▁mandat	-11.2891
▁hosts	-11.2891
▁chips	-11.2895
▁snapp	-11.2897
ament	-11.29
▁passion	-11.2902
▁rely	-11.2906
▁propose	-11.2908
▁academic	-11.2912
ect	-11.2912
▁mode	-11.2914
▁laser	-11.2921
▁remarkabl	-11.2924
▁dian	-11.293
▁slash	-11.2931
▁arl	-11.2934
▁publication	-11.2936
▁clue	-11.2936
are	-11.2943
▁carv	-11.2946
▁dick	-11.2947
▁cla	-11.2956
▁prec	-11.2962
▁supervis	-11.2963
made	-11.2965
▁fur	-11.2966
rough	-11.2966
▁donate	-11.2967
▁slide	-11.2968
▁lane	-11.2969
cann	-11.2976
hol	-11.2976
▁hal	-11.2983
ieu	-11.2984
▁riche	-11.2984
▁nikol	-11.2986
trick	-11.2989
▁lover	-11.2994
▁dependenc	-11.2998
seven	-11.2999
uni	-11.2999
pate	-11.3004
gis	-11.3008
att	-11.3011
▁beak	-11.3016
▁collid	-11.3025
itis	-11.3025
▁pills	-11.3026
▁samar	-11.3028
▁shipments	-11.3031
▁organic	-11.3035
▁monte	-11.3039
▁tail	-11.304
▁statistical	-11.3046
nique	-11.3048
▁dong	-11.3049
math	-11.3059
allah	-11.3061
trash	-11.3063
force	-11.307
▁bench	-11.3078
▁defin	-11.3087
▁rivers	-11.309
▁grounds	-11.3094
▁examine	-11.3099
▁sued	-11.3102
leg	-11.3104
▁arrangements	-11.3107
▁marking	-11.3124
▁educat	-11.3137
▁semi	-11.3157
▁poster	-11.3162
▁meal	-11.3164
cap	-11.3164
wind	-11.3181
▁bor	-11.3193
▁belly	-11.32
rum	-11.3212
rus	-11.3229
▁guin	-11.3238
jer	-11.3249
▁tension	-11.325
▁wy	-11.3269
rmed	-11.3272
▁seize	-11.3272
arian	-11.3276
ition	-11.3283
termination	-11.3286
▁harmon	-11.3299
▁emerg	-11.3303
rang	-11.3308
▁lash	-11.3309
une	-11.3316
elhof	-11.3319
ico	-11.3323
lg	-11.3324
▁nik	-11.3326
runch	-11.3328
▁tribes	-11.3337
mao	-11.3338
nor	-11.334
▁usa	-11.3344
▁wipe	-11.3351
fax	-11.3355
▁ob	-11.3365
▁cooperate	-11.3375
▁silence	-11.3381
▁communicate	-11.3382
▁soul	-11.3394
▁rag	-11.34
ndra	-11.3409
▁bend	-11.341
▁appli	-11.3432
unk	-11.3465
▁ron	-11.3465
▁shout	-11.3466
stra	-11.3472
kor	-11.3473
ida	-11.3473
▁intervene	-11.3476
▁pur	-11.3478
oding	-11.3489
▁mir	-11.3493
gs	-11.3499
▁reviv	-11.3507
▁please	-11.353
▁mild	-11.3531
▁raj	-11.3542
▁architect	-11.3548
cit	-11.3552
▁laugh	-11.3555
mann	-11.3572
▁skip	-11.3576
▁contend	-11.3594
▁woo	-11.3598
place	-11.361
dium	-11.361
shed	-11.3613
profit	-11.362
madrid	-11.362
decided	-11.362
doctors	-11.362
piece	-11.3621
imer	-11.3621
▁compli	-11.3622
recent	-11.3626
jab	-11.3627
▁algeria	-11.3628
▁prefer	-11.3629
▁libya	-11.3629
bank	-11.363
▁drunk	-11.3631
turk	-11.3632
robert	-11.3633
▁evacu	-11.3634
▁emitt	-11.3634
▁ent	-11.3635
▁diploma	-11.3639
pakistani	-11.364
workers	-11.3645
american	-11.3646
▁ignore	-11.365
▁recogni	-11.3652
▁accomplish	-11.3655
▁disagree	-11.3655
llery	-11.3658
aware	-11.3658
▁acquitt	-11.3659
▁contaminat	-11.3659
▁escort	-11.3659
▁bystander	-11.3659
▁cantaloupe	-11.3659
▁caribbean	-11.3659
▁cautious	-11.3659
▁cultivat	-11.3659
▁decisive	-11.3659
▁douglas	-11.3659
▁episode	-11.3659
▁ignit	-11.3659
▁irresponsibl	-11.3659
▁nutrient	-11.3659
▁rockefeller	-11.3659
▁scuffle	-11.3659
▁sequence	-11.3659
▁spectators	-11.3659
▁thymus	-11.3659
▁whistle	-11.3659
▁genuine	-11.3659
▁pistol	-11.3659
▁gesture	-11.3659
▁miserable	-11.3659
▁zawah	-11.3659
▁superior	-11.3659
▁enact	-11.3659
▁ceiling	-11.3659
▁armenian	-11.3659
▁crater	-11.3659
▁cinema	-11.3659
▁cecil	-11.3659
▁summon	-11.3659
▁absent	-11.3659
▁overdose	-11.3659
▁boulder	-11.3659
▁inhabit	-11.3659
▁retain	-11.3659
▁admission	-11.3659
▁slogan	-11.3659
▁supermarket	-11.3659
▁fuji	-11.3659
▁monster	-11.3659
▁optimistic	-11.366
▁simpson	-11.366
▁sermon	-11.366
▁destination	-11.366
▁alfred	-11.366
▁cristian	-11.366
▁tribute	-11.3661
▁romantic	-11.3661
▁subsequent	-11.3661
▁footprint	-11.3661
▁headache	-11.3662
▁haul	-11.3662
▁cream	-11.3662
▁gib	-11.3664
▁conservationist	-11.3664
nction	-11.3665
▁mammal	-11.3665
fidel	-11.3665
▁zebra	-11.3666
▁objective	-11.3667
rbala	-11.3667
▁mosquito	-11.3668
▁negro	-11.3668
▁minne	-11.3668
▁utilit	-11.3668
▁davyd	-11.3668
▁kiev	-11.3668
▁keat	-11.3669
▁parole	-11.3669
rit	-11.367
▁poison	-11.3671
▁tan	-11.3672
rimp	-11.3672
▁shame	-11.3672
▁slave	-11.3672
▁pois	-11.3673
▁milk	-11.3673
▁adequate	-11.3675
▁deutsch	-11.3675
▁efficient	-11.3675
german	-11.3675
▁instruction	-11.368
▁alvar	-11.3681
▁hate	-11.3682
▁kanda	-11.3683
▁update	-11.3684
▁pride	-11.3684
▁consent	-11.3686
▁dire	-11.3688
▁kang	-11.369
forest	-11.3697
▁hometown	-11.3699
▁fernando	-11.3699
▁heighten	-11.37
▁lit	-11.3703
▁pour	-11.3705
▁wol	-11.3713
▁spice	-11.3714
▁sicken	-11.3718
log	-11.3724
▁gard	-11.3726
liers	-11.3728
▁bother	-11.3729
▁polit	-11.3733
▁fal	-11.3734
▁stream	-11.3737
ahn	-11.3739
mber	-11.3743
▁clemen	-11.3744
▁layer	-11.3746
▁panic	-11.3749
▁blog	-11.3751
▁keeper	-11.376
▁trek	-11.3766
▁thu	-11.3771
▁mona	-11.3773
fish	-11.3784
▁dome	-11.3786
▁skipp	-11.3795
▁silv	-11.3796
beki	-11.3797
▁teaching	-11.3805
▁nicole	-11.3812
itive	-11.3815
▁rash	-11.3815
▁revive	-11.3818
mori	-11.3818
▁bre	-11.382
▁lender	-11.3823
▁cord	-11.383
ife	-11.3835
▁fog	-11.3836
▁disk	-11.3837
dela	-11.3841
▁recommends	-11.3858
▁deepen	-11.386
▁liberat	-11.3865
pher	-11.387
▁barks	-11.3885
▁tat	-11.3898
mail	-11.3904
bad	-11.3905
▁java	-11.3917
▁len	-11.3924
▁clippe	-11.3933
lick	-11.3936
▁cartel	-11.3938
plane	-11.3939
▁hut	-11.3947
▁rings	-11.3952
lam	-11.3957
errill	-11.3962
afford	-11.3966
▁horses	-11.3966
▁fuse	-11.397
▁dealer	-11.3981
▁employer	-11.3986
zi	-11.3993
▁chole	-11.4
▁matt	-11.4008
▁pl	-11.401
▁colomb	-11.4012
▁camero	-11.4013
▁dance	-11.4016
▁baa	-11.403
▁nest	-11.4047
▁regulate	-11.4064
via	-11.4064
▁nose	-11.4071
▁gue	-11.4084
▁teach	-11.4087
lamin	-11.4098
▁principle	-11.4118
zawa	-11.4121
teen	-11.4123
▁circle	-11.4124
▁bern	-11.4129
▁fle	-11.4135
▁bobb	-11.4139
▁voc	-11.4141
arch	-11.4141
morga	-11.4146
vian	-11.4147
▁gunn	-11.4148
▁observ	-11.4159
lab	-11.4164
gm	-11.4167
▁robin	-11.4188
▁solan	-11.419
zer	-11.4198
▁jaz	-11.4199
som	-11.422
▁pul	-11.4252
hm	-11.4265
▁clip	-11.4276
chu	-11.4283
▁commun	-11.4289
rak	-11.4305
cotte	-11.4308
▁todd	-11.4319
▁resemble	-11.432
west	-11.432
▁pile	-11.4322
▁repeat	-11.4348
fia	-11.4354
jum	-11.4365
ficial	-11.4368
▁bran	-11.4371
tress	-11.4379
▁eas	-11.4389
▁exten	-11.4392
▁tab	-11.4402
▁cop	-11.4404
▁marc	-11.441
▁disclose	-11.4423
▁sampl	-11.4457
▁xi	-11.4464
lash	-11.4469
▁accelerate	-11.4479
▁luck	-11.4479
▁sara	-11.448
▁nationalist	-11.4481
▁niger	-11.4483
▁skeptic	-11.449
▁doubl	-11.4493
russia	-11.4498
writ	-11.4499
▁tactic	-11.45
▁holder	-11.4502
high	-11.4513
▁pray	-11.4515
▁emotion	-11.4523
▁sala	-11.4523
point	-11.4527
▁dav	-11.4528
michael	-11.453
political	-11.453
video	-11.453
securit	-11.453
paul	-11.453
▁zha	-11.4532
local	-11.4532
lena	-11.4536
appropriate	-11.4536
rescuer	-11.4537
person	-11.4537
lift	-11.4538
▁deport	-11.4538
▁observat	-11.4543
▁oct	-11.4544
▁strange	-11.4546
▁refer	-11.4548
▁permit	-11.4548
▁farming	-11.455
▁contra	-11.4556
▁grip	-11.4559
▁scrap	-11.4561
▁roug	-11.4565
kath	-11.4566
▁revis	-11.4566
ecutive	-11.4567
▁dyna	-11.4568
▁disapprov	-11.4568
▁infiltrat	-11.4568
▁reprocess	-11.4568
▁sympath	-11.4568
▁bahrain	-11.4568
▁beautiful	-11.4568
▁bizarre	-11.4568
▁blockbuster	-11.4568
▁cosmonaut	-11.4568
▁djamena	-11.4568
▁motorbike	-11.4568
▁paparazz	-11.4568
▁sketch	-11.4568
▁smooth	-11.4568
▁vomit	-11.4568
▁cancellation	-11.4568
▁diminish	-11.4568
▁fractur	-11.4568
▁valuable	-11.4568
▁atrocit	-11.4568
▁chronic	-11.4568
▁clerk	-11.4568
▁crystal	-11.4568
▁curtain	-11.4568
▁vigil	-11.4568
▁maneuver	-11.4568
▁outlaw	-11.4568
▁depth	-11.4568
▁uprising	-11.4568
fraction	-11.4568
▁erect	-11.4568
▁uncomm	-11.4568
▁cousin	-11.4568
▁collar	-11.4568
▁bolster	-11.4568
▁gradual	-11.4568
▁steam	-11.4568
▁blind	-11.4568
▁copper	-11.4568
▁physician	-11.4569
▁reception	-11.4569
▁shrink	-11.4569
▁distress	-11.4569
▁monaster	-11.4569
▁scholar	-11.4569
▁echo	-11.4569
▁unpopular	-11.4569
▁hispanic	-11.4569
▁wander	-11.4569
▁talent	-11.4569
caretaker	-11.4569
▁incredibl	-11.457
▁propell	-11.457
▁schwarz	-11.4571
▁serge	-11.4571
▁calorie	-11.4571
▁prolong	-11.4571
▁standstill	-11.4571
knox	-11.4571
▁lamp	-11.4572
▁steer	-11.4572
▁characteristic	-11.4572
▁brick	-11.4573
▁budd	-11.4573
▁drill	-11.4573
▁constitute	-11.4574
▁shadow	-11.4574
▁anonymous	-11.4574
▁breast	-11.4575
▁devil	-11.4575
▁doom	-11.4576
▁exclud	-11.4577
▁scientolog	-11.4577
▁kaka	-11.4577
▁stirr	-11.4577
▁flare	-11.4577
▁distributor	-11.4577
▁translat	-11.4577
station	-11.4577
▁outpost	-11.4577
▁divert	-11.4578
▁libi	-11.4578
▁transparent	-11.4578
▁stewar	-11.4578
▁deem	-11.458
▁comput	-11.4583
▁alcoholic	-11.4584
ritis	-11.4585
hansa	-11.4586
▁stemm	-11.4586
▁stern	-11.4587
▁grace	-11.4588
▁lat	-11.4588
▁bleed	-11.4589
▁fisher	-11.4591
▁reopen	-11.4591
jak	-11.4592
▁zap	-11.4592
▁superb	-11.4592
▁plagu	-11.4593
▁emerge	-11.4593
▁fold	-11.4594
▁developer	-11.4594
▁creator	-11.4595
▁knight	-11.4598
▁aborigin	-11.4598
▁bat	-11.4603
▁thirt	-11.4605
▁unrel	-11.4606
▁lexi	-11.4606
▁reconstruction	-11.4606
▁brig	-11.4606
▁hawa	-11.4607
▁fabi	-11.4609
▁capitalist	-11.461
▁freeze	-11.4611
▁keit	-11.4612
▁melan	-11.4613
▁cro	-11.4613
▁jung	-11.4614
▁freez	-11.4615
asian	-11.4616
▁hacker	-11.4618
▁outlet	-11.4619
▁elit	-11.462
▁albert	-11.4622
▁clan	-11.4625
▁airship	-11.4625
▁castle	-11.4628
▁glad	-11.4629
▁hook	-11.463
▁feat	-11.4631
▁examiner	-11.4633
cheema	-11.4636
rkele	-11.4638
▁kg	-11.4641
▁graz	-11.4641
▁jab	-11.4649
▁enhance	-11.4651
▁slope	-11.4653
▁rid	-11.4654
▁retire	-11.4659
▁reliev	-11.4675
▁procession	-11.4676
boris	-11.4676
anti	-11.4697
▁keen	-11.4703
▁choi	-11.4704
▁alien	-11.4704
▁outline	-11.4713
▁interesting	-11.4714
▁cycle	-11.4717
▁quantit	-11.4721
▁corre	-11.4722
▁optimis	-11.4724
▁lucian	-11.4727
soon	-11.4729
▁spike	-11.4733
▁ub	-11.4736
▁gro	-11.4744
hen	-11.4751
pro	-11.4762
erran	-11.4762
mega	-11.4764
tz	-11.4769
atero	-11.4773
▁chill	-11.4781
▁bil	-11.4782
▁steadi	-11.4782
▁georgian	-11.4785
▁trailer	-11.48
ink	-11.4802
▁anim	-11.481
▁lauren	-11.4811
kh	-11.482
▁leone	-11.4828
ara	-11.4829
rup	-11.4833
▁slum	-11.4837
▁corn	-11.4838
▁motivat	-11.4841
▁observe	-11.4844
▁mau	-11.4858
▁extremis	-11.4864
▁preach	-11.4865
zel	-11.4882
bil	-11.4883
▁kerch	-11.4884
atlant	-11.4885
▁broker	-11.4896
▁cleaner	-11.4902
▁impressi	-11.4907
atic	-11.4909
▁yog	-11.4911
▁morale	-11.4921
ill	-11.4923
▁arena	-11.4954
▁wip	-11.4954
▁dun	-11.4959
▁den	-11.4959
▁dose	-11.4961
▁sil	-11.4964
rash	-11.4965
▁zo	-11.4977
▁metro	-11.4979
yuz	-11.4985
▁godd	-11.4995
esco	-11.5002
ister	-11.5015
▁vol	-11.5015
gie	-11.5034
▁basin	-11.5047
rill	-11.5058
dam	-11.5065
▁expanding	-11.5082
official	-11.5089
juan	-11.5096
▁disperse	-11.51
tech	-11.511
▁tip	-11.5132
▁lett	-11.5135
lop	-11.5138
▁toppl	-11.5144
▁ev	-11.5144
▁therap	-11.5146
rosa	-11.5147
▁lag	-11.5157
vy	-11.5174
plan	-11.5182
roit	-11.5182
▁impress	-11.5189
▁fift	-11.5191
ology	-11.5203
real	-11.5238
erie	-11.5251
▁juni	-11.5256
▁det	-11.526
fael	-11.5264
▁designer	-11.5267
▁distribute	-11.5292
amount	-11.5296
▁documentar	-11.53
ood	-11.5322
tsu	-11.5327
nati	-11.5331
cla	-11.5342
chines	-11.5343
▁prostitut	-11.5344
▁tha	-11.5349
ears	-11.5361
vani	-11.5371
▁spe	-11.5373
bouc	-11.5376
▁subsidi	-11.5383
apped	-11.5389
niste	-11.5393
asco	-11.54
▁stra	-11.541
▁briefing	-11.541
pf	-11.5415
▁inspire	-11.5416
▁robbe	-11.5426
sign	-11.5431
▁stunn	-11.5432
break	-11.5433
▁kam	-11.5435
ility	-11.5442
lit	-11.5458
anga	-11.5458
wear	-11.5483
▁mandate	-11.5488
mitag	-11.5488
giv	-11.5499
america	-11.55
▁kha	-11.5506
mun	-11.5508
▁marin	-11.551
teau	-11.5513
▁nick	-11.5517
▁kidnap	-11.5519
▁medit	-11.5523
▁emergenc	-11.5527
▁glas	-11.5528
castle	-11.5528
thirt	-11.5528
brown	-11.553
follow	-11.553
kabul	-11.553
specifi	-11.553
thanks	-11.553
▁formation	-11.5531
▁graves	-11.5534
hillary	-11.5535
fox	-11.5536
aqu	-11.5537
humi	-11.5537
▁instruct	-11.5538
▁substanti	-11.5539
cular	-11.5542
▁ethiopia	-11.5545
creat	-11.5545
xel	-11.5545
▁snipe	-11.5545
▁inspect	-11.5548
white	-11.5548
▁hack	-11.5549
▁allen	-11.5554
▁accommodat	-11.5556
guard	-11.5557
scribe	-11.5559
human	-11.556
▁addict	-11.556
▁vent	-11.556
oi	-11.5562
▁orphan	-11.5566
▁flaw	-11.5567
▁intent	-11.5567
egger	-11.5568
lroo	-11.5568
▁differ	-11.5568
▁simultaneous	-11.5568
▁battalion	-11.5568
▁benjamin	-11.5568
▁brilliant	-11.5568
▁cathedral	-11.5568
▁companion	-11.5568
▁concentration	-11.5568
▁diarrhea	-11.5568
▁extinct	-11.5568
▁fraudulent	-11.5568
▁glimpse	-11.5568
▁horror	-11.5568
▁ingredient	-11.5568
▁kazakh	-11.5568
▁netscape	-11.5568
▁parachute	-11.5568
▁predator	-11.5568
▁prefectur	-11.5568
▁proclaim	-11.5568
▁retract	-11.5568
▁taxpayer	-11.5568
▁technician	-11.5568
▁unleash	-11.5568
▁curator	-11.5568
▁deplor	-11.5568
▁initiat	-11.5568
▁reputation	-11.5568
▁ritual	-11.5568
▁sherpa	-11.5568
▁portrait	-11.5568
▁barbara	-11.5568
▁pioneer	-11.5568
▁tragic	-11.5568
▁compil	-11.5568
▁depriv	-11.5568
▁implant	-11.5568
▁robust	-11.5568
▁scheme	-11.5568
▁volume	-11.5568
▁jacqu	-11.5568
▁chemist	-11.5568
▁restart	-11.5568
▁evangelical	-11.5568
▁sulli	-11.5568
▁reign	-11.5568
▁infringe	-11.5568
▁osbourne	-11.5568
▁spawn	-11.5568
▁crane	-11.5568
▁render	-11.5568
▁signature	-11.5568
▁abnormal	-11.5568
▁bounc	-11.5568
▁prescription	-11.5568
▁glid	-11.5568
▁nelson	-11.5568
▁horrifi	-11.5568
▁drain	-11.5569
prom	-11.5569
▁convey	-11.5569
▁carniv	-11.5569
▁animated	-11.5569
▁bruce	-11.5569
▁swarm	-11.5569
▁blogger	-11.5569
▁nightclub	-11.5569
▁jefferson	-11.5569
▁epidemic	-11.5569
▁nightmare	-11.5569
▁grammy	-11.5569
▁constructive	-11.5569
▁profound	-11.5569
iquit	-11.5569
▁ditch	-11.5569
▁deadlock	-11.557
▁random	-11.557
▁credibl	-11.557
▁glori	-11.557
▁zhu	-11.557
▁classroom	-11.557
▁cedar	-11.557
▁settl	-11.557
▁candle	-11.557
▁nickel	-11.557
▁classmate	-11.557
▁jihadist	-11.5571
▁cramp	-11.5571
▁pupp	-11.5571
▁mikh	-11.5571
▁contentious	-11.5571
▁evans	-11.5571
▁dense	-11.5571
uters	-11.5571
▁cluster	-11.5572
▁trench	-11.5572
▁glow	-11.5572
▁liais	-11.5572
▁greg	-11.5572
omaha	-11.5573
▁ginger	-11.5573
▁extradit	-11.5573
▁circuit	-11.5573
▁craz	-11.5573
▁regiment	-11.5573
▁desk	-11.5573
▁chore	-11.5573
▁zub	-11.5573
▁ukrainian	-11.5574
▁tolerate	-11.5574
▁assertion	-11.5574
▁rhino	-11.5574
▁privilege	-11.5574
▁transcript	-11.5574
▁examination	-11.5575
▁lump	-11.5575
▁hydra	-11.5576
▁lucas	-11.5576
ttle	-11.5576
▁extract	-11.5576
▁youngster	-11.5577
nnett	-11.5577
▁barrage	-11.5577
▁blu	-11.5578
▁formula	-11.5578
▁torrent	-11.5578
▁consultation	-11.5578
solicit	-11.5578
▁olive	-11.5579
▁downplay	-11.5579
closure	-11.5579
▁civi	-11.5579
▁arson	-11.558
▁casp	-11.5581
▁billboard	-11.5582
uver	-11.5582
▁oak	-11.5582
▁accurate	-11.5583
▁meyer	-11.5583
▁bias	-11.5583
mbled	-11.5584
▁fence	-11.5585
▁archaeologist	-11.5586
▁suppress	-11.5586
▁homo	-11.5587
ronto	-11.5587
▁cliff	-11.5587
▁cinc	-11.559
▁thigh	-11.559
▁hyper	-11.5591
▁wang	-11.5591
▁courthouse	-11.5591
▁starv	-11.5592
▁modest	-11.5594
unch	-11.5595
▁bump	-11.5596
irna	-11.5596
▁lope	-11.5601
▁mob	-11.5601
inburg	-11.5602
▁hanu	-11.5602
▁grain	-11.5602
▁prodi	-11.5603
▁drunken	-11.5603
▁disabl	-11.5604
▁electro	-11.5605
▁contestant	-11.5605
▁rental	-11.5605
▁spurr	-11.5608
▁bash	-11.5609
▁beatle	-11.5609
▁rajas	-11.5609
▁jaw	-11.561
rmal	-11.5611
coon	-11.5612
▁ufo	-11.5615
▁vest	-11.5619
▁kisses	-11.5619
▁twenty	-11.5624
▁baton	-11.5624
▁manual	-11.5625
▁preserv	-11.5625
▁passe	-11.5629
mphan	-11.5637
▁pesh	-11.5637
▁tipp	-11.5641
▁soda	-11.5642
▁unbea	-11.5644
▁proto	-11.5644
▁edit	-11.5644
▁seren	-11.5651
lb	-11.5653
hap	-11.5654
current	-11.5656
▁blessing	-11.5657
▁pants	-11.5661
▁tang	-11.5667
ziz	-11.5667
▁simon	-11.5668
▁wei	-11.5668
▁hatch	-11.567
▁arra	-11.5678
▁nett	-11.5679
▁distan	-11.5693
▁stray	-11.5694
▁gia	-11.57
▁chess	-11.57
pulsi	-11.5702
▁syrian	-11.5711
▁marie	-11.572
▁trainer	-11.572
▁orchestrat	-11.572
ustin	-11.5722
▁neal	-11.5724
▁antho	-11.5726
▁faction	-11.5731
▁affi	-11.5735
▁wat	-11.5738
▁whiske	-11.5742
▁difficulty	-11.5754
▁reserv	-11.5758
▁cape	-11.5758
iena	-11.5759
call	-11.5761
▁mao	-11.5763
▁mul	-11.5778
along	-11.5783
cra	-11.5784
oni	-11.5784
imo	-11.5786
rio	-11.5791
united	-11.5791
ardo	-11.5792
nnis	-11.5794
nah	-11.5802
▁spo	-11.5802
ique	-11.5805
▁slot	-11.5805
▁destabilize	-11.581
▁trin	-11.5815
dmit	-11.5817
▁flatt	-11.5822
▁exchang	-11.5834
▁container	-11.5839
▁acro	-11.5841
spoke	-11.5849
▁bever	-11.585
▁karl	-11.5856
▁chased	-11.5864
amine	-11.5867
▁zealander	-11.5886
▁counterterroris	-11.5893
▁slowing	-11.5901
▁sim	-11.5904
▁cab	-11.5917
▁appreciate	-11.5918
▁helen	-11.5918
▁dive	-11.5919
izer	-11.5921
piter	-11.5928
urai	-11.5934
illian	-11.5947
▁ec	-11.5952
▁bett	-11.5955
gal	-11.5968
▁khali	-11.597
gly	-11.5971
mak	-11.5975
gua	-11.5979
hmer	-11.5986
▁rott	-11.5988
▁proven	-11.6029
▁dippe	-11.6048
▁tra	-11.6052
amed	-11.6061
▁fare	-11.6063
nian	-11.6074
▁commemorate	-11.6076
▁jamm	-11.6076
olic	-11.6083
scar	-11.6091
▁sung	-11.6101
late	-11.6106
▁maha	-11.6112
acute	-11.6118
▁litera	-11.6124
elvi	-11.6126
oid	-11.6129
ito	-11.6135
eful	-11.614
▁muha	-11.6153
▁universit	-11.6153
▁dell	-11.6155
cini	-11.6155
spective	-11.6156
▁interviewer	-11.6159
ndez	-11.6169
decent	-11.617
erous	-11.6172
▁debat	-11.6181
▁colonial	-11.6184
▁ratio	-11.6192
itted	-11.6199
mmy	-11.6207
▁wilder	-11.6211
etic	-11.6223
▁stud	-11.6225
rob	-11.6232
oir	-11.6237
bicycle	-11.6257
▁plunge	-11.6257
▁lev	-11.6259
▁rug	-11.6265
part	-11.627
core	-11.6272
reze	-11.6283
▁matte	-11.6288
ouf	-11.6292
invitation	-11.6297
chen	-11.6302
▁mario	-11.6314
dominant	-11.6314
▁patter	-11.6314
▁kun	-11.633
zine	-11.6338
▁tik	-11.6353
▁ic	-11.6398
llen	-11.6402
liberation	-11.6403
▁wm	-11.6403
▁associates	-11.6411
▁tran	-11.6413
▁reunite	-11.6417
net	-11.6418
aj	-11.642
vil	-11.6439
ehr	-11.6449
▁uncertain	-11.6451
▁shr	-11.647
guet	-11.6474
moto	-11.6476
▁stamp	-11.6485
▁holm	-11.649
stitution	-11.649
▁franc	-11.6517
pur	-11.6532
▁overwhelm	-11.6532
villa	-11.6546
▁gin	-11.656
kid	-11.6574
▁graduat	-11.6577
▁sensation	-11.6588
arro	-11.6604
ysse	-11.6608
▁gla	-11.6611
▁edg	-11.6612
▁captiv	-11.6613
sud	-11.6613
loha	-11.662
israel	-11.6626
beat	-11.6628
▁rib	-11.6629
rate	-11.6632
lar	-11.6635
dida	-11.6637
violen	-11.664
chief	-11.664
continent	-11.664
model	-11.6641
morning	-11.6641
media	-11.6641
opposition	-11.6641
initial	-11.6641
turkey	-11.6642
analyst	-11.6642
parent	-11.6642
frank	-11.6642
bridge	-11.6642
rge	-11.6643
unlike	-11.6644
peter	-11.6645
richard	-11.6645
▁combine	-11.6646
▁fundrais	-11.6646
shot	-11.6646
will	-11.6649
safe	-11.6651
phone	-11.6653
chris	-11.6653
▁unp	-11.6653
neil	-11.666
▁qualifie	-11.666
▁prosecut	-11.6661
chica	-11.6661
alban	-11.6665
onica	-11.6674
▁chun	-11.6675
ipi	-11.6675
▁archaeologi	-11.6676
hurt	-11.6678
▁column	-11.6678
▁neutral	-11.6678
ndition	-11.6679
▁absorb	-11.6679
▁renounc	-11.6679
▁avenue	-11.6679
▁confiscate	-11.6679
▁encrypt	-11.6679
▁evaluate	-11.6679
▁franchise	-11.6679
▁gharial	-11.6679
▁gossip	-11.6679
▁inflict	-11.6679
▁insufficient	-11.6679
▁jaguar	-11.6679
▁mastermind	-11.6679
▁negligen	-11.6679
▁obstacle	-11.6679
▁peanut	-11.6679
▁pedestrian	-11.6679
▁purported	-11.6679
▁sufficient	-11.6679
▁consolidat	-11.6679
▁dimension	-11.6679
▁fiction	-11.6679
▁gadget	-11.6679
▁ounce	-11.6679
▁banteng	-11.6679
▁relevan	-11.6679
▁stomach	-11.6679
▁transmitte	-11.6679
▁collaborati	-11.6679
▁homosexual	-11.6679
▁rehab	-11.6679
▁sibling	-11.6679
▁spiel	-11.6679
▁thwart	-11.6679
▁denucleariz	-11.6679
▁bolivia	-11.6679
▁storage	-11.6679
▁incentive	-11.6679
▁pornograph	-11.6679
▁disgu	-11.6679
▁excuse	-11.6679
▁definitive	-11.6679
▁perceiv	-11.6679
▁nickname	-11.6679
▁paleontologist	-11.6679
▁thorough	-11.6679
▁suitcase	-11.6679
▁inflammat	-11.6679
ravag	-11.6679
▁emmanuel	-11.6679
▁ankle	-11.6679
▁gartner	-11.6679
▁reptile	-11.668
▁intervention	-11.668
▁impass	-11.668
▁unhapp	-11.668
▁crab	-11.668
▁discount	-11.668
▁allerg	-11.668
▁hurl	-11.668
▁mysterious	-11.668
haus	-11.668
▁claud	-11.668
▁harass	-11.668
▁veterinarian	-11.668
▁astonish	-11.668
▁fantastic	-11.668
▁mubar	-11.668
▁blunt	-11.6681
▁introduction	-11.6681
▁indoor	-11.6681
▁patent	-11.6681
▁motel	-11.6681
▁stump	-11.6681
▁therapist	-11.6681
▁sugar	-11.6681
▁synd	-11.6681
▁safeguard	-11.6681
▁unify	-11.6682
▁layoff	-11.6682
▁dependent	-11.6682
▁azerbaijan	-11.6682
▁devot	-11.6682
▁blackmail	-11.6682
▁elevator	-11.6682
▁drift	-11.6683
▁charr	-11.6683
▁walter	-11.6683
▁discard	-11.6683
▁chunk	-11.6683
▁paddl	-11.6683
▁unchang	-11.6684
▁theatre	-11.6684
▁titan	-11.6685
▁dili	-11.6685
▁uncla	-11.6686
▁buzz	-11.6686
stick	-11.6687
▁installation	-11.6687
▁condon	-11.6688
▁intensive	-11.6688
▁slapp	-11.6688
xis	-11.6689
▁assess	-11.6689
▁insect	-11.6689
▁benze	-11.6689
▁knut	-11.6689
▁coastline	-11.669
▁rotat	-11.669
▁costume	-11.6691
▁pink	-11.6691
▁windsor	-11.6692
▁feline	-11.6692
▁pegg	-11.6693
▁nile	-11.6693
▁historian	-11.6694
▁captor	-11.6694
▁reluctant	-11.6694
mel	-11.6694
▁terrible	-11.6694
choa	-11.6695
report	-11.6695
▁coward	-11.6696
▁cabin	-11.6698
▁thorn	-11.6698
▁harper	-11.67
▁honey	-11.6701
▁delight	-11.6701
▁trap	-11.6702
mexic	-11.6702
▁intel	-11.6703
▁plug	-11.6703
▁farmland	-11.6704
liot	-11.6705
▁jobless	-11.6705
▁stale	-11.6706
guil	-11.6707
▁stair	-11.6707
▁rattl	-11.6707
▁marco	-11.6707
magnetic	-11.6708
▁balk	-11.6709
▁insur	-11.671
cna	-11.6711
▁roam	-11.6712
▁pit	-11.6713
▁cox	-11.6713
lot	-11.6714
▁ivan	-11.6715
▁horn	-11.6715
▁moai	-11.6716
▁strapp	-11.6716
▁cheng	-11.6717
▁preferr	-11.672
▁capit	-11.672
▁digg	-11.6721
▁charl	-11.6723
▁batch	-11.6724
▁leonard	-11.6724
hor	-11.6724
▁reck	-11.6725
▁brace	-11.6729
▁arise	-11.673
▁isabel	-11.6732
▁foul	-11.6734
▁oxf	-11.6736
▁reasonable	-11.6736
ratchet	-11.6737
▁dignitar	-11.6738
▁crest	-11.6741
▁amend	-11.6743
▁maid	-11.6745
nold	-11.675
▁lance	-11.6751
▁forbidd	-11.6753
▁eurosta	-11.6756
▁mosle	-11.6764
▁amus	-11.6764
▁austrian	-11.6764
▁wayne	-11.6765
▁cough	-11.6766
▁leather	-11.6768
▁tuck	-11.677
▁plains	-11.6772
▁biti	-11.6775
▁rud	-11.6777
▁poul	-11.6777
▁joan	-11.6778
▁downsiz	-11.6779
suit	-11.6782
▁mend	-11.6783
▁processor	-11.6783
▁filling	-11.6783
▁visitation	-11.679
▁bribe	-11.679
▁publicize	-11.6796
anda	-11.6796
▁hood	-11.6799
nne	-11.68
▁cove	-11.6803
ulu	-11.6805
xin	-11.6815
▁messi	-11.6816
▁defender	-11.6819
▁porter	-11.6823
▁degrad	-11.6826
▁lynn	-11.6828
mascu	-11.6832
rei	-11.6833
▁parish	-11.6847
▁humiliat	-11.6851
joko	-11.6869
▁presid	-11.687
jan	-11.6872
▁slim	-11.6874
quet	-11.6881
lav	-11.6894
ternal	-11.6903
▁myth	-11.6909
rom	-11.6913
▁cannon	-11.6915
▁uncertaint	-11.6918
▁blitz	-11.692
▁interven	-11.6931
sole	-11.6941
onic	-11.6942
aria	-11.6942
▁slice	-11.6943
▁retrieve	-11.695
▁spare	-11.6952
▁lap	-11.6958
▁holl	-11.6959
▁incit	-11.696
▁demonstrat	-11.696
hiro	-11.6961
▁wag	-11.6973
▁cam	-11.698
▁lure	-11.6989
▁stimul	-11.6991
▁nori	-11.6995
vich	-11.7009
isch	-11.7012
habi	-11.7013
▁tile	-11.7013
▁advocate	-11.7044
xvi	-11.7049
stage	-11.7051
wall	-11.7053
▁qing	-11.7056
hart	-11.7059
mine	-11.7069
▁unite	-11.7076
nym	-11.7079
▁gamble	-11.7082
▁rem	-11.709
▁levi	-11.7093
▁qass	-11.7106
▁laur	-11.7112
▁hun	-11.7119
▁inhal	-11.7119
▁calv	-11.7131
shir	-11.7159
▁occasional	-11.7166
haria	-11.717
india	-11.7181
hang	-11.7192
armament	-11.7193
▁topple	-11.7197
ubai	-11.7198
omi	-11.7199
▁organize	-11.72
▁musa	-11.7205
▁outfit	-11.7207
▁mess	-11.7215
▁tenn	-11.7219
berger	-11.7222
▁saba	-11.7229
▁performer	-11.7242
▁rode	-11.7252
▁dad	-11.7258
▁henri	-11.726
ieve	-11.726
sphere	-11.7265
rocker	-11.7267
hold	-11.7268
emon	-11.7275
▁bau	-11.7283
▁obes	-11.7287
faye	-11.7311
▁sanit	-11.7326
ban	-11.7329
tical	-11.7336
▁hart	-11.7348
reva	-11.7362
▁cort	-11.7368
▁squa	-11.7372
▁zin	-11.7374
mur	-11.7382
▁mono	-11.7384
▁gre	-11.739
▁abilit	-11.7391
▁button	-11.7391
▁lega	-11.7404
▁ensur	-11.7416
▁assume	-11.7418
face	-11.744
▁mull	-11.7442
▁foe	-11.7447
▁curv	-11.7448
mble	-11.7463
▁carli	-11.7466
nik	-11.7467
▁heel	-11.747
▁horse	-11.7476
▁arrangement	-11.7482
▁volunteer	-11.7483
▁laborer	-11.7486
▁math	-11.749
▁colo	-11.7498
▁alleg	-11.7499
▁comb	-11.7504
nfl	-11.7504
▁smile	-11.751
ike	-11.7548
▁bun	-11.7557
uck	-11.7563
graph	-11.757
iano	-11.7577
rative	-11.7578
▁bore	-11.761
▁raz	-11.7616
oursel	-11.7619
ute	-11.7633
▁item	-11.7639
▁marr	-11.7657
▁prey	-11.7658
▁facilitate	-11.7659
stance	-11.7663
asso	-11.7669
nott	-11.7677
witnesses	-11.7694
▁fann	-11.7698
▁proportion	-11.7701
▁spik	-11.7705
▁tai	-11.7708
▁identifi	-11.7714
bili	-11.7717
▁bent	-11.772
▁bund	-11.7732
gree	-11.7732
▁abra	-11.7734
inter	-11.774
tog	-11.7743
wan	-11.7755
▁mp	-11.7758
▁dri	-11.7759
rink	-11.7783
▁repri	-11.7799
rdin	-11.7807
bury	-11.7825
rga	-11.784
udge	-11.7841
demeano	-11.7844
▁uncle	-11.7845
▁provision	-11.7862
▁nico	-11.7865
▁embrac	-11.7865
▁invad	-11.7867
▁casual	-11.7868
▁assure	-11.7875
▁invent	-11.7876
dder	-11.7877
lays	-11.7878
▁om	-11.7883
certain	-11.7885
nutrition	-11.7888
hallow	-11.789
prosecutor	-11.7891
address	-11.7891
prince	-11.7891
blood	-11.7891
tuesday	-11.7891
second	-11.7891
first	-11.7891
smith	-11.7892
bird	-11.7892
block	-11.7893
technology	-11.7895
iraqi	-11.7896
australian	-11.7897
gold	-11.7898
usnes	-11.7899
few	-11.7902
▁refin	-11.7903
lana	-11.7905
▁opera	-11.7909
spring	-11.791
▁laund	-11.791
▁innocen	-11.791
▁significan	-11.791
▁ideolog	-11.7911
wf	-11.7911
▁patien	-11.7912
▁barn	-11.7913
mug	-11.7917
▁volcan	-11.7917
watch	-11.7917
▁administrati	-11.7919
▁kana	-11.792
▁swap	-11.7921
▁relocat	-11.7922
unami	-11.7925
▁bloc	-11.7925
timore	-11.7928
▁pediatric	-11.7928
▁veterinar	-11.7928
▁clamp	-11.7929
▁compris	-11.7929
▁abrupt	-11.7929
▁accumulate	-11.7929
▁artifact	-11.7929
▁bubble	-11.7929
▁compassion	-11.7929
▁compatible	-11.7929
▁compensati	-11.7929
▁convincing	-11.7929
▁demilitariz	-11.7929
▁disadvantage	-11.7929
▁embargo	-11.7929
▁evaluation	-11.7929
▁excavat	-11.7929
▁excellent	-11.7929
▁identical	-11.7929
▁intellectual	-11.7929
▁jurisdiction	-11.7929
▁lecture	-11.7929
▁leisure	-11.7929
▁marathon	-11.7929
▁perception	-11.7929
▁philosoph	-11.7929
▁premature	-11.7929
▁premium	-11.7929
▁railroad	-11.7929
▁reconsider	-11.7929
▁refrain	-11.7929
▁rehabilitati	-11.7929
▁script	-11.7929
▁solving	-11.7929
▁wobble	-11.7929
▁overweight	-11.7929
▁premise	-11.7929
▁distort	-11.7929
▁intestin	-11.7929
▁lavish	-11.7929
▁resurgen	-11.7929
▁frighten	-11.7929
▁miracle	-11.7929
▁octopus	-11.7929
▁whipp	-11.7929
▁wilkins	-11.7929
▁sapien	-11.7929
▁abundan	-11.7929
▁huddl	-11.7929
▁phrase	-11.7929
▁casino	-11.7929
▁hoop	-11.7929
▁warrior	-11.7929
▁feminin	-11.7929
▁pretend	-11.7929
▁cjd	-11.7929
agliar	-11.7929
▁brush	-11.7929
▁unearth	-11.7929
▁extort	-11.7929
▁venus	-11.7929
▁lodge	-11.7929
▁ridicul	-11.7929
▁scratch	-11.7929
▁multinational	-11.7929
▁gwen	-11.793
▁itinerar	-11.793
▁sindh	-11.793
▁grandfather	-11.793
▁seminar	-11.793
▁valentin	-11.793
▁edmund	-11.793
▁forehand	-11.793
▁cardinal	-11.793
▁rooftop	-11.793
▁malawi	-11.793
▁elegan	-11.793
▁charismatic	-11.793
▁comply	-11.793
▁anxiet	-11.793
▁blackberr	-11.793
▁delaware	-11.793
▁integrity	-11.793
▁preference	-11.793
▁arrow	-11.793
▁martyr	-11.7931
▁gym	-11.7931
▁pillar	-11.7931
▁breez	-11.7931
▁probation	-11.7931
▁revoke	-11.7931
▁grim	-11.7931
▁brake	-11.7931
▁helmet	-11.7931
▁flock	-11.7932
▁excerpt	-11.7932
▁gabriel	-11.7932
▁municipal	-11.7932
▁commentator	-11.7932
▁grin	-11.7933
▁jaip	-11.7933
▁idol	-11.7933
▁pleasant	-11.7933
ssenger	-11.7933
▁unfold	-11.7933
▁cesar	-11.7933
ussain	-11.7933
▁enroll	-11.7933
▁scout	-11.7933
▁reservation	-11.7934
▁sylv	-11.7934
▁jacket	-11.7934
▁suv	-11.7934
▁vegeta	-11.7935
▁eisen	-11.7935
▁plume	-11.7935
▁cruel	-11.7935
onnais	-11.7935
▁mot	-11.7936
▁fiber	-11.7936
▁candid	-11.7936
▁valid	-11.7937
▁instructor	-11.7937
▁aggression	-11.7937
▁phillip	-11.7937
▁particle	-11.7937
▁partisan	-11.7938
▁scrapp	-11.7939
▁gown	-11.7939
▁swelling	-11.7939
▁invention	-11.7939
▁munic	-11.7939
▁gorge	-11.7941
▁dynamic	-11.7941
▁canister	-11.7942
▁mary	-11.7942
▁forensic	-11.7943
▁curtail	-11.7944
▁smithson	-11.7944
▁prohibition	-11.7944
▁allocate	-11.7945
▁generator	-11.7945
cule	-11.7945
▁hayd	-11.7945
▁housekeeper	-11.7946
▁luther	-11.7947
▁dogged	-11.7949
▁spillway	-11.7951
▁continuous	-11.7952
▁gem	-11.7953
▁cac	-11.7953
otto	-11.7956
▁ivanov	-11.7958
▁thru	-11.7958
▁ridge	-11.7959
▁collector	-11.796
▁floren	-11.7961
post	-11.7964
▁cordon	-11.7965
▁stoke	-11.7967
▁stranger	-11.7968
▁soap	-11.7969
▁askari	-11.797
▁brewer	-11.7972
▁hallow	-11.7973
▁overlook	-11.7973
▁liga	-11.7973
▁broadb	-11.7974
▁swat	-11.7974
▁dismantle	-11.7975
lund	-11.7975
▁bike	-11.7976
▁linger	-11.7977
▁congregat	-11.7981
▁lawless	-11.7982
▁biograph	-11.7982
▁plantation	-11.7984
▁forceful	-11.7986
▁hank	-11.7986
visual	-11.7986
crates	-11.7989
▁etc	-11.799
raig	-11.7994
▁ruben	-11.7995
▁ull	-11.7997
▁conductor	-11.7997
found	-11.7998
▁freezer	-11.8001
▁chok	-11.8002
▁gram	-11.8003
▁sulf	-11.8005
▁objection	-11.8007
▁cambodian	-11.801
▁pont	-11.801
horn	-11.801
mir	-11.801
▁intrigu	-11.8012
▁seeker	-11.8012
▁bind	-11.8013
step	-11.8014
▁baker	-11.8015
▁roller	-11.8022
▁automatic	-11.8025
nate	-11.8025
kill	-11.8026
mistress	-11.8027
▁deng	-11.803
ork	-11.8031
lance	-11.8033
▁walkout	-11.8035
▁readers	-11.8037
ngal	-11.8041
▁derail	-11.8045
▁shooter	-11.805
▁invade	-11.8052
▁blackout	-11.8052
cable	-11.8057
ingles	-11.806
▁bureaucrat	-11.8061
▁suck	-11.8065
eur	-11.8067
▁urin	-11.8068
▁booster	-11.8068
▁cata	-11.8069
▁frig	-11.807
▁indirect	-11.8075
▁proc	-11.8081
▁originate	-11.8082
▁lava	-11.8087
▁supplements	-11.8089
▁deriv	-11.8093
▁assert	-11.8095
whe	-11.8095
mela	-11.8099
▁campaigner	-11.81
▁vel	-11.8104
▁fisc	-11.8112
▁gome	-11.8114
▁guse	-11.8117
bou	-11.8127
user	-11.8129
▁underst	-11.8131
pick	-11.8132
▁edu	-11.8133
▁subsidiar	-11.8135
cube	-11.8136
ilateral	-11.8144
▁defian	-11.8147
▁judd	-11.8148
▁cobbl	-11.8152
▁bread	-11.8156
▁sword	-11.8163
▁hend	-11.8164
poon	-11.817
▁alba	-11.8171
gram	-11.8175
vara	-11.8181
luster	-11.8185
nishi	-11.8192
▁suf	-11.8193
ml	-11.8194
xist	-11.8199
▁fel	-11.8199
▁imagin	-11.8206
nsu	-11.8209
▁grani	-11.8216
▁arabian	-11.8223
▁dear	-11.8228
▁funn	-11.8229
▁smuggle	-11.8232
comb	-11.8233
ories	-11.8238
▁bros	-11.8243
▁blanc	-11.8248
▁underscor	-11.8267
pc	-11.827
▁undertak	-11.827
itz	-11.8284
▁applie	-11.8288
▁dae	-11.8288
etti	-11.8288
▁tier	-11.8289
bahn	-11.829
▁printer	-11.8291
tse	-11.8293
▁explor	-11.8294
tner	-11.8296
erald	-11.8298
doo	-11.8301
▁outage	-11.8306
williams	-11.831
▁pub	-11.8312
logy	-11.8313
amiya	-11.8324
polis	-11.8334
▁desir	-11.8335
▁programme	-11.8337
▁dip	-11.8346
▁mcc	-11.8349
▁nois	-11.8356
▁sighting	-11.8358
▁captives	-11.8368
▁alexandr	-11.8368
▁porn	-11.8375
▁pine	-11.8378
▁raw	-11.8391
▁stabilize	-11.8405
▁mariner	-11.8406
▁triple	-11.8411
riyad	-11.8415
▁skie	-11.8421
awar	-11.8423
▁equit	-11.8425
▁destroyer	-11.8425
pho	-11.843
urg	-11.8439
chang	-11.8442
tikh	-11.8443
▁symbolic	-11.8448
vor	-11.8452
aki	-11.8452
never	-11.8458
▁zem	-11.8476
brok	-11.8487
▁offend	-11.8494
jand	-11.8494
cted	-11.8507
▁devi	-11.8517
▁nabi	-11.8518
▁marlboro	-11.8528
▁defi	-11.854
▁hassan	-11.8542
▁capt	-11.8544
▁pacif	-11.855
urk	-11.8555
▁mour	-11.8564
oven	-11.8564
▁tune	-11.8565
given	-11.8578
izu	-11.8589
apping	-11.8592
▁sac	-11.8596
olation	-11.8598
▁mut	-11.863
abu	-11.863
▁bli	-11.8634
▁darl	-11.8643
▁julie	-11.8643
▁dim	-11.8646
▁deco	-11.8648
▁caste	-11.8657
sale	-11.868
position	-11.8681
▁geolog	-11.8684
wn	-11.8715
pino	-11.8726
eval	-11.8747
▁acquir	-11.8751
kel	-11.8752
▁tag	-11.8762
cuz	-11.8767
khan	-11.8785
▁petro	-11.8787
▁gali	-11.8799
choles	-11.8802
▁gonn	-11.8808
hoe	-11.8831
▁stabiliz	-11.8836
▁domini	-11.8843
▁pave	-11.8848
errez	-11.8849
gang	-11.8853
william	-11.8855
jam	-11.8857
arat	-11.8864
▁meteorologi	-11.8914
▁discipline	-11.8914
inde	-11.8917
▁disarm	-11.8917
▁abba	-11.8925
▁adh	-11.8927
trov	-11.8932
▁motivate	-11.8933
▁nou	-11.8937
▁captive	-11.8963
gia	-11.8973
▁arche	-11.8973
rose	-11.8974
▁underscore	-11.8982
fried	-11.9
kova	-11.9009
▁planner	-11.902
bah	-11.902
ubb	-11.9023
▁mag	-11.9034
▁gran	-11.9039
mother	-11.9045
▁zi	-11.9063
▁gambl	-11.9066
▁pric	-11.9068
hall	-11.9076
▁define	-11.9086
erry	-11.909
rk	-11.9092
ograph	-11.9094
▁optim	-11.9111
▁gul	-11.9114
liga	-11.9116
▁tyl	-11.9118
▁mae	-11.9121
▁lars	-11.9128
▁corpse	-11.9138
roh	-11.9147
lace	-11.915
▁regrett	-11.915
▁leon	-11.9163
▁admitt	-11.9182
anana	-11.9199
harmonic	-11.9209
▁coordinate	-11.9214
▁enhanc	-11.9225
▁esp	-11.9226
wick	-11.9226
▁exception	-11.9231
▁sensitivit	-11.9233
▁repli	-11.9235
▁pyo	-11.9252
▁caffe	-11.9252
▁undermin	-11.9253
▁krist	-11.9265
▁spam	-11.9279
▁commut	-11.928
▁justifi	-11.9283
▁til	-11.9287
direct	-11.9287
uil	-11.9287
fran	-11.9294
illionaire	-11.9296
cuba	-11.9299
▁plain	-11.9302
▁neuro	-11.9303
members	-11.9306
view	-11.931
disclos	-11.9312
fight	-11.9314
anxi	-11.9316
count	-11.9317
▁compu	-11.9317
motive	-11.9318
unfortunate	-11.9319
text	-11.9319
hawk	-11.9319
critic	-11.9319
taiwan	-11.9319
roads	-11.9319
wealth	-11.9319
react	-11.9319
officers	-11.9319
previous	-11.9319
palestinian	-11.9319
heavy	-11.9319
saudi	-11.932
somali	-11.932
science	-11.932
daughter	-11.932
national	-11.932
course	-11.9321
asser	-11.9321
normal	-11.9321
democratic	-11.9322
ferr	-11.9322
shift	-11.9322
carac	-11.9323
martin	-11.9323
▁ethic	-11.9324
life	-11.9332
final	-11.9334
▁qin	-11.9334
▁spar	-11.9335
talk	-11.9335
believ	-11.9335
fm	-11.9336
etz	-11.9336
scale	-11.9338
▁reluctan	-11.9338
▁prominen	-11.9339
▁enable	-11.934
▁drag	-11.9341
nte	-11.9346
pilla	-11.9346
▁festiv	-11.9346
who	-11.9347
▁manipulat	-11.9347
▁nutrition	-11.9349
▁psycho	-11.9351
▁fabr	-11.9353
▁vaccinat	-11.9353
arra	-11.9354
bright	-11.9355
▁legitima	-11.9356
▁berk	-11.9356
caust	-11.9357
▁palestin	-11.9357
▁conciliat	-11.9358
▁acclaim	-11.9358
▁aggravate	-11.9358
▁athletic	-11.9358
▁avalanche	-11.9358
▁avocado	-11.9358
▁cockpit	-11.9358
▁contingent	-11.9358
▁corridor	-11.9358
▁delicate	-11.9358
▁deterrent	-11.9358
▁discharge	-11.9358
▁disgrace	-11.9358
▁disqualif	-11.9358
▁eagle	-11.9358
▁eyebrow	-11.9358
▁fragment	-11.9358
▁gondola	-11.9358
▁heavyweight	-11.9358
▁hectare	-11.9358
▁humpback	-11.9358
▁hurdle	-11.9358
▁incorporat	-11.9358
▁instrument	-11.9358
▁intimate	-11.9358
▁loophole	-11.9358
▁mislead	-11.9358
▁mushroom	-11.9358
▁pamphlet	-11.9358
▁parallel	-11.9358
▁persecut	-11.9358
▁piccolo	-11.9358
▁plummet	-11.9358
▁powder	-11.9358
▁prototype	-11.9358
▁provocation	-11.9358
▁provocative	-11.9358
▁registration	-11.9358
▁rethink	-11.9358
▁sabotag	-11.9358
▁samuel	-11.9358
▁sanctuar	-11.9358
▁satisfy	-11.9358
▁scenario	-11.9358
▁skyrocket	-11.9358
▁snatch	-11.9358
▁temblor	-11.9358
▁unconditional	-11.9358
▁uninhabit	-11.9358
sworth	-11.9358
▁complement	-11.9358
▁overflow	-11.9358
▁pablo	-11.9358
▁secession	-11.9358
▁barricade	-11.9358
▁compatriot	-11.9358
▁disband	-11.9358
▁fitzg	-11.9358
▁mismanage	-11.9358
▁mujah	-11.9358
▁scrutin	-11.9358
▁wrinkle	-11.9358
▁tamper	-11.9358
▁emperor	-11.9358
▁vinci	-11.9358
▁pneum	-11.9358
▁censor	-11.9358
▁orchard	-11.9358
▁paramilitar	-11.9358
▁snapshot	-11.9358
▁coffin	-11.9358
▁reassur	-11.9358
▁gigabyte	-11.9358
▁geographic	-11.9358
▁antiquit	-11.9358
▁desktop	-11.9358
▁pinpoint	-11.9358
venir	-11.9358
▁staunch	-11.9358
▁fetus	-11.9358
▁embark	-11.9358
▁bruis	-11.9358
▁detach	-11.9358
▁niece	-11.9358
▁submarine	-11.9358
▁appall	-11.9358
▁idris	-11.9358
▁centimeter	-11.9358
▁jogg	-11.9358
▁convenien	-11.9358
▁crawf	-11.9358
▁siberia	-11.9358
▁minimiz	-11.9358
▁blend	-11.9358
▁telecom	-11.9358
▁confederat	-11.9358
▁spouse	-11.9358
▁fahr	-11.9358
▁syndicat	-11.9359
▁grievance	-11.9359
▁quail	-11.9359
▁braun	-11.9359
▁nonviolen	-11.9359
▁navigat	-11.9359
▁petroc	-11.9359
▁hinder	-11.9359
▁guti	-11.9359
▁racket	-11.9359
▁prade	-11.9359
▁grape	-11.936
▁utiliz	-11.936
▁margar	-11.936
▁zahi	-11.936
▁latitude	-11.936
▁comparison	-11.936
▁description	-11.9361
▁renovat	-11.9361
▁seizure	-11.9361
▁hopkin	-11.9361
lihood	-11.9361
▁mobilize	-11.9361
▁pharmaceutical	-11.9361
▁gangster	-11.9361
▁secular	-11.9362
▁patch	-11.9362
▁exploration	-11.9362
▁lobbyist	-11.9362
▁gallery	-11.9362
▁innovation	-11.9362
▁adolescent	-11.9362
▁hobb	-11.9362
▁neural	-11.9363
▁quell	-11.9363
▁rapist	-11.9363
▁racist	-11.9363
▁showcase	-11.9363
▁sunlight	-11.9363
▁rampage	-11.9363
▁sundar	-11.9364
▁sheep	-11.9364
▁latif	-11.9364
▁infantry	-11.9364
▁malign	-11.9364
▁garner	-11.9365
▁exert	-11.9365
▁yush	-11.9365
▁yell	-11.9366
▁migration	-11.9366
▁groom	-11.9367
▁click	-11.9367
▁assignment	-11.9367
▁distinguish	-11.9367
▁orient	-11.9368
▁lieber	-11.9368
▁decepti	-11.9368
▁dentist	-11.9368
▁muhamm	-11.9368
▁waive	-11.9369
▁addiction	-11.937
▁abdel	-11.937
▁worship	-11.937
▁bolsh	-11.9371
▁gripp	-11.9372
▁balkan	-11.9373
master	-11.9373
▁ghost	-11.9373
▁frost	-11.9374
▁ricard	-11.9374
▁mercur	-11.9374
▁conceiv	-11.9375
▁quest	-11.9375
▁flavor	-11.9375
▁meteorologist	-11.9375
gv	-11.9377
▁mountainside	-11.9378
▁vulnerabilit	-11.9379
▁ameli	-11.9379
▁defiant	-11.9381
▁atleti	-11.9383
▁verge	-11.9383
▁abdomen	-11.9383
▁buff	-11.9383
▁vander	-11.9385
▁woodland	-11.9386
▁launder	-11.9388
grow	-11.9388
path	-11.9388
▁backward	-11.939
bill	-11.939
▁activate	-11.939
▁permitt	-11.939
▁sniper	-11.9391
▁recit	-11.9396
▁cache	-11.9397
▁representation	-11.9399
▁doming	-11.9399
▁cellar	-11.94
▁worshipper	-11.94
▁kennel	-11.9401
union	-11.9401
▁fundraiser	-11.9402
▁creative	-11.9402
rgency	-11.9403
▁dock	-11.9404
▁latino	-11.9405
▁equalise	-11.9406
▁flagg	-11.9407
▁detector	-11.9408
terol	-11.9409
▁presentation	-11.9409
tze	-11.9411
▁algerian	-11.9413
atti	-11.9415
▁bamb	-11.9416
▁underline	-11.9416
radic	-11.9419
▁por	-11.9423
hni	-11.9425
▁charm	-11.9426
▁rupe	-11.9426
▁lagg	-11.9429
▁chamb	-11.943
mple	-11.9431
▁reunifi	-11.9432
▁faint	-11.9434
▁fier	-11.9437
holder	-11.9437
▁compress	-11.9437
▁barber	-11.9439
▁stark	-11.944
rving	-11.9441
zar	-11.9446
omb	-11.9447
▁blo	-11.9448
▁munition	-11.945
▁composer	-11.9451
▁grad	-11.9452
▁suk	-11.9453
▁kup	-11.9455
uarte	-11.9458
▁aspir	-11.9459
▁espan	-11.9459
▁parre	-11.9464
▁unha	-11.9465
▁painter	-11.9465
▁klo	-11.9469
phis	-11.947
▁tablet	-11.9471
▁vanish	-11.9472
▁baba	-11.9472
▁vari	-11.9473
▁kari	-11.9473
mount	-11.9474
riot	-11.9478
leban	-11.9488
▁gm	-11.9489
▁enthusiastic	-11.9491
▁belov	-11.9493
asha	-11.9497
▁deb	-11.9499
▁vik	-11.9501
▁merit	-11.9502
▁thriv	-11.9502
▁harve	-11.9503
▁junk	-11.951
▁modifi	-11.9511
▁rah	-11.9515
▁wheat	-11.9515
▁portal	-11.9521
▁denial	-11.9525
▁conrad	-11.9532
▁sample	-11.9542
cade	-11.9546
▁forgot	-11.9552
▁dig	-11.9554
▁dera	-11.9555
▁philipp	-11.9556
▁campo	-11.9556
▁brow	-11.9557
▁architectur	-11.9557
▁reg	-11.9561
descent	-11.9565
▁terroriz	-11.9567
▁dancer	-11.9571
▁tooth	-11.9572
▁sander	-11.9575
▁assurance	-11.9578
ermo	-11.9587
▁mint	-11.959
▁defuse	-11.9594
▁menac	-11.9609
ibu	-11.9609
▁periodic	-11.9611
nasa	-11.9615
bog	-11.9617
pine	-11.9623
amon	-11.9635
▁airliner	-11.9638
▁rust	-11.9649
arm	-11.9653
▁shand	-11.9653
▁palat	-11.9655
▁fend	-11.9664
▁owe	-11.9668
▁matur	-11.9674
▁flo	-11.9688
▁orde	-11.9691
erick	-11.9693
▁rave	-11.9694
midt	-11.9696
▁poet	-11.9709
▁winston	-11.9719
▁moussa	-11.972
▁akh	-11.972
ollo	-11.9736
▁poli	-11.974
▁breeder	-11.9741
bbie	-11.976
▁burk	-11.9766
▁spen	-11.9768
▁bug	-11.9772
▁gert	-11.9782
▁swo	-11.9785
dah	-11.9795
▁glamor	-11.9798
illi	-11.9799
canad	-11.9813
glo	-11.9821
eads	-11.9826
▁rach	-11.9845
▁communicat	-11.9854
rift	-11.9857
▁chatt	-11.9862
▁dave	-11.9863
▁cater	-11.9889
pulse	-11.9902
▁insider	-11.9908
gome	-11.9909
ncred	-11.9922
▁veer	-11.9924
▁cling	-11.9929
inside	-11.9932
graphic	-11.994
▁gir	-11.9958
ryl	-11.9966
rina	-11.9976
silic	-11.998
▁hano	-11.9992
▁rack	-12
hil	-12.0013
▁intentional	-12.0017
▁ranger	-12.0019
▁briton	-12.0031
lese	-12.0035
▁rage	-12.0055
▁disclos	-12.0056
ercz	-12.0057
▁paradi	-12.0061
▁deposit	-12.0062
▁assum	-12.0077
▁unn	-12.0081
▁topic	-12.0084
▁accessor	-12.0097
gay	-12.0099
gaz	-12.0101
gna	-12.0104
cott	-12.011
avi	-12.0112
▁coaster	-12.0121
hard	-12.0124
▁mediate	-12.0148
▁shau	-12.0186
▁etern	-12.0189
mmers	-12.0195
onna	-12.0196
affe	-12.0207
▁exclusi	-12.0209
▁vip	-12.0213
▁trickl	-12.0219
anni	-12.0269
▁educate	-12.0298
saur	-12.0332
▁boo	-12.0366
lcon	-12.0371
▁earl	-12.0372
▁chai	-12.0373
▁celesti	-12.0374
ilia	-12.0382
▁arrange	-12.0386
▁pil	-12.0398
obe	-12.0399
ergen	-12.0412
gates	-12.0414
▁tani	-12.0415
ache	-12.0417
ivo	-12.0422
▁fata	-12.0425
▁dora	-12.0445
gus	-12.0446
▁duk	-12.0451
vej	-12.0454
▁hollo	-12.0457
▁lai	-12.047
▁explore	-12.0473
thus	-12.0477
▁tract	-12.0481
dine	-12.0485
dec	-12.0486
lene	-12.0498
▁interfere	-12.0508
jun	-12.0513
▁antibiotic	-12.0578
▁marsh	-12.06
▁sig	-12.06
capa	-12.0604
▁stab	-12.0611
▁leve	-12.0623
▁gho	-12.0635
inawa	-12.0639
share	-12.064
▁pill	-12.064
get	-12.0652
▁gala	-12.0656
▁wishe	-12.0666
▁lac	-12.0668
hina	-12.0675
▁cure	-12.0676
gawa	-12.068
▁shipment	-12.0682
ssels	-12.0692
link	-12.0703
▁nap	-12.071
zee	-12.0712
breaker	-12.0741
▁cycl	-12.0743
qb	-12.0762
writer	-12.0777
beside	-12.0778
medic	-12.0779
aiko	-12.0782
rdr	-12.079
▁harri	-12.0801
tified	-12.0823
nko	-12.0827
▁milita	-12.0835
▁thrive	-12.0856
▁trapp	-12.0858
▁disco	-12.0866
election	-12.0869
▁cav	-12.0872
word	-12.0873
▁enthusiast	-12.0875
case	-12.0882
avaro	-12.0883
samm	-12.0901
▁loser	-12.0906
▁roth	-12.0906
niel	-12.0911
ssert	-12.0912
actor	-12.0912
▁bark	-12.0913
▁pap	-12.0919
▁yoshi	-12.092
▁nativ	-12.093
▁scarf	-12.0936
▁unifi	-12.0936
gat	-12.0946
ramo	-12.0948
estimat	-12.0948
▁hamburg	-12.095
▁unfi	-12.0951
▁christi	-12.0958
lock	-12.0969
▁physic	-12.0971
resident	-12.0975
ridge	-12.0978
develop	-12.0982
authoriz	-12.0985
respond	-12.0986
flower	-12.0986
engineer	-12.0986
bangladesh	-12.0986
indonesia	-12.0986
caffein	-12.0986
singapore	-12.0986
affected	-12.0986
florida	-12.0986
senator	-12.0986
friday	-12.0986
street	-12.0986
which	-12.0986
international	-12.0986
dozen	-12.0986
support	-12.0986
number	-12.0987
health	-12.0987
system	-12.0987
economic	-12.0988
kanda	-12.0988
major	-12.0988
jackson	-12.0988
market	-12.0989
feder	-12.0989
sunday	-12.099
sleep	-12.099
macho	-12.0991
food	-12.0991
european	-12.0994
spear	-12.0995
▁pronoun	-12.0995
kenne	-12.0996
reason	-12.1
coast	-12.1001
federal	-12.1002
kaya	-12.1005
▁transparen	-12.1005
jack	-12.1005
further	-12.1007
beck	-12.1008
▁spect	-12.1009
sudan	-12.101
▁implicat	-12.101
▁zhi	-12.1011
▁interact	-12.1015
▁migrat	-12.1015
zvo	-12.1015
▁inject	-12.1015
▁secre	-12.1017
feld	-12.1018
hendr	-12.1021
actic	-12.1024
nom	-12.1024
▁euthan	-12.1024
▁rheumato	-12.1024
▁administer	-12.1024
▁dharams	-12.1024
▁explicit	-12.1024
▁illuminat	-12.1024
▁succumb	-12.1024
▁audiotape	-12.1024
▁binocular	-12.1024
▁brawl	-12.1024
▁chechnya	-12.1024
▁culminat	-12.1024
▁culver	-12.1024
▁demographic	-12.1024
▁discourage	-12.1024
▁eclips	-12.1024
▁fluctuat	-12.1024
▁hierarch	-12.1024
▁illustrate	-12.1024
▁instinct	-12.1024
▁lenient	-12.1024
▁lithuania	-12.1024
▁mechanism	-12.1024
▁mogul	-12.1024
▁munchkin	-12.1024
▁obscure	-12.1024
▁ordinance	-12.1024
▁prevail	-12.1024
▁python	-12.1024
▁rhythm	-12.1024
▁sabhnani	-12.1024
▁salvador	-12.1024
▁slovakia	-12.1024
▁spacewalk	-12.1024
▁unravel	-12.1024
▁wheelchair	-12.1024
▁whirl	-12.1024
▁chopper	-12.1024
▁elysee	-12.1024
▁erratic	-12.1024
▁lifestyle	-12.1024
▁overhaul	-12.1024
▁pearl	-12.1024
▁recharge	-12.1024
▁reclaim	-12.1024
▁scully	-12.1024
▁wizard	-12.1024
▁irrigat	-12.1024
▁mathematic	-12.1024
▁reminisce	-12.1024
▁traitor	-12.1024
▁peatland	-12.1024
▁downpour	-12.1024
▁kraus	-12.1024
▁stereo	-12.1024
▁bypass	-12.1024
▁depot	-12.1024
▁lawrence	-12.1024
▁notorious	-12.1024
▁churn	-12.1024
▁entitl	-12.1024
▁enlist	-12.1024
▁obsess	-12.1024
▁gauge	-12.1024
▁nausea	-12.1024
▁scrub	-12.1024
ophag	-12.1024
▁ardent	-12.1024
▁mongol	-12.1024
▁penaliz	-12.1024
▁slugg	-12.1024
▁congest	-12.1024
▁gorilla	-12.1024
▁smear	-12.1024
▁sultan	-12.1024
▁shrunk	-12.1025
▁flourish	-12.1025
▁erotic	-12.1025
▁trauma	-12.1025
▁gentle	-12.1025
▁heaven	-12.1025
▁dweller	-12.1025
▁salute	-12.1025
▁reinforcement	-12.1025
▁bulb	-12.1025
▁quinn	-12.1025
▁superstar	-12.1025
ollec	-12.1025
▁commend	-12.1025
▁dissent	-12.1025
▁chuck	-12.1025
▁depressed	-12.1025
▁slaying	-12.1025
▁jelly	-12.1025
▁snowstorm	-12.1025
▁abolish	-12.1025
▁butterfl	-12.1025
▁interrupt	-12.1025
▁trumpet	-12.1025
▁empower	-12.1025
hcr	-12.1025
▁tusk	-12.1025
▁eldor	-12.1025
▁patron	-12.1025
▁parasit	-12.1025
▁seismic	-12.1025
▁stint	-12.1025
▁defamat	-12.1025
▁automobile	-12.1025
▁passionate	-12.1026
▁scour	-12.1026
▁obeid	-12.1026
▁weird	-12.1026
▁blank	-12.1026
▁cosmo	-12.1026
▁hamza	-12.1026
▁vague	-12.1026
▁summar	-12.1026
▁estrange	-12.1026
▁falter	-12.1026
possi	-12.1027
▁mixture	-12.1027
▁buffet	-12.1027
▁ecsta	-12.1027
▁bachel	-12.1027
▁woke	-12.1027
▁crisscross	-12.1027
▁advertisement	-12.1027
▁attire	-12.1027
ayda	-12.1027
▁nuts	-12.1028
▁verify	-12.1028
▁overshadow	-12.1028
▁browser	-12.1028
▁blockade	-12.1028
▁distill	-12.1028
▁disturbance	-12.1028
▁orphanage	-12.1028
▁fundamentalist	-12.1029
▁bulk	-12.1029
▁imagination	-12.1029
▁koala	-12.1029
▁funnel	-12.103
elipe	-12.103
▁liang	-12.103
▁crick	-12.103
suzu	-12.103
▁luke	-12.1031
▁blake	-12.1031
▁floodwater	-12.1031
▁airlift	-12.1031
▁mock	-12.1032
▁vacan	-12.1032
▁deliberation	-12.1032
▁organism	-12.1032
▁unilateral	-12.1032
▁verbal	-12.1032
▁soften	-12.1033
▁accomplishment	-12.1033
▁headscar	-12.1033
▁baptist	-12.1033
▁considerably	-12.1033
akou	-12.1034
▁chung	-12.1035
▁impeach	-12.1035
▁shutter	-12.1035
▁jedi	-12.1035
▁botani	-12.1036
▁jacob	-12.1036
▁alejandr	-12.1036
▁conglomerate	-12.1036
▁perpetrator	-12.1037
▁correspondent	-12.1037
▁saucer	-12.1038
dzie	-12.1038
anzani	-12.1038
▁dorm	-12.1039
▁authoritarian	-12.104
▁boot	-12.104
▁analyze	-12.1041
▁hangar	-12.1041
▁ghana	-12.1043
▁stow	-12.1044
▁wow	-12.1044
▁legalize	-12.1044
▁adorn	-12.1045
tamba	-12.1047
▁spre	-12.1049
season	-12.1049
▁interrogat	-12.105
patri	-12.105
▁reinforc	-12.1051
▁foment	-12.1052
▁constituenc	-12.1053
▁counselor	-12.1053
▁pleasure	-12.1053
▁jae	-12.1053
▁chef	-12.1053
▁vary	-12.1054
▁glea	-12.1054
▁pedophile	-12.1056
phem	-12.1056
▁haggl	-12.1056
▁sideline	-12.1058
▁tempo	-12.1058
▁bayer	-12.1058
▁composition	-12.1058
▁bishop	-12.1059
▁beneficia	-12.1059
buchar	-12.106
▁carriage	-12.106
▁owen	-12.1062
▁curt	-12.1063
▁brew	-12.1067
▁levan	-12.1067
▁jali	-12.1068
▁rick	-12.1068
ffel	-12.107
eera	-12.1075
▁peng	-12.1075
▁naught	-12.1077
▁bandit	-12.1084
▁finalist	-12.1086
▁tig	-12.1087
▁yup	-12.1088
▁sunny	-12.1091
▁mechanical	-12.1092
getting	-12.1093
▁hogan	-12.1093
▁interfer	-12.1093
▁physiolog	-12.1095
ailment	-12.1097
▁kisu	-12.1098
▁bless	-12.11
▁lago	-12.1101
▁cheese	-12.1102
▁reap	-12.1103
▁deka	-12.1105
▁nutritional	-12.1105
aimi	-12.1106
▁injustice	-12.1106
▁utter	-12.1107
▁shahr	-12.1109
noid	-12.1111
▁decorat	-12.1111
▁upward	-12.1113
▁cheat	-12.1117
▁provisional	-12.1118
▁pinn	-12.1118
▁loosen	-12.1119
▁lumb	-12.112
▁boil	-12.112
▁faw	-12.1128
wire	-12.113
▁till	-12.1132
▁tender	-12.1133
heddin	-12.1135
▁dye	-12.1135
▁swath	-12.1139
▁assumption	-12.1139
▁citation	-12.1142
▁abdom	-12.1144
▁salvag	-12.1148
fill	-12.1149
▁prion	-12.1151
▁salary	-12.1155
▁usher	-12.1155
▁marvel	-12.1155
▁millen	-12.1157
▁salad	-12.116
▁repressi	-12.1162
▁telec	-12.1164
▁anymore	-12.117
▁removal	-12.117
earby	-12.1173
▁tram	-12.1174
▁reminder	-12.1176
▁barro	-12.1185
▁champ	-12.1188
▁natali	-12.1198
byl	-12.1199
▁spal	-12.1199
▁molecul	-12.1212
▁enforc	-12.1212
▁wii	-12.1213
gara	-12.1216
igat	-12.1222
▁yama	-12.1224
immer	-12.1227
▁lange	-12.1228
▁exceptional	-12.1236
▁qur	-12.124
▁oppress	-12.1246
▁swear	-12.1253
▁decode	-12.1254
▁machi	-12.1255
▁construct	-12.1256
▁flexib	-12.1257
▁stein	-12.126
▁swimmer	-12.1272
arita	-12.1275
▁hijacker	-12.1276
▁basil	-12.1279
▁lar	-12.1285
enzy	-12.1289
▁jal	-12.1291
sams	-12.1292
▁retaliati	-12.1295
▁upro	-12.1296
▁allege	-12.1299
▁rip	-12.1302
mz	-12.1302
▁eyewitness	-12.1302
▁entertainer	-12.1303
onov	-12.1306
▁arter	-12.1306
▁begg	-12.1313
▁salar	-12.1324
▁jenn	-12.1326
▁mang	-12.1334
qi	-12.1336
ethy	-12.134
▁proportional	-12.1344
▁foray	-12.1352
▁rider	-12.1361
▁scarce	-12.1361
bro	-12.1362
▁ritz	-12.1365
▁viag	-12.1368
▁valen	-12.1383
▁kono	-12.139
gio	-12.1401
▁abid	-12.1403
▁butter	-12.1403
oster	-12.1404
▁persi	-12.1404
▁bot	-12.1406
else	-12.1431
▁spann	-12.1432
▁abram	-12.1439
qia	-12.1443
atom	-12.1448
ibera	-12.1449
▁knot	-12.145
hat	-12.145
▁hark	-12.1458
▁maure	-12.1459
▁mian	-12.1461
uction	-12.1473
▁sali	-12.1474
ussi	-12.1486
ference	-12.1486
▁pizz	-12.1489
▁holi	-12.1492
crat	-12.1501
▁shrive	-12.1503
▁roadway	-12.1506
vot	-12.1511
hunt	-12.1513
▁mesh	-12.1513
▁resembl	-12.1515
thur	-12.1519
▁hom	-12.152
▁wise	-12.1548
nak	-12.1548
napp	-12.1557
odor	-12.156
barbour	-12.157
athen	-12.1572
dential	-12.1577
eep	-12.1587
▁kee	-12.1595
ashan	-12.1597
▁restructur	-12.1599
drop	-12.1602
▁purv	-12.1604
uchov	-12.161
esar	-12.1627
▁dent	-12.1629
logical	-12.1649
▁suite	-12.1664
tractor	-12.1669
mitz	-12.1674
kka	-12.1677
taino	-12.169
▁waterway	-12.1699
▁pierc	-12.1707
▁pressur	-12.171
▁perva	-12.171
▁despi	-12.1715
dem	-12.172
▁celest	-12.1732
▁conf	-12.1733
chenk	-12.1744
▁ida	-12.1762
ublin	-12.1781
▁cabb	-12.1794
alph	-12.1795
▁ivo	-12.1816
politan	-12.1857
fold	-12.1857
▁muk	-12.188
letti	-12.1883
▁dispers	-12.1886
tsk	-12.1904
clusion	-12.1904
merg	-12.1905
▁shad	-12.1916
egu	-12.1917
▁mink	-12.1917
hresh	-12.1921
lung	-12.1923
▁mute	-12.1927
▁convene	-12.1931
guo	-12.1951
▁baza	-12.1954
opo	-12.1975
▁humbl	-12.1979
egis	-12.2012
▁hui	-12.2015
ozo	-12.202
nshine	-12.2023
▁forgive	-12.2036
▁glu	-12.2053
▁albe	-12.2055
borough	-12.2065
▁tackl	-12.2073
spirator	-12.2077
▁comfort	-12.2085
▁appa	-12.2093
zzy	-12.2103
ichi	-12.2132
▁haniy	-12.2138
huk	-12.2143
▁jitter	-12.2166
▁fili	-12.2174
uti	-12.2183
thic	-12.2189
ngji	-12.2193
▁tenzin	-12.2196
bian	-12.2215
▁conventional	-12.2216
bell	-12.2225
▁alga	-12.2243
▁distinct	-12.2246
environmentalist	-12.2274
yaki	-12.2283
▁hostilit	-12.2289
▁bro	-12.2302
niche	-12.2303
icker	-12.2309
▁appreciat	-12.2325
▁flan	-12.2371
▁pier	-12.2386
▁finaliz	-12.2388
pei	-12.2426
speci	-12.2435
▁shade	-12.2446
▁colom	-12.2449
river	-12.2471
▁patt	-12.2472
sibility	-12.248
▁siege	-12.2482
▁terminat	-12.2484
▁consula	-12.2499
ospi	-12.2517
▁retriev	-12.2533
tune	-12.2536
▁alban	-12.2553
▁socio	-12.2559
bali	-12.2566
▁egg	-12.2582
▁excite	-12.26
verse	-12.2608
▁abide	-12.2629
▁nash	-12.263
▁interfa	-12.2638
ich	-12.2647
▁diver	-12.2653
▁cobb	-12.2667
oga	-12.2675
▁quant	-12.2675
▁drinker	-12.2685
▁replica	-12.2686
▁mach	-12.2703
▁defus	-12.2708
lion	-12.2712
▁medic	-12.2714
stad	-12.2715
trayal	-12.2718
▁adel	-12.2723
lateral	-12.2727
▁specif	-12.2728
▁relation	-12.273
▁metha	-12.2738
terate	-12.2743
ulat	-12.2752
▁kidnapp	-12.2757
bane	-12.2762
kans	-12.2766
mund	-12.2769
▁clu	-12.2775
morr	-12.2789
▁glob	-12.2809
agua	-12.2815
dsl	-12.2852
▁corpora	-12.2855
kuni	-12.2861
flation	-12.2872
▁gag	-12.2909
witch	-12.291
torre	-12.2921
▁enro	-12.2922
rado	-12.2923
▁pant	-12.2941
▁dismantl	-12.2949
▁freight	-12.295
▁mechanic	-12.2956
▁logi	-12.2969
europe	-12.2976
public	-12.2979
bishop	-12.2983
twel	-12.2983
friend	-12.2983
provid	-12.2984
adequate	-12.2985
deutsch	-12.2985
conscious	-12.2985
retail	-12.2985
doubted	-12.2985
giuli	-12.2985
cliff	-12.2985
kuwait	-12.2986
frame	-12.2986
barcelon	-12.2986
constitutional	-12.2986
terroris	-12.2986
activit	-12.2986
eventual	-12.2986
hussein	-12.2986
apple	-12.2986
flood	-12.2986
consumer	-12.2986
visitor	-12.2986
expert	-12.2986
foot	-12.2986
school	-12.2986
foreign	-12.2986
suspect	-12.2986
concern	-12.2986
typical	-12.2986
.	-12.2986
measure	-12.2986
conduct	-12.2986
spray	-12.2986
animal	-12.2987
▁logg	-12.2987
next	-12.2987
heart	-12.2987
judge	-12.2987
daniel	-12.2987
avoid	-12.2987
export	-12.2987
guide	-12.2988
welcome	-12.2988
pusa	-12.2989
ronald	-12.2989
railway	-12.299
▁consu	-12.299
survivor	-12.2991
laus	-12.2992
buil	-12.2994
reb	-12.2997
million	-12.2998
▁emphasi	-12.2998
▁strategi	-12.2999
tsv	-12.2999
▁flavo	-12.2999
▁advoca	-12.3002
▁kor	-12.3002
neck	-12.3002
▁gramma	-12.3003
kenyan	-12.3004
▁analyz	-12.3005
▁efficien	-12.3005
scription	-12.3006
adio	-12.3007
▁perpetrat	-12.3009
everyone	-12.301
abdulla	-12.3013
jung	-12.3013
letter	-12.3014
▁clint	-12.3014
calypt	-12.3015
▁flip	-12.3016
▁divisi	-12.3017
▁reconstruct	-12.3018
▁biotech	-12.3018
fift	-12.3018
box	-12.3019
▁dynami	-12.302
▁schwar	-12.3021
▁gibb	-12.3021
▁snap	-12.3021
inton	-12.3022
▁audit	-12.3023
▁conserv	-12.3023
▁griev	-12.3023
▁horri	-12.3024
satisfact	-12.3024
osexual	-12.3024
▁frequenc	-12.3024
disproportionate	-12.3024
menopaus	-12.3024
▁anglican	-12.3024
▁charlotte	-12.3024
▁clergy	-12.3024
▁compensate	-12.3024
▁contagio	-12.3024
▁cosmetic	-12.3024
▁culprit	-12.3024
▁curiosit	-12.3024
▁cylinder	-12.3024
▁deflect	-12.3024
▁dilemma	-12.3024
▁divulg	-12.3024
▁doctrine	-12.3024
▁dungeon	-12.3024
▁encephal	-12.3024
▁exacerbat	-12.3024
▁extravagan	-12.3024
▁glitz	-12.3024
▁gujjar	-12.3024
▁gynecolog	-12.3024
▁hotspot	-12.3024
▁immense	-12.3024
▁kindergarten	-12.3024
▁malfunction	-12.3024
▁maverick	-12.3024
▁microwave	-12.3024
▁mothball	-12.3024
▁neglect	-12.3024
▁oblige	-12.3024
▁orthopedic	-12.3024
▁perfume	-12.3024
▁pharaoh	-12.3024
▁precondition	-12.3024
▁relinquish	-12.3024
▁resilien	-12.3024
▁revamp	-12.3024
▁revitaliz	-12.3024
▁skeleton	-12.3024
▁skyscraper	-12.3024
▁soybean	-12.3024
▁subscriber	-12.3024
▁subtitle	-12.3024
▁unlawful	-12.3024
▁annihilat	-12.3024
▁applicant	-12.3024
▁bikini	-12.3024
▁blazing	-12.3024
▁cheetah	-12.3024
▁cochran	-12.3024
▁decapitat	-12.3024
▁declassif	-12.3024
▁dwarf	-12.3024
▁exaggerat	-12.3024
▁jockey	-12.3024
▁outsourc	-12.3024
▁panoram	-12.3024
▁pupil	-12.3024
▁swirl	-12.3024
▁tumult	-12.3024
▁vendor	-12.3024
▁whisper	-12.3024
▁chinook	-12.3024
▁lodging	-12.3024
▁soundtrack	-12.3024
▁spiral	-12.3024
▁suffocat	-12.3024
▁susceptib	-12.3024
▁unconta	-12.3024
▁glitch	-12.3024
▁lizard	-12.3024
▁picnic	-12.3024
▁regenerat	-12.3024
▁steroid	-12.3024
▁tirade	-12.3024
▁vivid	-12.3024
▁conquer	-12.3024
▁vaugh	-12.3024
▁brazen	-12.3024
▁parcel	-12.3024
▁vcr	-12.3024
▁belarus	-12.3024
▁crescent	-12.3024
▁mound	-12.3024
▁scrab	-12.3024
▁thumb	-12.3024
▁guerre	-12.3024
▁senegal	-12.3024
▁xiao	-12.3024
▁fetch	-12.3024
▁cradl	-12.3024
reconcil	-12.3024
▁improp	-12.3024
▁unwilling	-12.3024
▁backpack	-12.3025
▁cereal	-12.3025
▁stumbl	-12.3025
▁bioengineer	-12.3025
▁analog	-12.3025
▁mortal	-12.3025
▁wrist	-12.3025
labor	-12.3025
▁pomp	-12.3025
▁epit	-12.3025
eject	-12.3025
▁forthcoming	-12.3025
▁brigade	-12.3025
▁donkey	-12.3025
▁kampu	-12.3025
▁appetite	-12.3025
▁smog	-12.3025
▁classify	-12.3025
▁xavi	-12.3025
tacean	-12.3025
▁ferment	-12.3025
▁complicit	-12.3025
▁moviegoer	-12.3025
▁chrys	-12.3025
▁penetrat	-12.3025
▁kayak	-12.3025
▁lumina	-12.3025
▁snag	-12.3025
▁automaker	-12.3025
▁creek	-12.3026
▁induce	-12.3026
▁sneake	-12.3026
trust	-12.3026
irming	-12.3026
▁grocer	-12.3026
enchant	-12.3026
▁defence	-12.3026
▁purpl	-12.3026
▁neutralize	-12.3026
▁consulate	-12.3026
▁sleeve	-12.3026
▁pediatrician	-12.3026
▁curious	-12.3026
▁leverage	-12.3026
▁dismay	-12.3027
▁ascend	-12.3027
▁backyard	-12.3027
▁rabbit	-12.3027
▁necessity	-12.3027
▁pancrea	-12.3027
▁corral	-12.3027
▁morris	-12.3027
▁muddy	-12.3027
▁connor	-12.3027
▁copyright	-12.3028
▁blond	-12.3028
▁tanner	-12.3028
▁pileup	-12.3028
▁dispel	-12.3028
▁freak	-12.3028
▁thoms	-12.3028
▁revelation	-12.3028
▁arsen	-12.3028
▁unnerv	-12.3028
▁gyan	-12.3028
▁void	-12.3029
▁chiap	-12.3029
▁corru	-12.3029
▁guitarist	-12.3029
▁exemption	-12.3029
▁gerald	-12.3029
▁confucian	-12.303
▁brokerage	-12.303
▁aspiration	-12.303
▁variation	-12.303
▁resent	-12.303
▁fool	-12.303
▁guiller	-12.303
▁incur	-12.303
▁roast	-12.303
▁firearm	-12.303
▁digest	-12.3031
▁indigen	-12.3031
▁pristin	-12.3031
▁relegat	-12.3031
marie	-12.3031
▁bachelor	-12.3031
▁aisle	-12.3032
▁flopp	-12.3032
▁peek	-12.3032
▁eleven	-12.3033
▁rope	-12.3033
▁elevation	-12.3033
▁flipp	-12.3033
▁cram	-12.3033
gabyte	-12.3033
▁revel	-12.3033
▁claw	-12.3034
▁lapse	-12.3035
▁lazi	-12.3035
▁sixteen	-12.3035
▁inexperience	-12.3035
▁tasting	-12.3035
▁offset	-12.3035
▁booth	-12.3035
ebok	-12.3036
lino	-12.3036
▁towel	-12.3036
▁motorist	-12.3037
▁lux	-12.3037
▁consist	-12.3037
▁pluck	-12.3037
▁endeavor	-12.3037
▁adaptation	-12.3037
▁interruption	-12.3038
left	-12.3038
▁rhon	-12.3038
▁workplace	-12.3038
burst	-12.3038
▁auditor	-12.3038
▁evasi	-12.3039
▁hillside	-12.3039
▁statute	-12.3039
▁totalitarian	-12.3039
▁battlefield	-12.3039
▁runaway	-12.3039
▁elisa	-12.304
▁grassland	-12.304
▁manipulation	-12.304
▁fasci	-12.304
▁certifi	-12.3041
▁politicize	-12.3041
metric	-12.3041
▁flush	-12.3041
harr	-12.3042
tzfeld	-12.3042
▁relocation	-12.3042
▁handset	-12.3043
sense	-12.3043
▁systematic	-12.3043
▁snack	-12.3043
▁perrin	-12.3044
▁notify	-12.3045
artis	-12.3045
▁feud	-12.3046
scope	-12.3046
▁purse	-12.3046
▁boule	-12.3047
▁fledg	-12.3047
▁guardian	-12.3048
▁loung	-12.3048
▁reforest	-12.3049
▁showroom	-12.3049
▁scorch	-12.3049
▁yb	-12.305
▁lugo	-12.305
▁confidential	-12.3051
▁veil	-12.3052
▁uphold	-12.3052
mimic	-12.3052
▁revision	-12.3053
▁wax	-12.3053
▁lenno	-12.3054
▁frustration	-12.3054
▁maggi	-12.3055
▁ceza	-12.3055
▁laude	-12.3056
▁plow	-12.3056
▁feast	-12.3056
▁wallet	-12.3057
▁matchup	-12.3057
licious	-12.3057
protester	-12.3058
▁cement	-12.3059
▁dior	-12.306
▁dash	-12.3061
russian	-12.3061
ahab	-12.3061
▁grove	-12.3063
▁vick	-12.3064
tamina	-12.3065
▁swam	-12.3065
big	-12.3066
▁qualifier	-12.3066
▁saha	-12.3066
▁occupy	-12.3066
▁contributor	-12.3067
▁playoff	-12.3069
▁thunder	-12.3071
▁demon	-12.3074
etal	-12.3076
burn	-12.3079
▁mold	-12.3079
▁borough	-12.3079
plex	-12.308
▁subsidiz	-12.308
▁portrayal	-12.3081
negar	-12.3082
extraterrestrial	-12.3082
▁calc	-12.3085
▁twel	-12.3086
▁mamm	-12.3086
▁brim	-12.3087
▁directive	-12.3087
▁bagg	-12.3087
▁sync	-12.3088
▁wrack	-12.3088
ollea	-12.3093
▁evad	-12.3095
arious	-12.3095
▁knu	-12.3095
▁macho	-12.3096
▁tempt	-12.31
▁specifi	-12.3102
▁alias	-12.3105
▁ferrer	-12.3106
kaz	-12.3106
▁makeover	-12.3111
plete	-12.3112
▁trim	-12.3113
▁watt	-12.3116
reau	-12.3116
jir	-12.3117
serbia	-12.3117
▁hallway	-12.3118
▁afl	-12.312
wage	-12.312
▁chul	-12.3125
▁berl	-12.3128
▁maul	-12.3129
▁max	-12.313
▁sock	-12.3131
hof	-12.3131
▁aqua	-12.3132
tox	-12.314
▁versa	-12.3141
▁mudsli	-12.3145
▁prediction	-12.3148
large	-12.3148
join	-12.315
▁leaf	-12.315
▁kaz	-12.3154
tration	-12.3156
▁worm	-12.3157
▁kristin	-12.316
▁jian	-12.3162
moud	-12.3163
lique	-12.3165
▁reactivat	-12.3168
coni	-12.3168
adav	-12.3169
stair	-12.3176
taki	-12.3176
laughter	-12.3178
▁outspen	-12.3178
pinning	-12.3179
▁valve	-12.3181
▁casa	-12.3182
avia	-12.3183
▁birdie	-12.3188
rassin	-12.3189
▁indicator	-12.3191
▁maur	-12.3191
▁siren	-12.3191
chett	-12.3193
▁maje	-12.3196
nstop	-12.3196
moon	-12.3202
▁stubb	-12.3204
imba	-12.3205
▁legg	-12.3207
▁reproducti	-12.3207
▁tactical	-12.3209
▁skeptical	-12.321
▁twister	-12.3211
partment	-12.3212
shrugg	-12.3218
▁fume	-12.3221
▁nurtur	-12.3222
andem	-12.3227
▁ego	-12.3232
hour	-12.3242
▁pitcher	-12.3244
fleck	-12.3252
mill	-12.3256
▁anxi	-12.3258
rock	-12.3258
▁nedo	-12.3259
avo	-12.3268
▁hedg	-12.3268
▁perk	-12.3287
sao	-12.3298
▁alme	-12.3299
▁levee	-12.3302
colomb	-12.3302
dao	-12.3303
▁naka	-12.3305
icho	-12.3311
▁christin	-12.3318
qar	-12.3323
▁multimillion	-12.3325
caul	-12.3329
keli	-12.3329
▁tutori	-12.3337
▁crow	-12.3345
▁niss	-12.336
lims	-12.3362
▁subversi	-12.3382
▁sensibilit	-12.3382
▁spru	-12.3387
▁symboliz	-12.3401
asahi	-12.3407
ratify	-12.3423
nori	-12.343
illon	-12.3438
▁barc	-12.3449
▁christo	-12.3449
rating	-12.345
riq	-12.346
▁mama	-12.3476
ourish	-12.3481
▁goul	-12.3484
▁correction	-12.3485
scot	-12.3488
patric	-12.3488
vell	-12.3489
wat	-12.3515
year	-12.3521
burr	-12.3526
iq	-12.3534
eodor	-12.3555
▁seb	-12.3559
▁pich	-12.3562
▁marw	-12.357
▁dani	-12.3583
inted	-12.3605
▁copt	-12.3619
▁addresse	-12.3621
▁marina	-12.3652
▁lever	-12.3658
▁meteor	-12.3674
comfortabl	-12.3675
▁lunche	-12.3682
▁withstand	-12.3701
▁disciplin	-12.3701
immed	-12.3717
▁logic	-12.3727
adilla	-12.3744
▁naga	-12.3745
kana	-12.3753
▁bernie	-12.3758
gina	-12.3765
▁silenc	-12.377
▁elm	-12.3785
maj	-12.3796
▁papa	-12.3797
oria	-12.3798
▁peta	-12.3816
ledge	-12.3822
luck	-12.3835
▁gigg	-12.384
▁activ	-12.3851
uno	-12.3861
▁rile	-12.3868
rail	-12.3879
▁drumm	-12.3893
▁zaina	-12.392
qo	-12.3926
▁mutt	-12.3936
▁wak	-12.3937
arau	-12.3943
ipa	-12.3991
▁memo	-12.3992
▁activis	-12.4024
epsi	-12.4042
▁stun	-12.4043
aples	-12.4044
▁hwan	-12.4077
▁grandm	-12.4088
isse	-12.4143
▁tripp	-12.4148
▁zac	-12.4157
lake	-12.416
▁imperialis	-12.4179
▁emm	-12.4199
▁preservati	-12.4214
▁imperial	-12.4216
liar	-12.422
olk	-12.4226
▁squal	-12.4231
▁salam	-12.4232
▁kilo	-12.4232
▁interi	-12.4247
▁conven	-12.4252
rick	-12.4276
▁boundar	-12.4287
▁intimidati	-12.4326
▁helsin	-12.4338
▁caf	-12.4361
▁reappear	-12.4364
▁hartl	-12.4371
eparation	-12.4496
ptical	-12.4511
▁shamb	-12.4537
▁nem	-12.455
▁bacteri	-12.455
▁contradict	-12.4568
▁conan	-12.458
▁drum	-12.46
▁peg	-12.4642
steve	-12.4681
▁advocat	-12.472
harper	-12.4743
stimulant	-12.4748
ulder	-12.4756
▁glamo	-12.477
▁dega	-12.4777
▁kyu	-12.4789
wak	-12.4795
▁prob	-12.4803
▁barge	-12.4845
gill	-12.4864
▁pushe	-12.4872
knesse	-12.4877
bbe	-12.4899
▁swoo	-12.4901
▁naiv	-12.4917
dental	-12.4917
▁blan	-12.4919
▁vene	-12.4943
chiba	-12.4965
▁markov	-12.4971
vision	-12.4976
rigi	-12.5051
atherin	-12.5056
▁slavi	-12.5059
▁whisk	-12.5068
eij	-12.5074
▁expo	-12.5103
▁arr	-12.5118
bhut	-12.5138
▁sag	-12.5159
unice	-12.5182
▁revol	-12.5197
▁memorab	-12.5204
reacher	-12.5221
▁kli	-12.5235
fug	-12.5254
lope	-12.5261
patient	-12.5261
▁natal	-12.5273
unker	-12.5296
ggle	-12.531
▁reproduc	-12.5312
▁circula	-12.5321
▁salah	-12.5328
▁reper	-12.5328
▁abdo	-12.5343
tenti	-12.5349
lusive	-12.5359
oya	-12.536
hog	-12.5361
▁forbid	-12.5362
▁mole	-12.5379
▁wetang	-12.5389
▁vertebra	-12.5389
mex	-12.539
▁messag	-12.5396
laye	-12.54
▁scam	-12.541
uitt	-12.5412
ampton	-12.5413
gregate	-12.5415
industrializ	-12.5415
▁firefight	-12.542
▁flam	-12.5421
▁exercis	-12.5423
dalla	-12.5436
brough	-12.5438
▁residenc	-12.5439
▁circu	-12.5439
whit	-12.5454
▁lex	-12.5454
colombia	-12.5455
▁bolivar	-12.546
▁airwa	-12.5463
▁absolute	-12.5467
ressed	-12.5473
▁constituen	-12.548
strict	-12.548
wada	-12.5482
democrat	-12.5482
pleasure	-12.5483
accurate	-12.5484
jewel	-12.5485
computer	-12.5485
treasur	-12.5485
gibbon	-12.5485
brook	-12.5485
lender	-12.5485
gamb	-12.5486
ultimate	-12.5486
blaze	-12.5486
preliminar	-12.5486
correct	-12.5486
effective	-12.5486
companies	-12.5486
individual	-12.5486
castro	-12.5486
compar	-12.5486
superdelegate	-12.5486
traditional	-12.5486
brazil	-12.5486
details	-12.5486
necessar	-12.5486
george	-12.5486
owners	-12.5486
journalist	-12.5486
discover	-12.5486
electric	-12.5486
lawyer	-12.5486
church	-12.5486
television	-12.5486
business	-12.5486
parliament	-12.5486
separate	-12.5486
commission	-12.5486
soldier	-12.5486
begin	-12.5486
thursday	-12.5486
kosov	-12.5487
fund	-12.5487
farmer	-12.5488
match	-12.5488
storm	-12.5488
roof	-12.5488
hashi	-12.5489
account	-12.5489
strong	-12.5489
▁lame	-12.549
staff	-12.549
why	-12.549
fresh	-12.5491
▁profession	-12.5491
proof	-12.5492
johan	-12.5493
clashe	-12.5493
development	-12.5493
rudd	-12.5493
fuel	-12.5494
fernando	-12.5495
northern	-12.5495
▁albania	-12.5497
▁stew	-12.5499
visibl	-12.5499
iffe	-12.55
atlantic	-12.55
bring	-12.5502
▁compromis	-12.5503
father	-12.5503
▁sauce	-12.5505
accessi	-12.5505
▁elevat	-12.5506
retti	-12.5507
root	-12.5509
sometime	-12.5511
▁eviden	-12.5514
▁stir	-12.5517
▁resolut	-12.5517
▁atlanti	-12.5518
flight	-12.5518
destine	-12.5519
stopp	-12.552
colombian	-12.552
▁dictat	-12.5521
brew	-12.5521
▁conservat	-12.5523
▁jeopard	-12.5523
▁trump	-12.5523
imeter	-12.5524
▁glitter	-12.5524
▁yekaterin	-12.5524
▁horizontal	-12.5524
▁puzzl	-12.5524
▁reflex	-12.5524
▁reprogramm	-12.5524
cragg	-12.5524
olympia	-12.5524
tetrapod	-12.5524
▁accomplice	-12.5524
▁adversar	-12.5524
▁aeronautic	-12.5524
▁afflict	-12.5524
▁affluen	-12.5524
▁alleviat	-12.5524
▁antioxidant	-12.5524
▁archipelag	-12.5524
▁beelzebu	-12.5524
▁bulldozer	-12.5524
▁caricature	-12.5524
▁ceramic	-12.5524
▁certificate	-12.5524
▁chestnut	-12.5524
▁clutch	-12.5524
▁cocktail	-12.5524
▁disseminate	-12.5524
▁entrepreneur	-12.5524
▁equate	-12.5524
▁fraternit	-12.5524
▁frontrunner	-12.5524
▁futurist	-12.5524
▁giselle	-12.5524
▁indulge	-12.5524
▁lombard	-12.5524
▁manuscript	-12.5524
▁mauritania	-12.5524
▁milligram	-12.5524
▁miscarriage	-12.5524
▁pesticide	-12.5524
▁prosthetic	-12.5524
▁quadruple	-12.5524
▁quarantine	-12.5524
▁recuperat	-12.5524
▁rehearsal	-12.5524
▁reincarnat	-12.5524
▁rhoad	-12.5524
▁ritchie	-12.5524
▁sidewalk	-12.5524
▁surrogate	-12.5524
▁trastevere	-12.5524
▁trawler	-12.5524
▁turtle	-12.5524
▁umbrella	-12.5524
▁unfavorabl	-12.5524
▁uruguay	-12.5524
▁vigorous	-12.5524
▁crawl	-12.5524
▁default	-12.5524
▁disrespect	-12.5524
▁enclave	-12.5524
▁falluja	-12.5524
▁griffi	-12.5524
▁modify	-12.5524
▁noodle	-12.5524
▁penguin	-12.5524
▁quebec	-12.5524
▁siphon	-12.5524
▁tourniquet	-12.5524
▁undeniabl	-12.5524
nuptial	-12.5524
▁adjourn	-12.5524
▁conquest	-12.5524
▁dispens	-12.5524
▁emphatic	-12.5524
▁kiosk	-12.5524
▁mortem	-12.5524
▁newsweek	-12.5524
▁slovenia	-12.5524
▁aurora	-12.5524
▁intoxicat	-12.5524
▁sumatra	-12.5524
▁wreak	-12.5524
▁hypothe	-12.5524
▁indign	-12.5524
▁lifeboat	-12.5524
▁macaque	-12.5524
▁resurrect	-12.5524
▁arrogan	-12.5524
▁contemporar	-12.5524
consequent	-12.5524
▁magnifi	-12.5524
▁matthew	-12.5524
▁zheng	-12.5524
▁ravine	-12.5524
▁segment	-12.5524
▁wharf	-12.5524
▁ambigu	-12.5524
▁frown	-12.5524
▁inevitabl	-12.5524
▁vindic	-12.5524
▁voyage	-12.5524
▁bookstore	-12.5524
▁varsha	-12.5524
▁cowboy	-12.5524
▁ideologue	-12.5524
▁unfurl	-12.5524
▁botnet	-12.5524
▁satisfactor	-12.5525
▁spiegel	-12.5525
▁pundit	-12.5525
▁demolition	-12.5525
▁frantic	-12.5525
▁cuddl	-12.5525
▁envelop	-12.5525
▁jolt	-12.5525
▁inherent	-12.5525
▁wrench	-12.5525
▁irregularities	-12.5525
▁renown	-12.5525
▁warlord	-12.5525
▁drastic	-12.5525
symmetr	-12.5525
▁carcass	-12.5525
▁disregard	-12.5525
▁stiff	-12.5525
▁trampl	-12.5525
▁intrusi	-12.5525
▁lehman	-12.5525
▁mutilat	-12.5525
zambi	-12.5525
▁relentless	-12.5525
▁arbitra	-12.5525
▁ipod	-12.5525
▁projectile	-12.5525
▁inundate	-12.5525
▁simulate	-12.5525
▁supercomputer	-12.5525
▁newcomer	-12.5525
▁critter	-12.5525
▁dogfight	-12.5525
▁jeopardize	-12.5525
▁pelt	-12.5526
armac	-12.5526
▁embroi	-12.5526
▁brisk	-12.5526
▁jagg	-12.5526
▁speck	-12.5526
▁orchid	-12.5526
eille	-12.5526
▁preview	-12.5526
▁winemaker	-12.5526
▁superstitio	-12.5526
▁decaf	-12.5526
▁hippo	-12.5526
▁gilbert	-12.5526
▁litvin	-12.5526
▁anthropologist	-12.5526
▁commandeer	-12.5526
▁populis	-12.5526
▁splash	-12.5526
chowsk	-12.5526
ijk	-12.5526
▁canop	-12.5526
▁dangl	-12.5526
▁overheat	-12.5526
▁spasm	-12.5526
▁unplug	-12.5526
▁whitti	-12.5527
▁cull	-12.5527
▁zahar	-12.5527
▁yank	-12.5527
▁stymie	-12.5527
tronical	-12.5527
▁envision	-12.5527
▁ichi	-12.5527
▁rhy	-12.5527
▁habitual	-12.5527
▁staph	-12.5527
▁imprint	-12.5528
▁autocra	-12.5528
▁verti	-12.5528
oratori	-12.5528
▁stagehand	-12.5528
▁obey	-12.5528
▁reversal	-12.5528
▁euthanize	-12.5528
▁saliva	-12.5528
▁columnist	-12.5528
▁gutter	-12.5528
▁riff	-12.5528
▁deterred	-12.5528
▁jubil	-12.5528
▁attain	-12.5529
▁volley	-12.5529
dolph	-12.5529
▁affirm	-12.5529
▁feedback	-12.5529
▁walden	-12.5529
▁banquet	-12.553
▁anthropolog	-12.553
▁rational	-12.553
▁eros	-12.553
▁mcke	-12.553
▁psychiatrist	-12.553
▁ebb	-12.553
▁unpack	-12.5531
▁payroll	-12.5531
accaro	-12.5531
▁winkel	-12.5531
▁bulge	-12.5531
▁exhale	-12.5531
▁torchbearer	-12.5531
▁stroll	-12.5531
young	-12.5531
▁swamp	-12.5532
▁stifl	-12.5532
▁encyclopedia	-12.5532
▁silk	-12.5532
urname	-12.5532
▁scanner	-12.5533
▁fringe	-12.5533
▁stitch	-12.5533
tomac	-12.5533
▁lifeguard	-12.5533
▁shann	-12.5533
▁reuse	-12.5533
▁litter	-12.5534
▁cramm	-12.5534
▁destin	-12.5534
▁thrash	-12.5534
▁dumb	-12.5535
▁joking	-12.5535
▁rejoin	-12.5535
▁reset	-12.5535
▁idiot	-12.5535
▁glove	-12.5536
apocalyp	-12.5537
▁colour	-12.5537
▁sarc	-12.5538
▁loyalist	-12.5538
▁decry	-12.5538
ireles	-12.5538
▁brend	-12.5538
▁hatha	-12.5538
arkh	-12.5538
▁jamaican	-12.5539
▁landfall	-12.5539
owler	-12.5539
▁schoolgirl	-12.5539
▁rodent	-12.5539
▁reache	-12.554
zabell	-12.554
▁throng	-12.5541
▁reposition	-12.5542
▁compel	-12.5542
erfer	-12.5542
▁annoy	-12.5542
▁snowboard	-12.5542
▁spoil	-12.5543
▁iceberg	-12.5543
▁communiqu	-12.5543
▁greyhound	-12.5543
▁simm	-12.5544
▁vertical	-12.5545
▁extinguisher	-12.5545
▁gawker	-12.5545
kwon	-12.5545
▁haw	-12.5546
▁decoration	-12.5546
▁trimm	-12.5546
▁meddl	-12.5546
chile	-12.5547
▁schie	-12.5547
cuban	-12.5547
▁supervisor	-12.5547
▁jerem	-12.5547
▁nasr	-12.5547
mps	-12.5548
▁tame	-12.5548
kward	-12.5549
▁santor	-12.5549
guel	-12.5549
▁respectful	-12.5549
▁batt	-12.555
▁vaccination	-12.555
▁wrongful	-12.555
▁felic	-12.5551
▁mizu	-12.5551
▁loren	-12.5551
▁incline	-12.5552
apart	-12.5552
acle	-12.5552
irelessly	-12.5553
▁translation	-12.5554
▁checkup	-12.5554
▁rite	-12.5554
▁horm	-12.5555
▁caval	-12.5555
▁cutback	-12.5555
▁dredge	-12.5556
▁reformist	-12.5556
▁fortunate	-12.5556
▁accommodation	-12.5557
▁melee	-12.5557
adhika	-12.5558
▁sweater	-12.5558
nbach	-12.5558
▁pelvi	-12.5558
herbe	-12.556
tool	-12.556
smic	-12.5561
▁keyboard	-12.5561
▁hiros	-12.5562
culty	-12.5563
▁toshihi	-12.5563
▁specialize	-12.5564
▁tilt	-12.5564
▁insert	-12.5564
cock	-12.5564
▁beginner	-12.5564
▁ferv	-12.5565
▁boult	-12.5565
akawa	-12.5566
▁hesitat	-12.5568
▁tali	-12.5568
▁knockout	-12.557
ntiff	-12.557
culin	-12.557
▁energize	-12.557
shuffl	-12.5571
▁pavl	-12.5573
▁rebec	-12.5573
▁crumbl	-12.5574
▁incense	-12.5576
▁budh	-12.5578
▁sift	-12.558
ninet	-12.558
▁regal	-12.558
kaua	-12.5585
▁terrifi	-12.5586
▁peel	-12.5586
▁hoard	-12.5587
hsan	-12.5589
▁abduction	-12.559
▁stimulate	-12.559
▁ramm	-12.5591
▁wynn	-12.5595
▁erod	-12.5597
▁ador	-12.5598
▁skydiver	-12.5598
lavic	-12.5599
bag	-12.56
▁shaw	-12.56
utchin	-12.5603
marine	-12.5603
▁mutin	-12.5606
camp	-12.5608
chell	-12.5608
chsch	-12.5611
▁clever	-12.5612
▁fig	-12.5612
hrou	-12.5615
▁logger	-12.5621
▁freighter	-12.5621
▁unsea	-12.5622
▁mcm	-12.5632
▁prescrib	-12.5632
▁saif	-12.5639
▁hamburger	-12.5642
hermos	-12.5646
▁cess	-12.5647
▁coloss	-12.5647
▁essen	-12.5652
reshi	-12.5654
ntena	-12.5675
▁barrett	-12.5676
▁emitter	-12.5679
lissa	-12.568
udor	-12.5681
umps	-12.5682
voter	-12.5683
▁adventurer	-12.5683
▁yoshino	-12.5691
▁weave	-12.5692
▁housewi	-12.5693
▁foresee	-12.5693
quel	-12.5698
nmun	-12.5701
▁temper	-12.5705
nutter	-12.5721
▁electora	-12.5722
sprinter	-12.5736
swam	-12.574
align	-12.5743
blade	-12.5757
▁francesc	-12.5758
▁sensational	-12.5762
roach	-12.5765
guy	-12.5768
▁whoopi	-12.577
▁demean	-12.5784
tangula	-12.5785
▁reggi	-12.5796
▁magna	-12.583
kham	-12.5834
jorn	-12.5858
▁revolv	-12.5867
andro	-12.5882
▁irritati	-12.5883
cipa	-12.5897
▁corresponden	-12.5908
ushi	-12.5915
▁arye	-12.5918
poros	-12.5922
▁peni	-12.5923
probabl	-12.5924
intel	-12.5925
ranj	-12.5941
▁betray	-12.5944
fraim	-12.5946
cesc	-12.5961
▁mauric	-12.5967
▁screenwrit	-12.5972
▁toleran	-12.5987
▁trot	-12.5997
▁stampede	-12.601
▁mcclinto	-12.605
jim	-12.6086
▁boni	-12.6092
locat	-12.6101
cheng	-12.6118
hoff	-12.6123
▁lent	-12.6188
stroi	-12.6191
jana	-12.6222
▁pix	-12.6234
▁timo	-12.6286
taka	-12.6295
unda	-12.631
▁vibrati	-12.6347
▁marcia	-12.6381
▁stat	-12.639
laima	-12.6396
pu	-12.6397
uisin	-12.6418
fitt	-12.6423
manche	-12.6427
gler	-12.6437
antana	-12.6443
vader	-12.6457
oslo	-12.6459
▁ecolog	-12.6469
▁resona	-12.6495
▁facilitat	-12.6498
▁ballooni	-12.6503
elect	-12.6555
▁prima	-12.659
▁distincti	-12.662
fuse	-12.6659
▁mcg	-12.6667
▁lenin	-12.6669
lva	-12.6684
penh	-12.6692
▁cyp	-12.6706
▁tyr	-12.6707
adhi	-12.6737
pun	-12.6741
▁feye	-12.6776
▁ethan	-12.6823
kubi	-12.685
pai	-12.6899
▁circl	-12.6977
▁refrigerat	-12.7044
refrigerator	-12.7064
▁figur	-12.7079
▁balanc	-12.7133
yadi	-12.7138
▁unsee	-12.7148
ulk	-12.7154
▁regulat	-12.7159
undi	-12.716
▁valde	-12.7223
▁hwa	-12.7245
▁fond	-12.7265
▁integrati	-12.727
▁borg	-12.7279
▁kink	-12.7341
▁stalinis	-12.74
quil	-12.7415
▁ventur	-12.7421
moshe	-12.7424
empt	-12.7447
▁zain	-12.7526
ibul	-12.7531
▁ferrie	-12.7575
▁giggl	-12.7585
▁zak	-12.7593
odera	-12.7606
▁humi	-12.762
haka	-12.7622
▁judg	-12.7641
comfort	-12.7692
▁enclos	-12.7726
pitt	-12.7744
arbour	-12.7808
▁vibra	-12.7816
lude	-12.7832
▁volk	-12.7845
▁packag	-12.7957
basic	-12.8038
▁indecen	-12.8039
▁repress	-12.8041
drawing	-12.8055
ufu	-12.8077
▁humili	-12.8097
einstei	-12.8101
duct	-12.8114
rkus	-12.812
version	-12.8125
eckha	-12.8137
kwan	-12.8137
▁khu	-12.8145
▁galu	-12.8203
rek	-12.8203
rossi	-12.8241
runa	-12.8251
tigation	-12.8255
product	-12.8262
▁deduc	-12.8266
idf	-12.8317
▁correspond	-12.8321
hender	-12.8325
▁flex	-12.8361
▁supplement	-12.8397
▁sherr	-12.8449
▁bureaucra	-12.8478
conference	-12.8491
hum	-12.8491
▁kleb	-12.8519
▁necess	-12.8578
▁automat	-12.8581
▁additi	-12.8592
▁adventur	-12.8592
volta	-12.8605
cluded	-12.8629
▁salv	-12.8631
▁shatter	-12.8636
justice	-12.8644
temp	-12.8658
gular	-12.8683
protest	-12.8694
original	-12.8695
tiana	-12.8722
opening	-12.8724
affle	-12.8731
christo	-12.8734
naps	-12.8738
angelin	-12.8738
terrestrial	-12.8756
unite	-12.8759
▁skydiv	-12.8776
▁worshipp	-12.8777
kenya	-12.8788
ukun	-12.8788
rescue	-12.8788
▁suicid	-12.8791
keep	-12.8797
suka	-12.8801
fernand	-12.8805
▁creativ	-12.8807
fortunate	-12.8808
▁terribl	-12.8809
iraq	-12.8811
solution	-12.8812
depress	-12.8816
club	-12.8816
imagin	-12.8816
frost	-12.8817
grove	-12.8817
abdul	-12.8817
ivanov	-12.8817
tooth	-12.8818
involv	-12.8818
mosquito	-12.8818
negro	-12.8818
davyd	-12.8818
delegate	-12.8818
connect	-12.8818
parole	-12.8819
greenpeace	-12.8819
kuznetsov	-12.8819
regard	-12.8819
obvious	-12.8819
michel	-12.8819
professional	-12.8819
dramatic	-12.8819
vitamin	-12.8819
shield	-12.8819
columbia	-12.8819
diplomat	-12.8819
philippine	-12.8819
wolf	-12.8819
fellow	-12.8819
conservative	-12.8819
egypt	-12.8819
worse	-12.8819
famous	-12.8819
venezuelan	-12.8819
stephen	-12.8819
establish	-12.8819
francis	-12.8819
environment	-12.8819
represent	-12.882
african	-12.882
evidence	-12.882
congress	-12.882
screen	-12.882
football	-12.882
immediate	-12.882
tibet	-12.882
republican	-12.882
california	-12.882
militant	-12.882
afghan	-12.882
minutes	-12.882
historic	-12.882
troop	-12.882
emergency	-12.882
texas	-12.882
black	-12.882
natural	-12.882
film	-12.882
clark	-12.882
climat	-12.882
should	-12.882
internet	-12.882
nepal	-12.882
child	-12.882
▁sweat	-12.882
family	-12.882
advance	-12.882
general	-12.8821
leader	-12.8821
continue	-12.8821
complete	-12.8821
militar	-12.8821
portug	-12.8821
beaut	-12.8821
tiger	-12.8821
borg	-12.8822
airport	-12.8822
tropic	-12.8822
could	-12.8822
surger	-12.8824
boston	-12.8825
▁nutritio	-12.8827
resolve	-12.8827
airline	-12.8827
ghana	-12.8828
schedule	-12.8828
julie	-12.8828
announce	-12.8829
▁magne	-12.883
ahmadi	-12.8833
damage	-12.8834
blai	-12.8834
▁disast	-12.8835
▁endeavo	-12.8835
iscuit	-12.8839
license	-12.884
small	-12.884
▁profess	-12.8842
khaz	-12.8843
judic	-12.8844
adding	-12.8844
yemen	-12.8847
▁exempt	-12.885
▁slap	-12.8853
presso	-12.8855
achim	-12.8856
▁pharmac	-12.8856
responsi	-12.8857
▁irregular	-12.8857
cussion	-12.8857
▁buoy	-12.8857
whidbey	-12.8858
▁excruciating	-12.8858
▁grigor	-12.8858
cendent	-12.8858
ochondria	-12.8858
▁accumulation	-12.8858
▁acquaintance	-12.8858
▁appetiz	-12.8858
!	-15.3524
?	-15.3525
