<pad>	0
<s>	0
</s>	0
<unk>	0
▁	-3.04047
▁다	-3.58515
▁이	-3.59198
▁는	-3.83392
▁.	-3.87195
▁을	-3.93005
▁의	-4.05281
▁에	-4.16222
▁은	-4.17171
▁고	-4.45558
를	-4.45732
▁했	-4.47751
▁하	-4.47823
▁가	-4.57743
▁들	-4.69109
▁있	-4.73552
▁한	-4.82389
▁에서	-4.8339
▁,	-5.14326
▁로	-5.23161
▁것	-5.2381
▁으로	-5.26939
▁인	-5.31351
▁그	-5.32359
자	-5.36329
“	-5.36506
▁일	-5.36674
▁”	-5.37807
▁)	-5.41912
▁(	-5.45654
▁지	-5.46213
▁"	-5.46608
."	-5.51069
▁과	-5.51233
▁다고	-5.52573
▁기	-5.5828
▁와	-5.69341
▁명	-5.72927
▁말	-5.74516
▁수	-5.7655
▁도	-5.78472
▁적	-5.81317
▁주	-5.82784
리	-5.83391
인	-5.87555
▁할	-5.91967
▁며	-5.93668
원	-5.94601
▁해	-5.97898
년	-5.9878
▁만	-5.99037
▁전	-6.01847
장	-6.02251
지	-6.02485
▁라고	-6.05876
▁되	-6.071
▁었	-6.09462
이	-6.10101
▁밝혔	-6.12603
는	-6.15915
않	-6.16465
▁어	-6.17094
부	-6.17708
기	-6.17731
사	-6.18143
▁게	-6.23765
▁대	-6.23874
스	-6.24374
▁부	-6.26085
▁된	-6.28011
▁시간	-6.28869
▁아	-6.29066
가	-6.29654
▁됐	-6.30379
시	-6.34548
▁미국	-6.35577
▁라	-6.35593
▁1	-6.39188
치	-6.41835
▁2	-6.43067
▁지난	-6.43868
▁던	-6.44587
▁시	-6.44659
▁중	-6.45302
▁현지	-6.45771
▁에게	-6.45931
▁미	-6.46658
마	-6.47673
▁한다	-6.48395
▁전했	-6.48653
드	-6.49088
▁상	-6.4978
▁사	-6.50752
▁""	-6.51912
서	-6.52002
▁았	-6.56292
터	-6.57955
▁모	-6.60432
번	-6.61165
▁없	-6.617
▁대통령	-6.62039
선	-6.6303
한	-6.63801
▁받	-6.64077
▁월	-6.64886
관	-6.65074
하	-6.653
▁’	-6.65487
안	-6.65489
도	-6.67405
전	-6.68497
▁나	-6.69223
▁3	-6.70334
▁보	-6.72767
▁위해	-6.74078
해	-6.74354
수	-6.74655
▁여	-6.75898
▁동	-6.77081
▁자	-6.77691
다	-6.78224
▁‘	-6.78532
▁정부	-6.78875
나	-6.79152
▁오	-6.79224
우	-6.79655
▁성	-6.79873
▁개	-6.81956
▁경찰	-6.83612
▁위	-6.83962
▁차	-6.84024
히	-6.85157
▁경	-6.85164
▁무	-6.85179
당	-6.85408
▁때	-6.85849
문	-6.86359
▁대한	-6.86512
▁당	-6.86789
▁제	-6.86828
▁비	-6.87365
회	-6.87378
대	-6.88868
▁대해	-6.89298
▁사람	-6.90208
▁총	-6.90382
▁지만	-6.91305
▁까지	-6.92441
으며	-6.95828
정	-6.96486
고	-6.96775
▁또	-6.97529
구	-6.97725
의	-6.98325
▁세	-6.98937
편	-6.99029
군	-7.00379
로	-7.00421
▁될	-7.00876
르	-7.0127
▁장	-7.01885
국	-7.02352
성	-7.02522
▁5	-7.0275
러나	-7.02921
트	-7.03268
▁관	-7.0356
▁거	-7.03952
▁발	-7.04311
야	-7.04313
▁발생	-7.04418
▁반	-7.04722
▁4	-7.05527
라크	-7.05726
▁매	-7.06401
력	-7.06527
▁자신	-7.06573
▁선	-7.07355
소	-7.07757
▁중국	-7.07862
▁내	-7.08449
▁지역	-7.09076
▁달러	-7.09814
▁면	-7.10241
▁약	-7.11267
주	-7.11326
▁마	-7.12491
▁더	-7.13096
▁%	-7.13162
▁많	-7.13444
근	-7.14278
태	-7.14426
▁'	-7.15275
일	-7.15698
▁남	-7.16542
▁알	-7.16738
▁같	-7.16937
재	-7.1696
▁강	-7.17216
▁사망	-7.17748
물	-7.18389
신	-7.1859
▁조	-7.18699
▁등	-7.19057
▁-	-7.20182
운	-7.20708
화	-7.22044
속	-7.2214
상	-7.22345
▁유	-7.22388
▁오바	-7.2303
▁바	-7.24007
▁간	-7.24605
어	-7.25354
간	-7.25971
▁다른	-7.27304
▁대변	-7.28374
▁6	-7.28492
▁포	-7.28522
두	-7.29002
▁영국	-7.29717
분	-7.30665
제	-7.30683
▁원	-7.312
▁현	-7.31404
보	-7.31408
탄	-7.31408
▁폭	-7.31861
동	-7.31922
▁테러	-7.31992
련	-7.32879
▁우리	-7.32947
▁으며	-7.33789
▁군	-7.33895
▁처	-7.35502
프	-7.35537
며	-7.37012
음	-7.38403
그	-7.38911
▁10	-7.39311
▁화	-7.40605
▁앞	-7.40969
▁공	-7.41491
▁후보	-7.41541
▁문제	-7.41606
키	-7.42362
▁불	-7.42522
▁세계	-7.42546
▁후	-7.42708
면	-7.4273
▁통해	-7.42978
▁분	-7.43301
날	-7.436
토	-7.43626
행	-7.44501
▁관계	-7.45975
▁조사	-7.46416
▁최	-7.47218
▁국가	-7.47298
▁8	-7.47879
▁소	-7.4806
▁클린턴	-7.49061
식	-7.49302
▁민주	-7.49351
즈	-7.49661
▁신	-7.5002
▁추	-7.50363
▁정	-7.50488
진	-7.5049
▁파	-7.51315
▁계	-7.51379
▁된다	-7.51696
든	-7.52398
라	-7.52797
▁연	-7.53526
후	-7.53631
▁영화	-7.53753
▁예정	-7.53988
니	-7.54637
▁달	-7.55331
적	-7.55494
체	-7.558
▁당국	-7.56004
량	-7.56101
금	-7.56185
▁입	-7.56788
▁면서	-7.57073
였	-7.57402
▁확	-7.57716
▁서	-7.57997
▁7	-7.5811
비	-7.58616
▁작	-7.59241
▁호	-7.59564
▁번	-7.59766
아	-7.59777
차	-7.60458
요	-7.60463
사건	-7.60826
▁가장	-7.62326
▁연구	-7.62474
▁선거	-7.62499
▁안	-7.62658
직	-7.628
용	-7.63065
스탄	-7.63099
▁타	-7.63115
▁건	-7.63139
조	-7.63221
엘	-7.63813
단	-7.63856
▁구	-7.6391
격	-7.64332
▁노	-7.64636
▁북한	-7.64968
▁설명	-7.65132
▁발표	-7.65138
들	-7.65538
견	-7.66218
▁물	-7.66372
▁200	-7.66408
'	-7.6693
▁두	-7.67343
▁보도	-7.67367
▁배	-7.6812
출	-7.68235
▁20	-7.68308
▁국제	-7.68604
▁공격	-7.68674
▁사용	-7.68904
▁데	-7.69348
▁지지	-7.69482
▁이후	-7.69706
▁시작	-7.70185
모	-7.70193
▁시위	-7.70712
함	-7.70902
▁여성	-7.70951
객	-7.71095
▁인터	-7.71802
▁사실	-7.72114
▁9	-7.72336
▁파키	-7.73114
미	-7.73283
▁아니	-7.73451
무	-7.73719
▁억	-7.76022
▁핵	-7.76238
▁아이	-7.76349
▁이상	-7.7685
▁일본	-7.77049
▁결과	-7.77358
▁12	-7.77451
▁단체	-7.77707
론	-7.77747
록	-7.78145
▁덧붙	-7.78292
▁도록	-7.78631
카	-7.78689
/	-7.79847
녀	-7.80582
▁야	-7.80865
000	-7.81034
▁재	-7.81407
▁위한	-7.82184
위	-7.82881
▁스	-7.82959
▁열	-7.83007
▁가능	-7.83299
과	-7.83583
▁일부	-7.83783
항	-7.84333
"	-7.84386
▁생각	-7.84882
▁경제	-7.85535
▁진	-7.85805
▁회사	-7.85805
▁11	-7.85853
점	-7.86827
▁살	-7.86904
달	-7.87208
▁교	-7.87713
▁올	-7.87748
▁피해	-7.88153
▁지도	-7.88428
슨	-7.88858
권	-7.88896
▁경기	-7.89029
통	-7.89551
▁곳	-7.90191
크	-7.90202
▁이스라	-7.90602
▁프랑스	-7.90941
▁겠	-7.9214
▁초	-7.92285
반	-7.92437
질	-7.93028
할	-7.93107
▁방문	-7.9335
▁방	-7.93457
▁버	-7.93677
▁계획	-7.93703
▁30	-7.94063
▁돼	-7.94151
▁위원	-7.94566
감	-7.94642
내	-7.94649
▁결정	-7.95124
▁함께	-7.95278
임	-7.9547
▁높	-7.95502
세	-7.96179
▁기자	-7.965
▁사고	-7.97582
양	-7.97678
▁양	-7.9772
▁필요	-7.97833
명	-7.98159
다고	-7.98236
▁려	-7.98286
움	-7.98292
락	-7.98502
▁관리	-7.98728
▁19	-7.98886
실	-7.99459
에	-7.99934
황	-8.00006
▁베	-8.00007
것	-8.00111
산	-8.00244
▁갖	-8.0027
▁그리고	-8.00976
▁북	-8.01253
▁실	-8.01448
▁혐	-8.01991
티	-8.02236
▁법	-8.02689
▁비난	-8.02694
픽	-8.02872
▁승	-8.03779
▁직	-8.04023
▁새로	-8.04193
▁임	-8.04239
▁승리	-8.04408
디	-8.04529
▁요구	-8.05434
▁러시아	-8.05736
▁권	-8.05809
▁존	-8.05922
▁친	-8.06178
으나	-8.06231
▁몇	-8.06718
박	-8.06851
▁정치	-8.06952
포	-8.07197
급	-8.07719
▁길	-8.0772
▁성명	-8.07802
▁피	-8.08039
▁본	-8.08081
▁외	-8.08122
▁유엔	-8.08498
▁뒤	-8.08667
심	-8.09018
▁코	-8.10012
각	-8.10291
▁뉴욕	-8.10476
파	-8.10603
▁부상	-8.11048
▁치	-8.11304
▁집	-8.11976
례	-8.11995
▁이나	-8.12942
’	-8.13351
▁국민	-8.13456
▁시장	-8.13807
▁예	-8.13878
▁박	-8.13889
▁따	-8.14076
▁였	-8.14094
망	-8.14386
▁채	-8.14803
입	-8.15053
▁주민	-8.15207
▁"""	-8.15693
유	-8.157
째	-8.15752
C	-8.1586
▁카	-8.16168
▁따라	-8.1618
약	-8.16547
▁올림	-8.17207
▁좋	-8.18267
▁한국	-8.18269
▁규	-8.18273
▁투표	-8.18318
게	-8.18349
류	-8.18478
▁병원	-8.18554
택	-8.18736
역	-8.18906
브	-8.19871
▁15	-8.20044
▁팀	-8.20124
▁지원	-8.20143
려	-8.20927
▁16	-8.20941
업	-8.21609
케인	-8.21708
방	-8.22098
▁18	-8.22204
던	-8.22723
램	-8.23023
▁우주	-8.23194
▁대부	-8.23201
▁유럽	-8.23645
▁결	-8.23753
▁터키	-8.23776
강	-8.23779
▁점	-8.23781
▁산	-8.23798
말	-8.23835
▁이란	-8.23864
▁비행	-8.23899
처	-8.2402
▁줄	-8.24223
넷	-8.24543
얻	-8.24543
오	-8.24746
▁정보	-8.24812
언	-8.25069
▁표	-8.25684
발	-8.26069
거	-8.26087
럼	-8.26334
▁사회	-8.26508
▁아프	-8.26656
▁통	-8.27308
리아	-8.27505
▁공개	-8.27705
▁힐러	-8.27804
만	-8.28147
및	-8.28925
운데	-8.28961
▁언론	-8.29001
습	-8.29232
▁회담	-8.29258
▁왔	-8.29267
▁병	-8.2937
▁투	-8.29566
▁저	-8.29807
▁단	-8.2992
결	-8.30968
▁감	-8.31014
▁용	-8.31092
▁행	-8.31221
▁는데	-8.31248
▁맞	-8.31274
▁허	-8.31332
▁열린	-8.31454
타	-8.31829
▁큰	-8.31845
▁통신	-8.32188
▁형	-8.32683
▁미얀	-8.32738
월	-8.32906
▁공화	-8.33478
름	-8.33673
코	-8.33988
▁증	-8.33989
품	-8.34118
▁습니다	-8.34182
▁체포	-8.34212
▁는다	-8.34368
▁영	-8.34432
▁:	-8.34519
▁밖	-8.34519
▁케	-8.34575
▁벌	-8.34813
▁전문	-8.34944
▁크	-8.35206
루	-8.35409
▁가족	-8.35551
▁기술	-8.35616
▁평화	-8.35619
▁도시	-8.35646
▁종	-8.35955
▁최고	-8.36154
▁잘	-8.36204
료	-8.36429
▁CNN	-8.36769
▁키	-8.36787
법원	-8.36791
쪽	-8.36965
▁못	-8.37477
▁실시	-8.37534
▁특	-8.38117
▁개발	-8.38231
▁중단	-8.3865
▁국	-8.38662
져	-8.38937
샤라	-8.38986
▁프로그	-8.39749
▁대학	-8.40257
경	-8.40448
▁대표	-8.40468
▁14	-8.40534
▁왕	-8.40652
s	-8.41104
▁중요	-8.41162
곳	-8.41467
▁참석	-8.41531
▁복	-8.41675
협	-8.41685
▁이용	-8.41869
▁측	-8.41942
▁25	-8.42306
▁찾	-8.42354
▁방송	-8.42357
▁보호	-8.42958
병	-8.4305
▁보고	-8.43668
▁역	-8.43709
▁내용	-8.43923
▁체	-8.43952
▁토	-8.4399
▁레	-8.44013
▁질	-8.44014
퓨	-8.44101
▁누	-8.44114
▁항공	-8.44462
러	-8.44492
▁여러	-8.44707
색	-8.44798
교	-8.4493
▁17	-8.45069
▁판	-8.45143
런	-8.45237
▁진행	-8.45337
▁W	-8.45625
법	-8.4566
개	-8.45682
▁사이	-8.45811
▁검	-8.45814
계	-8.45912
▁TV	-8.4636
▁활동	-8.46376
주의	-8.46569
▁km	-8.46743
▁방법	-8.4678
압	-8.46909
린	-8.47276
▁했었	-8.47447
▁인도	-8.47592
▁증가	-8.4773
버	-8.48062
▁막	-8.48134
목	-8.48438
▁사이트	-8.4847
▁소속	-8.48498
바	-8.48701
▁변호	-8.4874
▁13	-8.48757
▁협	-8.48881
▁볼	-8.48954
▁충	-8.49038
▁보이	-8.49402
▁목	-8.49411
▁해결	-8.49769
확인	-8.49966
▁컴	-8.49966
▁감독	-8.5025
▁27	-8.50445
텔	-8.51056
▁반대	-8.51064
▁온	-8.51156
중	-8.5126
▁P	-8.51343
▁24	-8.51403
▁씨	-8.51515
난	-8.51542
▁협상	-8.51595
▁날	-8.51684
스타인	-8.51711
형	-8.51803
▁못했	-8.51947
▁21	-8.52085
돌	-8.52157
▁22	-8.52181
▁운동	-8.52293
영	-8.52386
▁대회	-8.52483
▁속	-8.52898
▁회견	-8.53104
▁예상	-8.53167
무장	-8.53339
▁요	-8.53682
▁전쟁	-8.53726
▁동물	-8.5376
▁문	-8.54017
▁이미	-8.54022
▁홍	-8.54265
퍼	-8.5438
초	-8.54657
▁조직	-8.5494
뷰	-8.55114
▁합의	-8.55143
▁각	-8.55285
웨	-8.55447
▁네	-8.55826
추	-8.55868
▁티베트	-8.55987
츠	-8.56182
종	-8.56319
▁새	-8.56328
▁50	-8.56364
▁로부	-8.56366
래	-8.56438
▁작업	-8.56442
▁생산	-8.56461
▁대의	-8.56523
공	-8.56545
▁정상	-8.56647
▁우려	-8.56818
했	-8.5689
▁이유	-8.57065
▁취	-8.57396
▁제작	-8.57423
호	-8.57469
▁F	-8.5748
▁힘	-8.57883
▁어떤	-8.58068
▁수도	-8.58204
▁논	-8.58306
▁판매	-8.58583
▁E	-8.5891
▁인정	-8.58915
▁사진	-8.58965
▁독일	-8.5911
▁난	-8.59176
판	-8.59326
▁콜롬비	-8.60018
▁트	-8.60125
▁악	-8.60225
▁음	-8.60493
▁출	-8.60509
▁거래	-8.6067
▁관광	-8.60779
▁죽	-8.60833
▁가지	-8.60874
▁걸	-8.61084
▁성공	-8.61677
▁항	-8.61692
▁팔레	-8.61781
▁잡	-8.61818
▁100	-8.61899
커	-8.61913
▁용의	-8.62137
▁범	-8.6215
▁보안	-8.62442
▁생	-8.62714
▁구조	-8.62735
▁접	-8.62921
▁첫	-8.6298
▁런	-8.6303
▁40	-8.63112
증	-8.63336
▁폭력	-8.63427
송	-8.63458
▁촉	-8.63675
범	-8.63983
스트	-8.64507
▁폐	-8.64906
▁웹	-8.6523
▁학생	-8.65403
▁금	-8.65564
▁남부	-8.65635
▁놓	-8.65751
▁행사	-8.65858
▁의해	-8.65906
▁연방	-8.65948
▁회의	-8.66091
▁언	-8.66579
제공	-8.66679
▁28	-8.66748
연	-8.6679
▁이슬람	-8.66862
▁향	-8.66864
저	-8.67056
절	-8.67134
▁199	-8.67168
시아	-8.67356
▁돌	-8.6769
▁위기	-8.67789
▁하나	-8.68255
▁위험	-8.68486
율	-8.68803
▁팔	-8.68924
▁직원	-8.69079
▁26	-8.69891
변화	-8.69984
▁공급	-8.69987
▁골	-8.69989
▁마리	-8.69992
▁끝	-8.70029
▁다시	-8.70247
▁A	-8.70297
릴	-8.71215
▁남성	-8.71754
▁23	-8.71771
설	-8.71782
노	-8.71922
▁지금	-8.71943
▁여행	-8.72068
▁입장	-8.7211
▁호주	-8.72352
▁드	-8.72385
측	-8.72506
▁넘	-8.7265
▁선수	-8.7296
▁자유	-8.73215
▁밝	-8.73321
▁정책	-8.73422
▁자살	-8.73439
살	-8.7348
▁폭발	-8.73537
▁지구	-8.73582
7	-8.73691
뿐	-8.73804
▁준비	-8.73843
▁상대	-8.73853
▁인해	-8.74054
▁소식	-8.7407
▁29	-8.74101
▁부족	-8.74407
▁압	-8.74438
▁국경	-8.74849
건	-8.75081
▁밀	-8.75229
▁치료	-8.75303
▁설	-8.75478
▁숨	-8.75485
▁란	-8.75792
냐	-8.75899
▁의사	-8.76373
▁담	-8.765
▁시설	-8.76519
▁심	-8.76568
▁철	-8.7664
▁손	-8.76814
베	-8.76905
▁조지	-8.77095
▁회	-8.771
▁도착	-8.77106
악	-8.77209
▁스타	-8.7727
합	-8.77294
▁기업	-8.77306
▁학교	-8.77694
담	-8.77845
랑	-8.78055
란	-8.78198
▁절	-8.78328
립	-8.78344
열	-8.78615
4	-8.7868
▁금지	-8.78731
▁평	-8.7911
▁빌	-8.79133
▁스페인	-8.79139
향	-8.79273
라고	-8.79389
▁2006	-8.7959
럽	-8.79797
▁연합	-8.79822
▁총선	-8.79879
▁시켰	-8.80025
▁운영	-8.80027
▁독립	-8.80118
머리	-8.80163
▁?	-8.80543
▁국방	-8.81256
y	-8.81555
외	-8.82
▁영향	-8.82043
싶	-8.82164
▁’(	-8.82202
을	-8.82211
▁경고	-8.82338
석	-8.82512
▁안전	-8.82623
▁전화	-8.82631
▁요청	-8.82725
▁보여	-8.82759
접	-8.8277
▁석유	-8.82775
▁어린이	-8.82795
▁짐	-8.82947
▁국무	-8.83287
▁재판	-8.83316
쟁	-8.8333
▁프라이	-8.83441
▁석방	-8.83679
▁환경	-8.8389
5	-8.8399
른	-8.84013
▁범죄	-8.84022
▁눈	-8.84279
민	-8.84315
▁상승	-8.84663
▁클	-8.84791
▁0	-8.85064
▁살해	-8.85251
야기	-8.85353
▁도로	-8.85523
▁떨어진	-8.85536
▁귀	-8.85824
▁역사	-8.85879
튼	-8.86054
▁서비스	-8.86057
▁나라	-8.86288
▁청	-8.86534
복	-8.86678
끼	-8.86772
▁니	-8.87194
U	-8.87742
▁테	-8.88057
▁애	-8.88155
▁산업	-8.88264
▁으나	-8.88457
▁시민	-8.88518
3	-8.88592
은	-8.88782
▁공식	-8.89223
▁고위	-8.89425
▁텍사스	-8.89595
손	-8.90031
퇴	-8.90089
▁우	-8.90126
틴	-8.90831
▁2008	-8.90962
▁가진	-8.91135
▁입니다	-8.91351
책	-8.9145
▁유명	-8.9148
▁침	-8.91671
이징	-8.91885
더	-8.9246
~	-8.93095
▁숨졌	-8.93107
▁별	-8.93173
▁루	-8.93299
탕	-8.93542
▁목표	-8.9372
▁몸	-8.93757
▁알려	-8.93771
현	-8.93777
▁함	-8.93826
▁은행	-8.9501
▁투자	-8.95232
▁학	-8.95349
▁푸	-8.95395
▁먹	-8.95432
▁밝혀	-8.95486
자리	-8.9551
▁구호	-8.95633
▁행위	-8.9607
▁천	-8.96422
▁유가	-8.96637
▁티	-8.96722
▁태	-8.96784
2	-8.9681
▁경쟁	-8.96933
영상	-8.97233
▁변	-8.97253
▁군사	-8.97303
▁책임	-8.97552
벌	-8.97839
▁아무	-8.98101
▁판결	-8.98124
▁출신	-8.98203
▁광	-8.98216
렸	-8.98238
쇄	-8.9882
▁성장	-8.99061
▁하루	-8.99212
▁베네	-8.99441
▁감염	-9.00045
▁식량	-9.00071
▁희생	-9.00083
▁쓰	-9.00256
▁국영	-9.00296
▁패	-9.0033
여	-9.00362
지막	-9.00604
=	-9.00669
▁생활	-9.00832
▁유지	-9.00845
▁인권	-9.00918
▁C	-9.01113
▁민간	-9.01368
▁아들	-9.01618
착	-9.01635
▁m	-9.01651
▁지방	-9.01747
▁과학자	-9.01949
왕	-9.02174
▁디	-9.02332
▁화재	-9.02398
업체	-9.02588
▁퍼	-9.02598
00	-9.02845
▁출전	-9.02867
매	-9.02953
피	-9.03215
▁보였	-9.03449
▁봉	-9.03594
▁아시아	-9.03627
서부	-9.03685
▁최소	-9.03734
▁헬	-9.03737
▁보내	-9.03874
▁하락	-9.03886
▁준	-9.03931
▁구성	-9.03932
▁지진	-9.04025
축	-9.04041
▁같이	-9.042
▁선언	-9.04203
▁환	-9.04232
▁부인	-9.04367
▁엔	-9.04624
▁참여	-9.0469
길	-9.05022
▁센터	-9.05076
림	-9.05171
▁D	-9.05509
▁대사	-9.05626
▁수상	-9.06014
▁연설	-9.06135
▁이탈리아	-9.06686
극	-9.06695
▁잃	-9.06752
▁인용	-9.06816
배	-9.06819
▁비상	-9.0682
▁of	-9.06842
레	-9.06906
▁급	-9.07178
▁대상	-9.07344
▁실종	-9.0751
▁거리	-9.07606
▁백	-9.07632
▁밤	-9.077
▁연기	-9.07736
데	-9.07756
▁공동	-9.08514
▁빈	-9.08657
르코	-9.08798
▁운	-9.08893
▁외교	-9.0899
▁위해서	-9.09005
▁개인	-9.09025
▁소비	-9.09138
널	-9.09256
불	-9.09394
▁낮	-9.09603
▁납치	-9.09625
▁격	-9.09644
▁바그다	-9.09644
▁60	-9.09797
생	-9.10199
▁팬	-9.10221
▁신문	-9.1028
집	-9.10561
▁바이	-9.10667
별	-9.10881
바브	-9.10957
▁해안	-9.11183
▁목격	-9.11293
▁발사	-9.11362
▁쿠	-9.11404
▁식	-9.11465
▁버스	-9.11502
버지	-9.11543
▁수감	-9.11691
▁&	-9.11753
▁출연	-9.11785
▁관심	-9.12017
▁최대	-9.1229
▁캘리포니아	-9.12469
▁메	-9.1247
환	-9.12473
0	-9.12768
▁the	-9.13277
▁심각	-9.13277
럴	-9.13457
▁얼마	-9.13486
랜드	-9.13541
▁딸	-9.13613
▁31	-9.137
▁빠	-9.13747
령	-9.13855
▁기관	-9.14122
▁잠	-9.14256
▁즉	-9.14484
▁믿	-9.14752
▁드러	-9.1491
러스	-9.15135
▁사무	-9.15136
▁폴	-9.15145
▁수사	-9.15163
▁전체	-9.1521
콩	-9.15331
혀	-9.15428
겼	-9.15466
겪	-9.15485
패	-9.15527
▁탈	-9.15564
▁담당	-9.15649
었	-9.15776
▁기대	-9.16174
▁결혼	-9.16209
울	-9.16514
▁사업	-9.16576
응	-9.16892
▁자금	-9.16918
이런	-9.17082
▁암살	-9.17099
지만	-9.17112
▁벌였	-9.17138
▁감소	-9.1723
▁맥	-9.17351
▁모르	-9.17352
▁보인다	-9.17602
▁효	-9.17691
▁알리	-9.17712
▁탄	-9.17817
▁내렸	-9.17896
▁광고	-9.18022
▁외국	-9.18067
▁수술	-9.18213
▁프로	-9.18588
작	-9.18678
예	-9.18686
▁확실	-9.1877
▁안보	-9.18927
▁인구	-9.19241
친	-9.19267
▁워싱턴	-9.19425
▁수천	-9.19544
▁흑	-9.19576
온	-9.19599
▁나오	-9.197
▁칸	-9.19848
▁JO	-9.20166
INS	-9.20175
능	-9.20197
▁외무	-9.20294
라인	-9.20488
▁운전	-9.20583
▁순	-9.20965
▁나타	-9.20971
났	-9.2099
▁맡	-9.2105
▁일반	-9.21069
▁인지	-9.21298
기구	-9.21738
▁맨	-9.21842
▁인사	-9.22118
▁수백	-9.22366
▁시스템	-9.22575
비아	-9.22577
▁편	-9.22603
▁앤	-9.22823
▁갈	-9.22926
▁연료	-9.23034
▁여객	-9.23105
지사	-9.23135
청	-9.2314
▁착	-9.23286
▁삼	-9.23289
▁자동	-9.23487
▁암	-9.23569
▁완	-9.23612
층	-9.23796
▁일정	-9.23873
▁바라	-9.23946
졌	-9.23949
▁이끌	-9.23969
▁교수	-9.24054
▁게임	-9.24114
▁돈	-9.24127
학	-9.24259
▁평가	-9.24365
▁정신	-9.24438
▁내무	-9.24678
▁헌	-9.24731
롭	-9.25048
▁장소	-9.2509
▁카운	-9.2529
▁헤	-9.25364
▁들어	-9.25711
▁콘	-9.25828
▁알려졌	-9.2591
표	-9.26086
죄	-9.26122
▁발전	-9.26218
▁느	-9.26691
▁특별	-9.26797
▁참가	-9.26929
침	-9.27017
환자	-9.27186
마스	-9.27333
▁라이	-9.27459
▁거주	-9.27657
덴	-9.27934
▁뜻	-9.28226
▁파리	-9.28232
아내	-9.28302
_	-9.28458
픈	-9.28458
▁완전	-9.28592
▁보건	-9.28672
션	-9.28962
▁회원	-9.29031
변	-9.29129
▁어려	-9.2913
▁차이	-9.29297
럭	-9.29327
▁어떻	-9.29328
▁촬영	-9.29328
큼	-9.29328
▁밝혀졌	-9.29342
▁시킬	-9.29383
▁미사	-9.29405
▁나이	-9.29519
▁캠프	-9.29556
사관	-9.29559
▁그런	-9.29648
승	-9.2972
▁사상	-9.29729
▁198	-9.29792
▁총격	-9.29863
▁칼	-9.30064
▁올라	-9.30065
률	-9.30172
▁주택	-9.30242
애나	-9.30268
득	-9.30372
▁수행	-9.30503
▁그러	-9.30504
▁심장	-9.30652
딩	-9.31043
▁나타났	-9.31102
▁개최	-9.31126
엘라	-9.31173
▁즐	-9.31183
▁비디오	-9.31191
▁백악	-9.31282
▁레이	-9.31291
써	-9.3136
▁뉴스	-9.31521
냈	-9.31627
▁대피	-9.31691
▁자료	-9.31752
▁농	-9.3177
쳤	-9.31943
▁플로리다	-9.31984
▁수십	-9.32067
▁사형	-9.32341
굴	-9.3268
▁훈련	-9.32889
가니스	-9.32923
▁브	-9.33078
▁인질	-9.33138
귀	-9.33171
▁교통	-9.33813
▁파괴	-9.33838
▁브라운	-9.34276
▁먼	-9.34445
▁캠	-9.34677
cle	-9.3471
엇	-9.3471
▁아프리카	-9.34795
▁분석	-9.3494
▁캐	-9.35526
롯	-9.35636
▁상당	-9.35674
▁든	-9.35794
▁전투	-9.35837
▁마약	-9.35926
디오	-9.35995
워	-9.36014
9	-9.36029
▁제조	-9.36293
▁기회	-9.36532
#	-9.36571
도네	-9.36623
▁종교	-9.36632
▁커	-9.36728
▁FAR	-9.36838
▁기소	-9.36897
통제	-9.36977
▁주변	-9.36985
▁N	-9.37086
▁르	-9.37337
베스	-9.37367
▁해리	-9.37467
▁arti	-9.37514
▁그렇	-9.37514
무총	-9.37846
▁오른	-9.37886
▁노동	-9.37909
▁교육	-9.38058
▁사우디	-9.38462
▁쉬	-9.38523
▁문화	-9.38592
▁소유	-9.38661
▁노조	-9.3875
올	-9.38763
▁로버트	-9.38831
▁태국	-9.3889
▁슈	-9.39155
▁걸쳐	-9.39447
▁휴대	-9.39552
▁음악	-9.39597
라이스	-9.39629
▁으면	-9.39704
▁사이클	-9.40544
▁더욱	-9.40593
▁협력	-9.40622
▁메시	-9.40638
핀	-9.40654
▁성폭	-9.40704
칠	-9.40847
필	-9.41077
이트	-9.41261
e	-9.41283
쉽	-9.4138
즌	-9.4138
▁증거	-9.41459
A	-9.41472
빈	-9.41479
▁너무	-9.41487
▁리그	-9.41491
▁주둔	-9.41508
▁희	-9.41702
▁다면	-9.41739
▁타임	-9.41781
▁답	-9.41889
▁석	-9.41906
▁장기	-9.41949
▁1000	-9.42253
▁아닌	-9.42505
▁목적	-9.4251
▁음식	-9.42514
▁모델	-9.4253
족	-9.42537
▁러	-9.42565
▁S	-9.42566
▁싱	-9.42702
북	-9.42805
▁감시	-9.42943
▁500	-9.43057
p	-9.43219
▁강력	-9.43273
▁창	-9.43277
▁에너지	-9.43387
블	-9.43466
▁캐나다	-9.4351
다리	-9.43877
▁능	-9.43999
▁이동	-9.44035
▁인상	-9.44039
▁퇴	-9.44079
▁MS	-9.44096
평	-9.441
▁케이	-9.44124
▁해서	-9.44175
▁검사	-9.44178
▁당선	-9.4418
▁움직	-9.4432
▁회복	-9.44416
▁중앙	-9.44441
▁얼	-9.44542
운드	-9.44636
▁80	-9.44715
우스	-9.44975
▁안정	-9.45031
▁쇼	-9.45232
존	-9.45264
▁떨어	-9.45296
잡	-9.45377
▁금융	-9.45434
▁검찰	-9.45718
▁원자	-9.45894
익	-9.46029
▁대원	-9.46029
혹	-9.46074
▁정당	-9.46207
먼	-9.46306
폰	-9.46331
▁쿠르드	-9.4644
▁실패	-9.46479
▁머리	-9.46497
스턴	-9.46977
혈	-9.4734
▁몰	-9.47413
넣	-9.47473
▁샤	-9.47506
글	-9.47652
▁홀	-9.47657
▁분명	-9.47886
와	-9.48019
▁가까	-9.4803
▁소재	-9.48083
▁지나	-9.48091
▁전국	-9.48293
▁제품	-9.48343
▁처리	-9.48507
벽	-9.48512
▁뉴	-9.48618
▁나왔	-9.48632
▁불법	-9.48696
▁충분	-9.48711
험	-9.48761
▁규정	-9.4888
▁제시	-9.48892
▁페	-9.4911
리드	-9.49218
▁밝힌	-9.49606
▁젊	-9.49679
▁경영	-9.50022
▁코소	-9.50082
봉	-9.50089
▁당했	-9.501
▁해외	-9.50105
머니	-9.50324
윈	-9.50668
▁州	-9.50699
▁업	-9.50768
▁휴	-9.5077
▁바란다	-9.50778
▁의료	-9.50795
▁작품	-9.50831
▁중심	-9.5085
▁곤	-9.50872
▁멕시코	-9.50873
▁인기	-9.50877
▁육	-9.51022
▁으로서	-9.51276
▁이러	-9.51281
▁떠	-9.5157
페인	-9.51727
▁바로	-9.5175
풍	-9.51774
▁진술	-9.51778
▁김	-9.51845
▁예방	-9.51861
▁벤	-9.52083
틀	-9.52084
▁후세	-9.52184
▁쿠바	-9.52281
▁올랐	-9.52434
▁내년	-9.52478
▁보냈	-9.52491
이클	-9.52561
▁부정	-9.5264
▁졌	-9.52779
▁탑승	-9.52854
갈	-9.52949
쉬	-9.52962
▁국립	-9.53051
▁축구	-9.53388
▁오늘	-9.53494
유로	-9.53507
▁데이비	-9.53896
탈	-9.53942
▁펜실베이니아	-9.54057
▁정확	-9.54058
▁시대	-9.54103
▁섬	-9.54116
▁분리	-9.5421
▁사령	-9.54211
▁시기	-9.54334
찬	-9.54374
▁풀	-9.54524
▁LA	-9.54731
▁근	-9.54907
▁지명	-9.54972
▁이집트	-9.55185
▁다쳤	-9.55196
▁브라질	-9.55309
▁집행	-9.55337
▁실제	-9.55415
▁층	-9.5545
▁유세	-9.55521
▁둘	-9.55588
▁시상	-9.55688
누	-9.55719
▁T	-9.55774
▁탈레	-9.55934
테	-9.55987
▁수출	-9.56052
▁L	-9.56055
▁주재	-9.56089
▁이제	-9.56096
▁수입	-9.56261
학생	-9.56271
▁가치	-9.56295
▁엄	-9.56309
▁수준	-9.56326
▁어느	-9.56366
▁윌리엄	-9.56442
아주	-9.56594
▁기념	-9.56684
알	-9.56744
▁위반	-9.5679
지구	-9.56907
▁찬	-9.56946
▁책	-9.57111
▁월드	-9.57277
룹	-9.57371
▁나가	-9.57393
참	-9.57459
▁보험	-9.57505
▁잔	-9.57528
al	-9.57555
▁의견	-9.57737
괴	-9.57781
▁배우	-9.58168
▁유일	-9.58224
▁교도	-9.58401
▁그린	-9.58477
▁일으	-9.58617
투	-9.58799
▁노동자	-9.5912
▁B	-9.59372
본	-9.59909
▁페르	-9.59926
▁건설	-9.59929
▁내부	-9.59978
정부	-9.60378
컴	-9.60547
▁시켜	-9.60884
▁과학	-9.61025
▁따른	-9.61038
▁지켜	-9.61098
▁익	-9.61186
가스	-9.6121
▁행정	-9.61318
멘	-9.61393
▁축	-9.61397
PP	-9.61417
D	-9.61428
취	-9.61565
▁내려	-9.61609
▁독	-9.61837
킨	-9.61864
▁기사	-9.62121
▁주의	-9.62162
▁주식	-9.62209
▁예비	-9.62336
미국	-9.62352
▁곧	-9.62469
▁교황	-9.62796
▁탁	-9.62827
▁나무	-9.62875
가베	-9.62959
씨	-9.63095
▁징역	-9.63346
긴	-9.63436
▁가스	-9.63745
▁명령	-9.63892
▁묘	-9.63893
람	-9.64005
▁프리	-9.64102
▁아르	-9.64175
끄	-9.64295
▁술	-9.64601
▁소프트	-9.64629
▁구매	-9.64657
▁전략	-9.64707
▁소송	-9.64728
▁The	-9.64788
▁자연	-9.64919
대로	-9.6493
우드	-9.64951
혼	-9.65261
▁국회	-9.654
▁스피어	-9.65474
▁해군	-9.65758
▁긴	-9.65781
▁혼란	-9.65821
▁민	-9.65877
▁마이크	-9.65927
▁워	-9.66663
▁강제	-9.66708
▁글	-9.6704
▁혁명	-9.67188
▁슈퍼	-9.6721
▁토론	-9.67237
▁긴장	-9.67333
▁경호	-9.67401
▁NA	-9.67425
▁경매	-9.67481
▁동의	-9.67579
▁일간	-9.67681
거리	-9.67866
▁G	-9.67909
액	-9.68115
쳐	-9.68134
▁개선	-9.68148
▁70	-9.68227
▁나토	-9.68289
왔	-9.68331
렵	-9.68357
▁질병	-9.68439
▁생존	-9.6849
and	-9.68653
▁공연	-9.68774
턴	-9.68847
▁R	-9.69184
폭	-9.69198
▁수색	-9.69479
▁차베	-9.69502
▁개혁	-9.69658
▁근무	-9.69733
▁계약	-9.69917
▁쥐	-9.69946
▁톤	-9.69975
지르	-9.69988
▁줬	-9.70048
▁로켓	-9.70065
▁수익	-9.70066
▁과거	-9.70336
아파	-9.70517
▁보장	-9.70621
막	-9.70926
▁홈	-9.70972
▁세르비아	-9.71021
▁아야	-9.7106
▁집중	-9.71074
▁붕	-9.71318
▁전자	-9.71327
▁실험	-9.71411
▁삭	-9.71585
▁샤리	-9.71831
▁아마	-9.71913
▁의미	-9.7194
▁c	-9.71953
머지	-9.72302
▁늘어	-9.72305
▁나타냈	-9.72321
▁치러	-9.72362
▁바다	-9.7252
▁최종	-9.72553
많	-9.72566
▁키스	-9.72599
총	-9.72868
▁전시	-9.72872
▁웨스트	-9.72957
▁저지	-9.72993
▁권력	-9.73016
▁색	-9.73044
▁상업	-9.7311
BI	-9.73115
지난	-9.73338
▁사과	-9.7338
▁com	-9.73817
▁평균	-9.73929
SA	-9.73965
▁율	-9.73973
▁대비	-9.74043
너	-9.74076
▁45	-9.74111
▁자국	-9.74285
팅	-9.74322
▁달리	-9.74422
▁주간	-9.74556
▁당한	-9.74606
▁동맹	-9.74695
▁나섰	-9.75124
1	-9.75171
메드	-9.75172
▁근로	-9.75196
▁데이	-9.75227
릭	-9.75317
▁심리	-9.75338
▁존스	-9.7538
▁파견	-9.75485
▁여름	-9.75507
▁전반	-9.75509
렌	-9.75546
통령	-9.7556
▁잉글랜드	-9.75894
랫	-9.76208
▁조정	-9.76311
▁접촉	-9.76419
헨	-9.7646
▁결승	-9.7646
플	-9.76502
▁단계	-9.76515
▁임명	-9.7662
▁참	-9.76766
▁타이	-9.76792
킹	-9.76796
▁마다	-9.76856
머	-9.76988
바이	-9.77049
▁포인	-9.77151
2001	-9.77209
▁대법원	-9.7725
▁35	-9.7737
▁짜	-9.77511
▁a	-9.77819
촨	-9.77824
▁망명	-9.77847
▁설립	-9.77868
▁돌아	-9.77894
▁근거	-9.77929
맥	-9.77989
▁언제	-9.78044
▁대응	-9.78199
▁오래	-9.78216
논	-9.78378
못	-9.78416
▁난민	-9.78689
▁의장	-9.78784
▁자치	-9.78867
▁못한	-9.78887
▁필	-9.78931
포르	-9.7903
▁앨	-9.79127
▁적어	-9.79151
라데시	-9.79253
▁민병	-9.7928
▁생명	-9.79367
▁녹	-9.79506
골	-9.796
▁가졌	-9.79665
▁싸	-9.7969
F	-9.79747
▁관해	-9.79819
채	-9.79927
▁구속	-9.79942
연합	-9.79954
▁조건	-9.79982
▁플레이	-9.80058
ing	-9.8038
메르	-9.80519
맹	-9.80593
▁레이스	-9.8066
▁업무	-9.80769
▁나와	-9.80779
▁야생	-9.8088
▁방글	-9.80954
g	-9.80965
▁고용	-9.80967
▁집단	-9.8097
볼	-9.81097
풀	-9.81151
네	-9.81208
▁풍	-9.81314
답	-9.81388
▁M	-9.81511
▁부대	-9.81515
▁오르	-9.81583
푸르	-9.81743
▁90	-9.81804
곽	-9.82172
▁맺	-9.82219
▁질환	-9.82219
▁폭풍	-9.82264
▁내리	-9.82272
▁우승	-9.8232
▁기준	-9.82336
▁부르	-9.82647
어나	-9.82792
▁자세	-9.83044
▁지불	-9.83093
▁합	-9.83223
▁I	-9.83236
▁시티	-9.83238
▁소리	-9.83305
▁좌	-9.83469
▁가정	-9.83543
슷	-9.83665
▁수요	-9.8367
▁합니다	-9.83795
▁침체	-9.83802
▁기억	-9.83812
▁결론	-9.83883
▁카메라	-9.8405
▁베이	-9.84131
▁마음	-9.84692
▁대기	-9.84702
6	-9.84864
▁둔	-9.84898
슈	-9.84904
▁시카	-9.84976
▁시청	-9.85493
▁300	-9.85513
▁곡	-9.8565
▁폐기	-9.85891
▁붙	-9.85908
▁대중	-9.85966
컵	-9.86101
▁공공	-9.86176
놓	-9.8622
▁불안	-9.86523
늄	-9.86718
봇	-9.86718
▁크리스마스	-9.86731
▁스러	-9.86776
▁착륙	-9.86937
▁진입	-9.8695
▁말레이	-9.87089
50	-9.872
▁살인	-9.873
▁필리	-9.87363
▁보유	-9.87531
▁품	-9.87638
옥	-9.87642
▁크리스	-9.87661
▁조합	-9.87755
때	-9.8785
▁남동	-9.87863
▁여전	-9.8801
▁넘어	-9.88044
▁32	-9.88091
▁빨	-9.88239
▁식품	-9.88344
▁듯	-9.88413
▁상징	-9.88445
▁경비	-9.88501
▁바람	-9.88506
▁불만	-9.88593
라도	-9.88716
▁MD	-9.88952
▁지하	-9.8896
▁전기	-9.89126
활용	-9.89154
▁공군	-9.89165
념	-9.89264
▁놀	-9.89358
▁버지니아	-9.89359
규	-9.89475
▁36	-9.89651
PC	-9.89878
▁글로	-9.90105
▁낸	-9.90158
▁임신	-9.90383
▁칠	-9.90471
▁스키	-9.90602
▁군정	-9.90633
▁진정	-9.9065
▁루이	-9.9069
▁샌	-9.90894
▁시드	-9.9091
▁현상	-9.90997
▁늘	-9.91346
▁브루	-9.91531
▁불리	-9.91755
페이지	-9.91813
▁송	-9.91897
▁이어	-9.92021
▁신용	-9.92065
흐	-9.92192
▁괴	-9.92223
▁to	-9.92445
▁끌	-9.92518
▁지배	-9.9252
해졌	-9.92667
500	-9.92725
새	-9.92736
슬	-9.92958
▁한다면	-9.93017
▁민족	-9.9311
▁아카데미	-9.9312
▁비타민	-9.9312
▁긴급	-9.93164
▁섹	-9.93172
수지	-9.93211
▁집계	-9.93255
▁개막	-9.93262
중국	-9.93295
▁그래	-9.93304
▁니콜라	-9.93508
촌	-9.93659
▁지휘	-9.93668
▁자주	-9.93717
▁무역	-9.93741
▁기본	-9.93796
▁징	-9.93951
▁에드워	-9.93992
▁방해	-9.94038
링	-9.94045
▁봤	-9.94159
▁킹	-9.94331
▁갔	-9.94413
▁수치	-9.94533
▁s	-9.94617
▁모른다	-9.94706
▁수용	-9.94725
▁다르	-9.94871
▁치러진	-9.94873
▁여기	-9.94881
▁국내	-9.94984
▁공습	-9.9511
뒀	-9.95163
▁뇌	-9.95178
TO	-9.95282
▁극	-9.95345
스터	-9.9538
▁활	-9.95512
웨이	-9.95556
▁그리스	-9.9557
▁그루	-9.95633
▁대형	-9.95642
속도	-9.95736
▁베나	-9.95773
▁마드	-9.95852
낼	-9.96167
딘	-9.96241
애	-9.96313
돌리	-9.96461
*	-9.96482
▁웨	-9.96528
▁장애	-9.96583
▁혜	-9.96595
바로	-9.96607
▁성인	-9.96616
▁나온	-9.96639
▁접속	-9.96774
▁반발	-9.96979
▁네덜란드	-9.96997
P	-9.97029
▁추진	-9.97144
▁흐	-9.97185
▁상품	-9.9728
▁대로	-9.97354
▁렌	-9.97376
▁400	-9.97567
켓	-9.97582
▁카페	-9.97841
셔	-9.979
▁군부	-9.97918
광	-9.97923
▁벨	-9.97981
▁라도	-9.98063
▁유사	-9.98101
▁득표	-9.98209
▁논란	-9.98325
▁오염	-9.98343
▁습	-9.98421
술	-9.98449
▁십	-9.98592
휘	-9.98696
징	-9.98826
고래	-9.98905
▁마크	-9.98917
레스	-9.99011
ed	-9.99033
▁후반	-9.99113
▁피터	-9.99161
▁K	-9.99213
▁H	-9.99331
늘	-9.99368
▁서장	-9.99403
▁통치	-9.99455
▁벗어	-9.99537
벨	-9.99558
컷	-9.9996
▁보관	-9.99972
▁밴	-9.99973
칸	-10.0001
▁프라	-10.0006
▁취임	-10.0011
라이라	-10.0021
▁집권	-10.0021
▁이루	-10.0048
▁공산	-10.0054
▁복용	-10.0054
폴	-10.0062
▁남북	-10.0083
힌	-10.0088
라이	-10.01
▁레바	-10.0109
▁상점	-10.0129
▁소지	-10.0146
▁비밀	-10.0155
들린	-10.0162
▁US	-10.017
삶	-10.0175
틱	-10.0175
▁패배	-10.0178
▁블랙	-10.018
순	-10.0196
▁테이	-10.0199
▁적절	-10.0202
▁네트	-10.0237
▁너	-10.0243
▁세포	-10.0251
▁톰	-10.0258
니아	-10.026
덕	-10.0286
▁게이	-10.0287
델	-10.0293
샤	-10.03
▁도중	-10.032
▁척	-10.0335
▁e	-10.0351
▁혼	-10.0355
▁신뢰	-10.0357
▁순찰	-10.0357
▁법률	-10.0363
▁점령	-10.0364
▁보좌	-10.0365
▁태양	-10.0369
아몬	-10.0379
창	-10.0388
받	-10.0394
위기	-10.0394
세트	-10.0416
▁할지	-10.0421
▁드라	-10.0423
섰	-10.043
▁테러리	-10.0456
▁델	-10.0465
통화	-10.0473
▁카드	-10.0477
밀	-10.0481
▁화장	-10.0528
▁스리	-10.0535
▁케네디	-10.0542
콰도	-10.0544
▁쇼핑	-10.0548
▁올렸	-10.0553
▁낙	-10.0554
▁38	-10.0555
▁도쿄	-10.0558
▁카스트	-10.056
파트	-10.0563
▁노래	-10.0564
▁돌아가	-10.0569
▁소방	-10.0569
▁사우스	-10.0572
▁정말	-10.0579
▁서울	-10.058
폐	-10.0593
▁결의	-10.0603
▁남아	-10.0604
▁모하	-10.0617
▁만화	-10.0618
▁48	-10.0621
▁디즈	-10.0627
TA	-10.0629
▁피트	-10.064
▁k	-10.0652
▁장식	-10.0672
▁42	-10.0674
KK	-10.0682
▁소년	-10.0708
컬	-10.0718
▁흉	-10.073
쁜	-10.073
씬	-10.073
▁흔들	-10.0734
▁론	-10.0741
▁출발	-10.0743
▁커피	-10.0749
▁행진	-10.0767
▁휴가	-10.0769
▁모여	-10.0771
메이	-10.0775
▁철도	-10.0778
▁나갈	-10.0787
제기	-10.0824
등	-10.0824
▁신부	-10.083
반도	-10.0842
▁옷	-10.085
▁카라	-10.0877
▁자격	-10.0886
▁h	-10.0909
혔	-10.0919
▁노스캐롤라이나	-10.0923
렛	-10.0923
앓	-10.0923
▁챔피언	-10.0924
▁소장	-10.0925
▁인민	-10.0928
▁놀라	-10.093
▁탐사	-10.0933
▁린	-10.0937
렘	-10.0937
▁순간	-10.094
▁숨진	-10.0944
▁천연	-10.0944
가지	-10.096
▁인종	-10.0965
▁연락	-10.0967
▁머	-10.0968
▁재무	-10.097
▁로마	-10.098
칭	-10.0982
▁흥	-10.0992
▁파예	-10.0994
▁생물	-10.0996
▁컵	-10.1001
▁폭격	-10.1002
S	-10.1005
남	-10.1019
▁라면	-10.1025
BC	-10.1026
▁견	-10.103
▁어린	-10.1034
▁지대	-10.1048
▁갑	-10.1051
▁온난	-10.1129
▁축제	-10.1131
▁손실	-10.1132
균	-10.1144
▁오하이오	-10.1146
▁리히	-10.1157
▁리버	-10.1162
▁센트	-10.1164
잉	-10.1165
단지	-10.1165
▁닷	-10.1168
(	-10.1169
▁이달	-10.1184
탁	-10.1186
▁응	-10.1195
▁서식	-10.1196
▁펜	-10.1211
NA	-10.1212
▁카르	-10.1231
▁아일랜드	-10.1255
▁저장	-10.1284
▁소수	-10.1294
룡	-10.1313
▁마일	-10.1313
▁급등	-10.132
er	-10.1323
▁운송	-10.1325
▁for	-10.1326
▁적십자	-10.1336
▁값	-10.1343
▁197	-10.1344
▁뉴질랜드	-10.1358
▁스위스	-10.1361
▁앉	-10.1379
▁소행	-10.1409
▁찍	-10.1413
주민	-10.1416
▁분기	-10.1445
▁대만	-10.1453
▁아바	-10.1484
▁37	-10.1493
▁줄어	-10.1498
▁아메리	-10.1504
▁유대	-10.1514
티나	-10.152
넨	-10.1523
▁주가	-10.1532
▁흡연	-10.1552
백	-10.1555
▁황	-10.1556
첼	-10.1556
▁법무	-10.1561
▁늦	-10.1562
▁대량	-10.1585
▁베어	-10.1586
고서	-10.1591
소리	-10.1592
▁식사	-10.1594
▁파티	-10.1598
빌	-10.1599
▁경계	-10.1611
▁등록	-10.1611
싸	-10.1626
▁올리	-10.1632
충	-10.1637
▁뛰어	-10.1644
▁150	-10.1649
▁데일	-10.1661
영국	-10.1679
▁기상	-10.1685
공장	-10.1691
▁스미	-10.1699
략	-10.1705
랍	-10.1712
▁사라	-10.1716
▁정거장	-10.1731
▁벽	-10.1734
▁페루	-10.1743
▁아랍	-10.175
▁완화	-10.175
▁자본	-10.1755
▁북극	-10.1759
▁DV	-10.176
▁고문	-10.1761
▁대전	-10.1764
프란시스	-10.1767
▁조종	-10.1771
▁스티	-10.1773
닉	-10.1777
허	-10.1808
펠	-10.1814
고기	-10.1817
▁만든	-10.1834
랐	-10.1838
O	-10.1851
숨	-10.1858
ion	-10.1868
▁전력	-10.187
▁감사	-10.1875
▁유리	-10.1875
▁그림	-10.1882
녁	-10.1944
쁘	-10.1944
쯤	-10.1944
▁사드	-10.1944
▁모스	-10.1958
▁청소년	-10.1958
▁획	-10.1967
▁농민	-10.1977
▁사기	-10.1979
▁아스	-10.1995
▁주인	-10.2047
궁	-10.2058
▁할리	-10.2088
▁미니	-10.209
RB	-10.2104
독	-10.2108
▁보조	-10.2108
▁프	-10.2109
▁빠져	-10.2119
▁시킨	-10.2121
▁엘	-10.2124
▁메이	-10.2128
▁이뤄	-10.2133
▁고래	-10.2136
▁51	-10.2143
▁으려	-10.2147
훨	-10.2161
▁46	-10.2165
cm	-10.2166
▁킬로	-10.2167
천	-10.217
▁산림	-10.217
▁600	-10.2173
▁마흐	-10.2173
로스	-10.2175
스타	-10.2178
n	-10.2179
▁주최	-10.2185
디어	-10.2192
▁겨	-10.2196
▁신경	-10.2198
젠	-10.2205
▁입양	-10.2212
▁To	-10.2217
▁배출	-10.2221
▁방어	-10.2235
▁J	-10.2235
▁살아	-10.2236
춘	-10.2239
▁틀	-10.224
▁신속	-10.2281
▁53	-10.2294
▁준다	-10.2301
▁찰스	-10.2307
곡	-10.2311
몇	-10.2318
조사	-10.2319
▁가질	-10.232
▁섭	-10.2323
▁테니	-10.2326
웠	-10.2327
▁쇠	-10.2337
K	-10.234
▁마시	-10.2366
▁가져	-10.2368
위원	-10.2381
낳	-10.2383
▁리처드	-10.2383
르셀로	-10.2384
▁빛	-10.2386
▁봉쇄	-10.2388
▁들어갔	-10.239
▁왕세자	-10.2391
▁인디애나	-10.2391
▁디스크	-10.2394
N	-10.2395
▁산악	-10.2396
▁해산	-10.2405
시내	-10.2414
▁버렸	-10.2415
▁이웃	-10.2415
▁재산	-10.2425
▁시험	-10.2436
▁만족	-10.2441
▁무너	-10.2441
▁츠	-10.2442
▁마쳤	-10.2446
▁봉사	-10.2473
W	-10.2483
슬리	-10.2483
▁말리	-10.2503
▁호소	-10.2506
▁슬	-10.2514
사회	-10.2525
이즈	-10.2537
▁힐	-10.2544
▁해적	-10.2546
붕	-10.2551
생활	-10.2555
▁영상	-10.2563
▁75	-10.2571
▁오하	-10.2584
▁유니	-10.2587
피스	-10.2607
▁보수	-10.2611
▁떨어졌	-10.2613
▁걷	-10.2618
FA	-10.2619
▁결혼식	-10.2628
▁52	-10.2633
지수	-10.2634
일러	-10.2639
▁33	-10.264
▁소개	-10.2648
▁유전자	-10.265
찰	-10.265
▁추방	-10.2655
▁대단	-10.2662
▁누군	-10.2669
▁햄	-10.268
▁해변	-10.268
▁브리	-10.2682
▁진화	-10.2698
▁파라	-10.2703
▁조각	-10.2722
▁보낸	-10.2727
▁중재	-10.2737
▁화학	-10.274
▁인류	-10.2747
tal	-10.2747
랄	-10.2748
▁수석	-10.2748
둔	-10.2751
검	-10.2752
▁윈	-10.279
▁무사	-10.2794
짜	-10.2795
그리고	-10.2799
ation	-10.2804
▁멸	-10.2806
▁코트	-10.2823
▁니콜	-10.2839
▁이민	-10.2842
걱	-10.2843
콧	-10.2843
▁근육	-10.2844
다른	-10.2846
▁오랜	-10.2848
▁스포츠	-10.2851
▁레스토랑	-10.2851
▁침몰	-10.2852
▁쿠데	-10.2854
▁뒷	-10.2863
▁육군	-10.2864
▁자기	-10.2864
▁증명	-10.2869
▁화물	-10.287
▁이뤄지	-10.287
▁축하	-10.2871
▁우라	-10.2875
▁벌금	-10.2881
▁복제	-10.2889
▁사우디아	-10.2889
▁골든	-10.289
▁휴전	-10.2891
▁압둘라	-10.2892
▁지정	-10.2895
▁엘리자	-10.2896
▁인명	-10.2896
▁오마	-10.2899
▁미치	-10.2901
▁오스	-10.2903
▁북동	-10.291
▁출구	-10.291
▁우선	-10.2917
▁개정	-10.2919
▁궁	-10.2933
BS	-10.2934
▁랭	-10.2938
▁자원	-10.2944
엄	-10.2948
▁55	-10.296
▁센	-10.2966
▁재정	-10.2966
▁롬	-10.2969
센트	-10.2974
학자	-10.2983
▁44	-10.3
딕	-10.3015
▁냐	-10.3044
▁공정	-10.3046
▁전면	-10.305
호르	-10.3052
▁뛰	-10.3053
냥	-10.3065
ins	-10.3078
▁에베레스트	-10.3081
듣	-10.3081
칙	-10.3081
▁태어난	-10.3082
▁겨울	-10.3083
리랑	-10.3084
▁느냐	-10.3086
▁머물	-10.3089
▁스티븐	-10.3089
▁관찰	-10.3092
▁얼음	-10.3097
▁통계	-10.3099
▁일리노이	-10.3102
▁분노	-10.3112
▁극장	-10.312
▁항소	-10.3132
▁마틴	-10.3134
▁건축	-10.3138
G	-10.3147
▁방화	-10.3165
겨	-10.3173
▁사법	-10.3185
▁원조	-10.3195
쿠	-10.3198
백만	-10.3198
스키	-10.3209
숭	-10.3218
▁북서	-10.3228
닝	-10.3234
▁올린	-10.3239
▁와인	-10.324
싼	-10.3245
염	-10.3247
▁가입	-10.3279
꾸	-10.3284
▁멀	-10.3284
d	-10.3286
▁메르	-10.3296
▁권한	-10.3299
아프리카	-10.3303
nn	-10.3324
젝	-10.3325
▁in	-10.333
▁유나이티	-10.3333
▁AP	-10.3338
▁마무리	-10.3343
▁혈	-10.3346
▁스테	-10.3355
▁신호	-10.336
▁언어	-10.3366
▁내린	-10.3369
▁자선	-10.3383
▁꿈	-10.3386
▁64	-10.3395
▁고등	-10.3401
▁CD	-10.341
▁크루	-10.3411
▁오브	-10.3427
▁죄	-10.3428
심지	-10.343
▁화산	-10.3463
입국	-10.3465
핑	-10.3469
▁연장	-10.3485
▁크리스티	-10.3487
▁냉	-10.349
리오	-10.3495
▁해병	-10.3503
▁의존	-10.3512
▁차관	-10.3519
▁가했	-10.3526
리즈	-10.3527
빙	-10.353
네이	-10.3543
맨	-10.3543
IA	-10.356
경찰	-10.3565
렬	-10.3566
▁플라	-10.3568
▁인가	-10.3574
▁빈곤	-10.3576
▁예술	-10.358
배우	-10.3606
▁뉴햄프셔	-10.361
▁공중	-10.3615
▁서방	-10.3623
▁보석	-10.3634
▁토마	-10.3639
▁불가	-10.3657
FP	-10.3658
▁대체	-10.3659
▁조명	-10.3662
둥	-10.3663
트릭	-10.3687
▁수집	-10.369
데이	-10.3712
창기	-10.375
쿠르	-10.3754
▁요인	-10.3771
,	-10.3773
▁받아들	-10.3783
추세	-10.3787
▁현대	-10.3798
몬	-10.3817
▁백만	-10.3823
납	-10.3829
▁펼쳤	-10.3832
▁훌륭	-10.3832
社	-10.3832
▁기부	-10.3836
▁설득	-10.3837
▁훼	-10.384
▁앞섰	-10.3841
B	-10.3841
▁피닉	-10.3844
▁중남	-10.3853
▁맛	-10.3854
▁영양	-10.386
▁참모	-10.3862
▁자르	-10.3865
▁번호	-10.3866
▁방지	-10.3868
▁억류	-10.3871
▁졸	-10.3871
▁생일	-10.3879
▁보복	-10.3889
▁만났	-10.3914
이션	-10.3926
▁현실	-10.3928
▁켈	-10.3938
드시	-10.3939
▁선전	-10.3942
▁연속	-10.3963
▁ID	-10.3966
▁듀	-10.3982
▁표시	-10.3985
8	-10.4002
스스	-10.4013
▁칭	-10.4014
켜	-10.4016
▁바르	-10.4018
▁지아	-10.4024
▁숙	-10.403
낸	-10.4037
킬	-10.4073
앙	-10.4076
▁납	-10.4077
11	-10.4083
▁편집	-10.4089
렐	-10.4095
▁쓰레기	-10.4095
▁우크라이나	-10.4095
▁일으켰	-10.4095
미지	-10.4096
▁동성애	-10.4097
▁페더	-10.4098
▁하와이	-10.4099
▁암호	-10.4101
▁극단	-10.4103
▁독재	-10.4113
▁관람	-10.4115
▁샌디에	-10.4117
▁줄리아	-10.4119
▁못할	-10.4123
▁AI	-10.4125
▁빙하	-10.4125
유럽	-10.4131
▁프레스	-10.4135
tt	-10.4137
▁면접	-10.4137
10	-10.414
▁아이오	-10.4141
▁34	-10.4145
▁흔	-10.4156
▁미술	-10.4157
▁됐었	-10.4161
▁기타	-10.4162
▁자랑	-10.4163
▁크로	-10.4164
▁께	-10.4165
▁농장	-10.4169
▁도와	-10.4183
▁긍	-10.419
le	-10.4196
▁래	-10.4228
▁끝나	-10.4259
▁모기	-10.4264
▁연대	-10.4297
▁요리	-10.4335
좌	-10.4342
다수	-10.4345
▁도전	-10.4349
셀	-10.435
tion	-10.4355
척	-10.4356
999	-10.436
▁마이애미	-10.4365
▁거짓	-10.4372
▁네바다	-10.4374
▁장례식	-10.4374
▁개헌	-10.4375
▁액	-10.4383
상사	-10.4383
▁신청	-10.4385
▁베트남	-10.4388
▁취할	-10.4389
효	-10.439
▁실망	-10.44
암	-10.44
▁멜	-10.4401
▁부총	-10.4409
▁자극	-10.4419
▁반기	-10.4424
▁혹	-10.4428
▁투어	-10.4428
▁측정	-10.444
▁오스트	-10.4444
▁중계	-10.4484
▁컨	-10.4492
▁프레	-10.4493
▁49	-10.4498
▁동반	-10.4514
포터	-10.4517
▁뼈	-10.4524
▁벌인	-10.4543
▁가난	-10.4558
▁트리	-10.457
▁무선	-10.4581
인공	-10.4586
▁최우	-10.4588
▁수정	-10.4591
▁찾아	-10.4625
▁매장	-10.4636
님	-10.4641
최	-10.4642
▁알라	-10.4642
벳	-10.4643
▁cat	-10.4643
▁일어났	-10.4643
▁떼	-10.4652
▁극복	-10.4654
▁필립	-10.4661
▁순례	-10.4662
워크	-10.4663
▁황금	-10.4664
▁블	-10.4672
▁진영	-10.4672
▁셰	-10.4686
▁의식	-10.4686
멸	-10.4687
▁광산	-10.4691
▁진실	-10.4692
▁옥	-10.4696
▁밑	-10.4709
르크	-10.4718
▁검문	-10.4723
▁플	-10.4743
▁윤	-10.4772
M	-10.4786
▁노스	-10.4795
리스	-10.4836
DA	-10.4838
▁벌어진	-10.4851
드리	-10.4852
▁끼	-10.4852
페	-10.4855
크바	-10.4867
우리	-10.4868
니다	-10.4876
▁380	-10.4879
▁절대	-10.4896
▁염	-10.4896
▁엑스	-10.4929
▁기독교	-10.4929
jo	-10.4929
▁휘발	-10.4929
▁유전	-10.493
▁빅	-10.4931
숙	-10.4933
▁800	-10.4935
▁타이틀	-10.4935
몰	-10.4937
▁걸렸	-10.4942
▁날개	-10.4946
▁걸려	-10.4947
겐	-10.4947
▁묻	-10.4952
▁포르투갈	-10.4953
▁뮤지	-10.4963
▁서양	-10.4963
▁정교	-10.4975
▁56	-10.4975
▁농업	-10.4978
▁최루	-10.4978
▁공포	-10.4999
스코	-10.5006
갔	-10.501
▁기증	-10.502
▁고등학	-10.5024
▁41	-10.5026
▁메일	-10.5026
은행	-10.5032
▁수배	-10.5065
▁주제	-10.509
▁폴리	-10.5099
▁카스	-10.513
페이스	-10.5141
▁취해	-10.5159
▁스카	-10.5162
▁66	-10.52
▁아부	-10.5201
EO	-10.5208
▁43	-10.5222
▁미성년	-10.5224
▁떠났	-10.5226
▁응급	-10.5228
인하	-10.5228
▁노벨	-10.5231
▁읽	-10.5232
▁요르단	-10.5232
▁천주교	-10.5233
▁출석	-10.5234
▁출판	-10.5237
▁활주	-10.5237
▁돌파	-10.5243
▁덴마크	-10.5248
▁스탈린	-10.5248
▁리조	-10.525
▁콩	-10.5251
▁음모	-10.5258
▁예산	-10.5261
▁냈	-10.5274
▁침대	-10.5276
센	-10.5278
힐	-10.5279
▁관측	-10.528
▁요소	-10.5292
▁마사	-10.5293
▁손해	-10.5295
▁랄	-10.53
쓰	-10.5303
없	-10.5304
섭	-10.5304
998	-10.5305
또	-10.5308
▁의학	-10.5314
▁부여	-10.5317
▁못해	-10.5328
▁이슬람교	-10.5346
▁베르	-10.5359
▁셀	-10.5364
▁예선	-10.5373
▁깃	-10.5379
▁취했	-10.5389
행위	-10.5402
▁링	-10.5407
▁59	-10.5408
▁O	-10.5449
▁망	-10.5452
▁공학	-10.5457
▁골드	-10.5471
▁폴란	-10.5474
마르	-10.5482
ML	-10.5501
옹	-10.5526
깝	-10.5526
▁맞춰	-10.5526
▁힌두	-10.5528
▁탑	-10.553
▁단순	-10.553
▁깨	-10.5533
▁IO	-10.5537
▁블라디미	-10.5552
완	-10.5559
▁대학교	-10.5564
EC	-10.5572
룬	-10.5573
줄	-10.5574
경기	-10.5583
▁포경	-10.5587
▁령	-10.5588
▁애플	-10.5588
케	-10.5599
▁X	-10.5604
헌	-10.5615
갑	-10.5619
▁앤드	-10.5641
▁배심	-10.5641
떠	-10.5643
▁54	-10.5647
▁기차	-10.5661
▁간단	-10.5666
▁아래	-10.5668
▁굴	-10.5681
▁부위	-10.5687
▁달린	-10.5691
▁전용	-10.5695
▁최신	-10.5697
▁마이	-10.5698
▁수하	-10.5701
빠진	-10.5727
▁공기	-10.5743
▁수영	-10.575
▁수송	-10.5752
▁다니	-10.5776
▁감지	-10.5776
▁앙	-10.5783
륙	-10.5791
▁고속도	-10.5792
▁700	-10.5813
▁펼쳐	-10.5829
▁승부	-10.5835
▁미시시피	-10.5838
▁옮겨	-10.5838
▁호나우	-10.5839
ment	-10.5839
▁두려워	-10.5839
▁엄청	-10.5841
▁아동	-10.5843
▁합병	-10.5844
▁헨리	-10.5845
▁196	-10.5847
▁받아들일	-10.5848
▁세워	-10.5852
▁울	-10.5853
▁빈민	-10.5855
▁출산	-10.5866
▁온실	-10.5866
▁신중	-10.5886
▁화이트	-10.5887
▁불러	-10.5892
▁원한다	-10.5898
▁강경	-10.5909
▁다니엘	-10.5909
이고	-10.5918
▁여겨	-10.5945
▁키우	-10.5952
▁욕	-10.5954
▁경보	-10.5954
▁중독	-10.5958
힘	-10.5968
▁케르	-10.5969
▁IM	-10.5981
▁나갔	-10.5984
▁보급	-10.5995
빌리	-10.5995
져야	-10.5999
▁좌석	-10.6009
▁재고	-10.6012
▁연주	-10.6016
▁상하	-10.6023
스톤	-10.6025
렌스	-10.6057
▁인생	-10.6069
▁피난	-10.6099
바니	-10.6101
사고	-10.6117
▁과반	-10.612
▁제보	-10.6128
슴	-10.6155
▁스튜	-10.6155
덤	-10.6161
▁아웅산	-10.6161
▁Nation	-10.6162
▁이산화	-10.6164
▁농축	-10.6165
▁흥미	-10.6168
▁훔	-10.6171
▁오사마	-10.6175
▁끝난	-10.6175
▁델타	-10.6177
▁매니	-10.6182
▁파나마	-10.619
▁동기	-10.6195
▁데이터	-10.6196
▁소설	-10.6202
▁동일	-10.6218
▁웃	-10.6221
모스	-10.6222
▁워터	-10.6225
▁스피	-10.6226
▁소형	-10.6228
▁음주	-10.6231
▁고립	-10.6241
▁나이트	-10.6243
▁스트레	-10.6259
▁수족	-10.6267
타르	-10.6276
▁드레	-10.628
t	-10.6288
기후	-10.6293
▁텐	-10.6306
▁택	-10.6319
국적	-10.6331
린다	-10.6338
▁FA	-10.6339
이크	-10.634
▁라우	-10.6348
▁급속	-10.6357
▁57	-10.6366
▁큐	-10.637
▁못한다	-10.6376
▁67	-10.6383
▁65	-10.6384
▁120	-10.6384
▁감기	-10.6389
바드	-10.6405
▁복원	-10.6412
키스	-10.6417
a	-10.6434
▁소시	-10.6437
▁털	-10.6445
▁트레	-10.6472
▁러닝	-10.6495
티오피	-10.6496
▁근본	-10.6497
▁둘러	-10.6501
▁잭	-10.6501
이스	-10.6504
▁응답	-10.6506
▁애완	-10.6506
어디	-10.6507
▁매춘	-10.6508
▁직장	-10.6509
▁이뤄졌	-10.651
▁행복	-10.6511
▁침입	-10.6511
▁조기	-10.6514
▁Z	-10.6521
▁구축	-10.6521
▁플로리다주	-10.6526
▁잇따	-10.6527
북한	-10.6546
▁치명	-10.6549
▁두려	-10.6552
▁청구	-10.6552
▁내릴	-10.6554
▁첩	-10.6558
▁콜	-10.6563
▁벌어	-10.6565
▁협의	-10.6582
▁메드	-10.6588
▁몰려	-10.6604
▁짓	-10.6625
▁소아	-10.6628
십	-10.6629
튜	-10.664
▁250	-10.6641
롬	-10.6654
▁기울	-10.6661
▁베리	-10.667
학교	-10.6672
▁교환	-10.6672
말라	-10.6673
▁넓	-10.6692
▁으	-10.6702
12	-10.6704
트리	-10.6712
▁세이	-10.6716
어지	-10.6718
▁95	-10.6728
스크	-10.6734
▁정의	-10.6737
▁레드	-10.6745
▁의무	-10.6783
▁엘리	-10.6785
▁신장	-10.6792
▁생긴	-10.6793
릿	-10.6798
이틀	-10.6825
▁일으킨	-10.6827
▁America	-10.6839
뀌	-10.6839
즘	-10.6839
▁루이지애나	-10.6839
▁우크라	-10.684
▁대항	-10.684
▁라왈	-10.6842
세우	-10.6843
▁살모넬라	-10.685
▁엄격	-10.6854
▁39	-10.6858
▁히트	-10.686
▁피살	-10.6862
▁쿠즈	-10.6866
▁조작	-10.6875
▁최저	-10.6882
▁꼭	-10.6888
▁보상	-10.6894
▁에릭	-10.6899
▁발굴	-10.6904
▁페르난데	-10.6911
▁올려	-10.6914
▁심문	-10.6917
▁포터	-10.6929
▁72	-10.6932
▁리서	-10.6936
수엘	-10.6942
준	-10.6943
▁웰	-10.6946
80	-10.6952
있	-10.6958
가디	-10.6961
▁130	-10.6968
디아	-10.697
▁덴	-10.697
▁생물학	-10.6975
바오	-10.6979
b	-10.6993
▁심사	-10.6995
▁벗	-10.6996
▁호세	-10.7006
메	-10.7015
▁모아	-10.7017
텐	-10.7028
‘	-10.7033
자기	-10.7038
▁전사	-10.7038
짐	-10.7041
▁딜	-10.7044
▁58	-10.7083
존스	-10.7106
관리	-10.711
▁디자	-10.7124
▁밀리	-10.7133
▁사카	-10.7136
ode	-10.7147
▁랜	-10.7148
▁자라	-10.7181
숲	-10.7196
슛	-10.7196
▁NY	-10.7197
▁균형	-10.7198
▁합법	-10.7202
▁탄생	-10.7203
▁OP	-10.7206
▁봄	-10.7207
▁옛	-10.7207
▁항공우주	-10.7208
▁명확	-10.721
▁인플레	-10.7214
▁대륙	-10.722
▁수비	-10.7228
▁달한다	-10.7247
▁스웨덴	-10.7247
▁애국	-10.7254
▁UE	-10.7269
▁195	-10.7282
▁을까	-10.7285
▁진단	-10.7288
▁로드	-10.7288
▁61	-10.7292
마드	-10.7297
▁제의	-10.73
한다	-10.7307
▁감정	-10.7311
▁알코	-10.7313
려진	-10.7317
▁바위	-10.7332
▁유치	-10.7333
▁흘	-10.7335
푸	-10.7342
타나	-10.735
▁칼리	-10.7357
슬라마	-10.736
▁코스	-10.7364
▁AC	-10.7368
▁장난	-10.7388
▁멘	-10.7389
켈	-10.7396
BM	-10.7425
HO	-10.7431
닐	-10.7455
얼	-10.7458
▁맞이	-10.746
▁개체	-10.7468
▁페이스	-10.7473
▁콜롬	-10.7489
▁리비	-10.749
▁드로	-10.7491
▁오토	-10.7511
▁리치	-10.7517
▁연안	-10.7524
▁브랜	-10.7534
▁덕	-10.7542
▁일어난	-10.7554
EA	-10.7566
美	-10.7567
앗	-10.7567
툼	-10.7567
▁받아들여	-10.7568
▁사육	-10.7572
▁환호	-10.7577
▁멈	-10.7578
▁댐	-10.7578
▁가담	-10.7585
▁합동	-10.759
▁디스	-10.7607
▁증권	-10.7611
▁롤링	-10.762
▁정해	-10.7629
렀	-10.763
▁캐롤라	-10.7632
▁대리	-10.7635
▁쓰러	-10.7642
▁심의	-10.7643
▁마호	-10.7646
▁기밀	-10.7647
▁파파	-10.7648
▁계산	-10.7656
▁재미	-10.7659
▁맥도	-10.7662
슬러	-10.7666
▁압수	-10.7681
레나	-10.7684
▁클라	-10.7691
▁특수	-10.7696
르도	-10.7706
▁심리학	-10.771
▁47	-10.7713
▁메인	-10.7713
▁닐	-10.7723
▁크레	-10.7732
▁수여	-10.7759
욕	-10.7779
짓	-10.7793
▁청소	-10.7796
L	-10.7801
▁클로	-10.7805
솔	-10.7806
싱	-10.782
메일	-10.7827
▁묵	-10.783
▁가벼	-10.7845
▁달려	-10.7887
▁금년	-10.7891
▁포트	-10.7916
E	-10.7918
섯	-10.7947
▁뉴올리언	-10.7951
헴	-10.7951
▁느낄	-10.7951
▁지하철	-10.7952
▁얼룩	-10.7952
티아	-10.7953
▁산타클	-10.7956
▁흡	-10.7958
▁꽃	-10.7963
▁뉴저지	-10.7963
▁벌여	-10.7966
▁롱	-10.7969
▁출입	-10.797
알래스카	-10.7976
▁프리미	-10.7978
▁실린	-10.7988
▁숙박	-10.7989
▁잠재	-10.7993
▁캘리포니아주	-10.7995
▁골프	-10.8004
데스	-10.8017
▁조절	-10.8018
20	-10.8024
▁슬로	-10.8026
▁댈	-10.8027
▁소득	-10.8031
▁유도	-10.8033
▁시사	-10.8041
▁보여준	-10.8042
▁꺼	-10.8047
▁프린	-10.8054
▁선발	-10.8069
▁로비	-10.8069
베이	-10.8071
클	-10.8075
▁사설	-10.8082
▁로스	-10.8084
▁몬	-10.8086
조선	-10.8087
st	-10.8094
철	-10.8102
리언	-10.8104
▁닫	-10.8115
25	-10.8138
에르	-10.8143
▁뱀	-10.8159
▁갈라	-10.8166
▁블레	-10.8169
▁감자	-10.8169
Y	-10.8176
▁첨	-10.8183
▁났	-10.8185
억	-10.8198
▁만난	-10.8211
▁그랜드	-10.8216
▁차단	-10.8217
뉴	-10.8218
걸	-10.8222
탐	-10.8227
▁국기	-10.8228
뇌	-10.8238
곤	-10.8238
▁펠로	-10.8241
▁루프	-10.8248
▁는다면	-10.8256
▁부서	-10.8259
▁마리아	-10.8283
▁정지	-10.8284
▁물리	-10.8286
▁체인	-10.8287
로드	-10.8292
▁쪽	-10.8294
바스	-10.83
70	-10.8304
▁최선	-10.8337
▁챔피	-10.8349
▁일요	-10.8349
수치	-10.8349
넹	-10.8351
췄	-10.8351
▁버몬트	-10.8351
▁아칸소	-10.8351
▁전해	-10.8351
▁저질렀	-10.8353
▁아름다	-10.8353
▁벅스	-10.8357
▁항생	-10.8363
▁벨기에	-10.8364
▁아랍에미리트	-10.8364
프리	-10.8373
▁급락	-10.8373
▁열렸	-10.8377
▁76	-10.838
▁연예	-10.838
▁취급	-10.8382
▁71	-10.8385
▁숀	-10.8386
▁낭	-10.8386
▁펌	-10.8386
▁전시회	-10.8386
▁수업	-10.8391
▁언스	-10.8392
▁호송	-10.8399
▁실업	-10.84
▁첼시	-10.84
미드	-10.8403
▁포장	-10.8412
▁열심	-10.8416
▁탐	-10.8425
▁식수	-10.8431
▁스파이	-10.8438
▁빌리	-10.844
더스	-10.8443
▁세웠	-10.8448
이더	-10.8459
▁기도	-10.8461
▁폭락	-10.8469
▁결합	-10.8475
▁전환	-10.8494
번스	-10.8497
아이	-10.851
▁리스	-10.8512
▁클리	-10.8519
▁마무	-10.8522
코비	-10.8528
us	-10.8528
▁스테이	-10.8544
이블	-10.8545
▁고속	-10.8555
금연	-10.8556
▁제이	-10.8561
▁160	-10.8564
톤	-10.8565
룩	-10.8576
▁솔	-10.8577
▁지출	-10.8588
스카	-10.8601
▁열대	-10.8608
▁미트	-10.8612
▁140	-10.8629
▁86	-10.8639
빗	-10.8647
30	-10.8648
▁IS	-10.8654
꺼	-10.8656
▁박스	-10.866
았	-10.8664
깨	-10.8665
ne	-10.8669
쥐	-10.8674
찾	-10.8675
▁유력	-10.8684
▁피부	-10.8699
▁보일	-10.871
▁나선	-10.8736
▁꾸	-10.8744
▁U	-10.8744
▁구멍	-10.8768
▁쏟아	-10.8768
▁휩쓸	-10.8768
눴	-10.8768
렴	-10.8768
▁로드리게	-10.8768
▁오렌지	-10.8768
▁영웅	-10.8769
▁탐험	-10.8769
▁넘겨	-10.8771
▁게릴라	-10.8773
▁걸린	-10.8776
▁코미디	-10.8781
▁베를린	-10.8782
▁건너	-10.8784
▁필라	-10.8786
▁패션	-10.8787
▁기계	-10.8788
▁사냥	-10.8796
▁크리스토	-10.8801
▁호흡	-10.8804
▁영업	-10.8804
▁라파엘	-10.8808
▁의뢰	-10.881
피아	-10.8811
▁김정	-10.8819
▁나올	-10.8826
▁시나	-10.8829
▁토요	-10.8833
▁스타일	-10.8835
226	-10.8844
▁낼	-10.8844
▁템	-10.8853
카스	-10.8856
▁우편	-10.8861
▁파산	-10.887
▁오스카	-10.8871
드니	-10.8873
i	-10.8881
re	-10.8882
▁시킨다	-10.8905
르토	-10.8907
▁판다	-10.8911
▁제프	-10.8915
▁자바	-10.892
TI	-10.8939
▁바닥	-10.8947
▁상상	-10.8958
▁붙여	-10.8967
▁계기	-10.897
▁유적	-10.8983
▁미시	-10.8984
▁과격	-10.8986
셋	-10.9012
▁날아	-10.9014
▁복부	-10.9027
60	-10.9042
토니	-10.9051
▁실려	-10.9076
잔	-10.9078
▁소화	-10.9081
르노	-10.9083
▁부유	-10.9084
곰	-10.9084
콕	-10.9088
몽	-10.9097
휴	-10.9099
▁무리	-10.9118
첩	-10.9119
섬	-10.9124
제르	-10.9126
▁꾼	-10.9128
유엔	-10.9131
▁콜로	-10.9146
▁줄기	-10.9155
▁주차	-10.916
▁69	-10.9167
▁므로	-10.9197
괄	-10.9203
뿔	-10.9203
▁노르웨이	-10.9203
▁벌어졌	-10.9204
▁플래	-10.9206
▁부동산	-10.9207
메달	-10.9212
▁첸	-10.9216
▁즐거	-10.9216
▁펀	-10.9217
▁컬럼비아	-10.9217
▁남겨	-10.9217
▁부리	-10.9221
▁잇	-10.9222
▁예배	-10.9222
▁함유	-10.9227
▁빙	-10.9229
▁담겨	-10.9238
▁이재	-10.924
▁산타	-10.924
▁as	-10.9256
▁쏘	-10.9264
▁미라	-10.9265
▁바리	-10.9266
▁입법	-10.9267
▁코카	-10.9277
▁공유	-10.9302
▁처방	-10.9302
▁인디아	-10.9304
▁도망	-10.9304
▁썼	-10.9314
▁빠졌	-10.932
라치	-10.9323
▁얀	-10.9349
▁공무	-10.9355
▁무고	-10.936
체스	-10.9366
▁해진	-10.9369
▁그만	-10.9383
오바	-10.9389
▁라스	-10.9395
베리	-10.9397
▁유출	-10.94
르타	-10.9409
▁동성	-10.9417
▁AS	-10.9418
▁신분	-10.9428
▁상관	-10.9438
여진	-10.9441
▁"'	-10.9452
▁명예	-10.9481
▁스톤	-10.9499
▁가해	-10.9542
ty	-10.9545
짝	-10.9552
▁무하	-10.9558
탈리아	-10.9559
SG	-10.9564
벤	-10.9565
▁겁	-10.9567
롤	-10.9568
▁카이	-10.9597
값	-10.9602
죽	-10.9607
삼	-10.9608
니까	-10.9612
▁가르	-10.9614
환경	-10.962
es	-10.9631
▁토레	-10.9632
▁간부	-10.9634
일본	-10.9634
유소	-10.9642
▁지질	-10.9643
낌	-10.9657
MEX	-10.9657
▁똑같	-10.9657
츨	-10.9657
▁디지털	-10.9657
▁옹호	-10.9657
▁갑작스	-10.9658
▁사라졌	-10.9659
▁압둘	-10.9667
▁리더	-10.9669
▁정찰	-10.967
▁주류	-10.9679
▁HD	-10.9686
▁음료	-10.9686
▁브로드	-10.9689
▁거쳐	-10.9691
▁내려진	-10.9697
▁저널	-10.9699
승부	-10.9709
▁밝혀진	-10.9712
▁롤	-10.9719
▁해양	-10.9721
▁쌀	-10.9722
▁좋아	-10.9729
▁미칠	-10.9735
▁대출	-10.9744
▁카를로	-10.9757
▁카트리	-10.9768
▁마친	-10.977
▁리오	-10.9772
997	-10.9778
▁관료	-10.9786
▁후임	-10.9788
주교	-10.9803
바라	-10.9803
▁Li	-10.9818
타오	-10.982
▁억제	-10.983
▁유산	-10.9844
▁니스	-10.9848
▁반전	-10.9852
w	-10.9857
▁조용	-10.9886
▁배상	-10.9901
▁be	-10.9909
▁유행	-10.9919
▁튜	-10.992
델라	-10.9929
▁그리	-10.9944
▁모로	-10.9963
▁아라	-10.9969
▁알제	-10.9975
▁그레	-10.9979
▁랩	-10.9979
▁조선	-10.9982
▁63	-10.9985
▁나르	-10.9993
획	-11.0006
▁핀	-11.0007
▁99	-11.0014
메트	-11.0016
디네	-11.0019
▁돌아다	-11.0021
헤	-11.0041
마트	-11.0045
)	-11.0052
웬	-11.0055
▁경제학	-11.006
혜	-11.0064
랩	-11.007
프레	-11.0075
▁85	-11.0079
▁따돌	-11.0085
▁라이언	-11.0086
레이	-11.0086
▁선보	-11.0091
테르	-11.0095
빨	-11.0096
▁메리	-11.0107
셉	-11.0133
페라	-11.0133
▁캄보	-11.0133
▁단백질	-11.0133
▁됩니다	-11.0133
▁매사추세츠	-11.0133
▁위스콘신	-11.0133
셸	-11.0133
캥	-11.0133
▁커뮤니	-11.0133
▁태어났	-11.0134
▁둘러싸	-11.0134
▁파트너	-11.0134
▁알렉	-11.0138
▁깁	-11.0149
▁붐	-11.0149
▁준결승	-11.0149
▁켄터키	-11.0149
▁돌아갔	-11.0149
▁',	-11.015
항공	-11.0153
▁아이폰	-11.0154
▁잭슨	-11.0154
▁부장	-11.016
▁후쿠	-11.0161
▁소방대	-11.0161
▁파이프	-11.0161
▁재배	-11.0165
▁인공	-11.0174
▁쓴	-11.0175
▁밸	-11.0175
▁공산주의	-11.0181
▁도미니	-11.0182
▁전염	-11.0185
세포	-11.0189
델리	-11.0198
리스마	-11.0199
▁통행	-11.0217
▁62	-11.022
▁지상	-11.022
▁라스베	-11.0226
카드	-11.023
▁관절	-11.0234
어오	-11.0245
간다	-11.0248
▁82	-11.0254
▁면역	-11.0283
▁소니	-11.0307
▁68	-11.031
▁놀이	-11.0314
▁모터	-11.0341
▁후진	-11.0347
▁불행	-11.0356
▁라파	-11.0367
▁중간	-11.0387
성장	-11.0388
▁해상	-11.0393
롱	-11.0394
뭄	-11.0401
▁친선	-11.0402
▁처한	-11.0405
▁나타난	-11.0416
지진	-11.0416
시티	-11.0466
산부	-11.0475
바리	-11.0483
▁돌려	-11.0486
세이	-11.0497
▁리드	-11.0503
▁라일	-11.0527
▁PF	-11.0545
하르	-11.0546
▁알아	-11.0549
거스	-11.0554
J	-11.0563
렉	-11.0565
▁다국적	-11.0569
비행	-11.0579
느	-11.059
모리	-11.059
퀴	-11.0601
▁도심	-11.0607
룰	-11.0607
콤	-11.0607
r	-11.0607
▁물고	-11.0611
켰	-11.0616
▁놓여	-11.0618
첸	-11.0618
▁달라	-11.0621
탑	-11.0625
빛	-11.0627
밴	-11.063
ate	-11.063
▁주거	-11.0632
특	-11.0633
▁불러일으	-11.0633
▁뿌리	-11.0633
▁펼친	-11.0633
얄	-11.0633
쩌	-11.0633
▁깨끗	-11.0633
콘	-11.0634
▁양육	-11.0635
▁불쾌	-11.0636
▁격렬	-11.0636
▁붙잡	-11.0636
▁스콜	-11.0637
▁졸업	-11.0639
▁활발	-11.0641
▁창설	-11.0642
um	-11.0644
▁추천	-11.0647
▁프랭	-11.065
▁덜	-11.065
▁아이오와	-11.0651
코피	-11.0653
▁산책	-11.0658
▁회계	-11.0661
델피	-11.0666
그러	-11.0668
▁쓸	-11.0668
▁약혼	-11.0669
▁AT	-11.0671
▁급격	-11.0674
▁이뤄진	-11.0679
▁일제	-11.068
메인	-11.0687
▁1500	-11.069
▁슈나	-11.0704
▁닭	-11.0705
▁고고학	-11.0707
니스	-11.0721
▁셔	-11.0724
▁멀리	-11.0725
▁빨간	-11.0729
▁de	-11.0734
아티아	-11.074
파키	-11.0751
▁안락	-11.0753
▁느낀다	-11.0765
▁바하	-11.0772
▁분실	-11.0772
▁케리	-11.0778
▁이브라	-11.078
이브	-11.0792
▁아크	-11.0797
청장	-11.0803
▁스토	-11.0808
TV	-11.0809
▁바스	-11.0811
▁피니	-11.0825
아시아	-11.0829
▁피고	-11.0841
연관	-11.0858
▁임대	-11.0861
▁젠	-11.0863
▁아담	-11.0867
▁의약	-11.0871
수사	-11.089
▁지냈	-11.0896
▁매출	-11.0899
▁오리	-11.0919
▁스크	-11.0925
▁몰아	-11.0951
▁떠올	-11.0958
▁on	-11.0972
케이	-11.0994
▁과도	-11.0996
클리	-11.1004
닥	-11.1015
▁디아	-11.1016
지리아	-11.104
▁지낸	-11.105
▁파르	-11.106
리나	-11.1069
land	-11.1071
▁101	-11.1073
▁마운	-11.1076
ia	-11.1077
▁조국	-11.1099
끔	-11.1107
▁킬	-11.1109
ly	-11.1112
솟	-11.1132
▁정원	-11.1152
홍	-11.1155
놀	-11.1158
▁푸에르토리코	-11.116
▁테네시	-11.1161
▁침략	-11.1163
▁잔혹	-11.1163
▁부활	-11.1166
GS	-11.1168
▁불렀	-11.1168
▁초등	-11.1171
▁받아들였	-11.1171
▁잡혀	-11.1173
므로	-11.1173
▁팔렸	-11.1174
▁페리	-11.1174
퍼레이	-11.1175
▁퀸	-11.1177
▁World	-11.1177
▁Center	-11.118
▁모욕	-11.118
클린턴	-11.118
▁표준	-11.1181
▁터미	-11.1181
▁뜨	-11.1181
▁출범	-11.1185
▁뇌물	-11.1185
▁탄약	-11.1185
ard	-11.119
▁89	-11.1197
▁칩	-11.1206
▁탔	-11.1206
▁천문학	-11.1206
▁돌아왔	-11.1207
▁부검	-11.1208
▁필수	-11.1208
호프	-11.1211
▁예언	-11.1213
▁지식	-11.1219
▁번지	-11.1229
세계	-11.1231
▁83	-11.1231
▁공군기	-11.1234
▁달했	-11.1234
▁트레이	-11.1242
▁경력	-11.1247
▁84	-11.1247
▁권위	-11.1252
▁생태	-11.1261
▁마티	-11.1264
▁74	-11.1264
▁캐시	-11.1265
▁대장	-11.1268
▁던졌	-11.1269
▁좁	-11.1285
▁재건	-11.1296
en	-11.1312
▁들여	-11.1315
I	-11.1322
▁it	-11.1326
▁국정	-11.1334
▁복수	-11.1344
랜	-11.1345
이미	-11.1359
관계	-11.1372
▁세실	-11.1381
퍼스	-11.1397
▁IB	-11.1399
▁이루어	-11.1407
네거	-11.1416
▁파울	-11.1429
나무	-11.1434
▁중상	-11.1437
나와	-11.1445
▁야구	-11.1446
▁노트	-11.1453
이프	-11.146
디치	-11.1465
▁Con	-11.1468
▁파이	-11.1472
▁정기	-11.1477
회사	-11.1478
▁미스	-11.1479
▁보인	-11.1535
리트	-11.1536
▁깔	-11.1549
▁복지	-11.1551
sp	-11.1558
저스	-11.1563
BA	-11.1586
▁BM	-11.159
R	-11.1594
▁진다	-11.1596
▁BA	-11.1614
▁73	-11.1618
▁81	-11.1618
o	-11.1618
om	-11.1656
▁UN	-11.1665
▁원정	-11.1674
▁웨이	-11.1678
▁시미	-11.1682
▁끌어들	-11.1684
▁찰	-11.1704
▁미르	-11.1705
▁네스	-11.1713
▁유기	-11.1713
▁빼앗	-11.1715
렁	-11.1715
빔	-11.1715
▁맨해튼	-11.1715
▁플루토	-11.1715
▁짝짓	-11.1715
▁풀려났	-11.1716
▁낙찰	-11.1716
테네	-11.1717
▁당뇨	-11.1717
▁금메달	-11.1718
▁미끄러	-11.1718
▁손님	-11.1719
▁일어날	-11.1721
▁잉그	-11.1721
▁내려졌	-11.1722
▁좌절	-11.1722
▁감옥	-11.1725
▁출혈	-11.1727
▁클레	-11.1727
▁메릴	-11.1727
▁페트로	-11.1728
▁철저	-11.1735
▁체코	-11.174
▁일찍	-11.174
▁상륙	-11.1744
T	-11.1752
▁소환	-11.1764
▁갱	-11.1764
▁타운	-11.1765
ue	-11.1767
▁JP	-11.1775
▁후원	-11.1776
돈	-11.1777
팬	-11.1777
▁이론	-11.1782
▁진료	-11.1785
덩이	-11.1787
▁공안	-11.1789
▁식물	-11.1789
▁쉐	-11.1795
▁타협	-11.1796
▁98	-11.1805
▁잠수	-11.1807
▁명백	-11.181
▁안토니	-11.1818
▁릭	-11.1819
▁배급	-11.1823
넬	-11.1824
▁몽	-11.1827
▁퍼트	-11.1836
▁탄도	-11.1837
▁쿠마	-11.1851
민주	-11.1851
▁안내	-11.1856
▁하이브	-11.186
▁조언	-11.1865
아메리	-11.1867
▁매코	-11.1868
▁노무	-11.1873
▁딕	-11.1873
▁브로	-11.1877
▁194	-11.188
▁종양	-11.1887
▁산소	-11.1888
▁NB	-11.1906
커버	-11.1912
▁GM	-11.1915
▁93	-11.1922
▁턱	-11.1924
파일	-11.1924
코바	-11.1931
▁여유	-11.1965
▁웨일	-11.1967
▁이중	-11.1972
▁오락	-11.2
▁초청	-11.2013
▁리포	-11.2013
▁이른	-11.2033
▁그쳤	-11.2037
on	-11.2051
HS	-11.2062
다면	-11.2065
▁750	-11.2087
▁도살	-11.2096
리노	-11.2099
▁당해	-11.2099
▁키드	-11.2101
NU	-11.2103
▁117	-11.2104
르몬	-11.2118
▁룸	-11.2125
서양	-11.2151
DS	-11.2163
▁균	-11.2164
▁주사	-11.2165
▁88	-11.2197
▁볼리	-11.2208
100	-11.2208
▁어두	-11.2221
버스	-11.2241
▁페르난	-11.2242
ox	-11.2243
으	-11.2251
▁유타	-11.2269
DR	-11.2284
▁쌓	-11.2291
▁헐	-11.2292
어리	-11.2299
라스	-11.2301
릇	-11.2303
짙	-11.2303
찮	-11.2303
▁끊임없	-11.2303
▁마라톤	-11.2303
▁나눠	-11.2304
▁바꿔	-11.2305
▁스캔	-11.2308
▁떠난	-11.2316
▁신자	-11.2316
▁풀려	-11.2318
이러	-11.232
▁켐	-11.2322
▁맥코	-11.2323
▁메디	-11.2331
▁복합	-11.2331
▁작곡	-11.2337
▁떠날	-11.2339
47	-11.2339
▁꼬리	-11.2341
▁마스터	-11.2342
▁우방	-11.2343
▁다녔	-11.2346
▁테크	-11.2347
▁낙관	-11.2347
is	-11.2348
▁약탈	-11.235
▁피츠	-11.2351
드먼	-11.2351
▁허리케인	-11.2357
▁이어졌	-11.236
콜	-11.2362
▁계열	-11.237
캔	-11.2371
▁혐오	-11.2372
봐야	-11.2373
▁시골	-11.2376
엔	-11.2382
눈	-11.2387
▁억만	-11.2391
털	-11.2391
▁솔직	-11.2396
핵	-11.2399
교통	-11.2399
▁오프라	-11.24
쇼	-11.2401
▁차림	-11.2402
▁든다	-11.2403
▁조지아	-11.2407
▁안타	-11.2407
▁조연	-11.2409
▁패스	-11.2409
▁테리	-11.2416
이버	-11.2419
▁방위	-11.2419
▁상표	-11.242
반기	-11.242
▁모집	-11.2424
ak	-11.2437
▁버린	-11.2447
▁900	-11.2478
▁켄	-11.2482
▁베스	-11.249
▁회전	-11.25
▁장려	-11.2517
▁공모	-11.252
▁바티	-11.2527
m	-11.2528
▁막대	-11.253
▁쳐	-11.2534
SE	-11.2551
▁선임	-11.2555
▁닌	-11.256
이전	-11.2574
▁들렸	-11.2585
▁당일	-11.2585
▁독자	-11.2593
▁춤	-11.2597
▁지침	-11.263
스라	-11.2638
대표	-11.2639
▁비자	-11.2639
▁치른	-11.2641
한국	-11.2649
▁해저	-11.2651
▁터뜨	-11.2651
▁물러	-11.2657
▁"2	-11.2692
루즈	-11.2714
▁회교	-11.2717
▁상세	-11.2732
라와	-11.2735
▁91	-11.2759
와르	-11.2766
▁빅토리	-11.2767
바지	-11.277
▁아파	-11.2773
▁or	-11.2773
▁노르	-11.2778
▁170	-11.2779
원경	-11.2781
▁행한	-11.2783
▁레스	-11.283
▁거물	-11.2846
▁오키	-11.2849
니어	-11.2851
레이어	-11.2851
▁에어	-11.2856
▁시한	-11.287
▁파도	-11.2876
▁맹	-11.2893
먹	-11.2894
▁BB	-11.2907
랙	-11.291
14	-11.2925
셜	-11.2928
HIV	-11.2929
▁느꼈	-11.2929
▁트로피	-11.2929
▁잃어버	-11.2929
톱	-11.293
▁몬테	-11.293
▁프랑크	-11.293
애틀	-11.2931
▁스러워	-11.2932
▁초콜	-11.2933
▁아마존	-11.2933
▁해준다	-11.2934
▁My	-11.2935
▁버려진	-11.294
▁텐트	-11.2946
▁출생	-11.2947
▁마케	-11.2948
▁떨어질	-11.2952
▁무효	-11.2954
▁면허	-11.2955
▁농작	-11.2956
▁톨	-11.2962
▁운명	-11.297
▁거머	-11.2971
▁테스	-11.2972
▁모른다고	-11.2972
▁나온다	-11.2975
▁들어간	-11.2977
▁소매	-11.2978
▁덩	-11.298
▁손자	-11.2981
▁Intern	-11.2983
▁부사	-11.2985
▁시술	-11.2993
▁카트	-11.2997
▁포스	-11.2997
▁당혹	-11.2999
마라	-11.3001
970	-11.3016
▁치료제	-11.3018
▁댄	-11.3019
▁히스	-11.3021
▁V	-11.3026
▁기름	-11.3037
▁강연	-11.3041
ce	-11.3052
겁	-11.3055
▁윗	-11.3056
간주	-11.3059
쇠	-11.3064
▁합리	-11.3072
▁편안	-11.3076
▁루즈	-11.3081
ers	-11.3089
알라	-11.3092
▁탱	-11.3092
▁간호	-11.3097
▁부작	-11.3101
거래	-11.3109
▁유입	-11.311
▁구단	-11.3138
▁칼라	-11.3147
▁126	-11.3172
▁자고	-11.3187
▁클레이	-11.3188
▁인력	-11.319
평가	-11.3194
▁남녀	-11.3213
▁발달	-11.3214
▁게시	-11.3218
▁펠	-11.3223
다니	-11.323
▁팍	-11.3241
베키	-11.3247
카트	-11.3258
▁반미	-11.326
▁아라비	-11.3268
단체	-11.327
▁IA	-11.3282
ry	-11.3288
그라	-11.3292
▁110	-11.3297
통신	-11.3302
▁Co	-11.3313
se	-11.3321
아지	-11.3323
▁친서	-11.3334
▁자마	-11.3339
▁걸어	-11.3354
▁종사	-11.3356
95	-11.3364
▁나빠	-11.3367
어질	-11.3372
de	-11.3378
▁야자	-11.3381
▁드라이	-11.3387
▁종이	-11.34
▁성직	-11.3408
▁처해	-11.3409
▁w	-11.3412
▁유인	-11.3416
▁헤어	-11.3418
▁스케	-11.3419
▁피아	-11.3427
istan	-11.3434
▁익스	-11.3456
▁알렉산	-11.3465
▁103	-11.3469
▁240	-11.3483
▁225	-11.3498
▁자카	-11.3516
▁부양	-11.3517
코틀	-11.3518
디스	-11.3519
▁기다	-11.3521
l	-11.3528
▁마오	-11.354
▁인디	-11.3541
▁"199	-11.3542
▁경사	-11.3544
OL	-11.3546
▁어려워	-11.3561
▁후지	-11.3563
▁92	-11.3568
회의	-11.3571
CF	-11.358
▁브라	-11.3593
곱	-11.3594
▁애틀랜	-11.3595
껏	-11.3595
낡	-11.3595
낫	-11.3595
젭	-11.3595
짖	-11.3595
▁디자이너	-11.3595
▁블룸	-11.3595
▁모니터	-11.3596
▁휩싸였	-11.3597
▁긴밀	-11.3598
▁윈도우	-11.3598
▁SN	-11.3598
폰테	-11.36
▁혼합	-11.3602
▁블루	-11.3602
▁Unit	-11.3602
▁안드레	-11.3603
▁애리조	-11.3604
▁77	-11.3606
▁열렬	-11.3606
▁반짝	-11.3609
▁솔라	-11.3614
▁캐롤	-11.3614
▁흑색	-11.3615
▁줄여	-11.3624
mm	-11.3627
▁룰	-11.3631
▁콤	-11.3631
▁루디	-11.3635
▁백과	-11.3637
▁co	-11.3637
Z	-11.3645
▁일시	-11.3652
올로	-11.3654
▁취한	-11.3656
▁정착	-11.3659
질렀	-11.3667
▁사이언	-11.3667
넌	-11.3668
▁밀려	-11.3677
▁클래	-11.3678
펜	-11.3686
▁네브	-11.3701
꿀	-11.3726
▁러시	-11.3726
▁...	-11.3738
▁카니	-11.3739
▁리우	-11.3741
끈	-11.3746
▁알바	-11.3749
▁암시	-11.3751
드웨	-11.3751
▁메모리	-11.3758
▁당연	-11.3763
깔	-11.3765
냉	-11.3778
▁호위	-11.3779
촉	-11.3779
▁사탕	-11.378
▁피크	-11.3781
마디	-11.3781
▁CI	-11.3782
뜻	-11.3782
▁통근	-11.3786
▁알파	-11.3807
영향	-11.3809
노스	-11.3813
석방	-11.3817
▁파타	-11.3817
▁임상	-11.3817
▁You	-11.3822
▁포도	-11.3825
널리	-11.3847
▁믹	-11.385
▁빗	-11.3851
ance	-11.3856
비만	-11.3858
▁구사	-11.3859
클린	-11.3877
행사	-11.3883
▁125	-11.3891
▁은신	-11.3894
▁개장	-11.3895
▁부른	-11.3908
▁구제	-11.3911
스트라	-11.3911
▁OS	-11.3923
라이언	-11.3925
68	-11.394
▁파일	-11.3952
▁로저	-11.3958
▁달아	-11.3984
살상	-11.4003
과이	-11.4015
07	-11.4019
워즈	-11.4033
▁Human	-11.405
▁"1	-11.4063
AN	-11.4072
▁87	-11.4086
▁잉	-11.4099
▁미소	-11.4102
▁220	-11.4109
15	-11.4115
▁소위	-11.4115
or	-11.4117
▁끈	-11.4138
45	-11.4141
▁인원	-11.4142
로프	-11.4143
▁78	-11.4149
▁제리	-11.417
ice	-11.4174
▁캔	-11.4196
▁안나	-11.4202
로비	-11.4216
▁상무	-11.4218
▁상반	-11.4219
▁중장	-11.4228
▁당사	-11.4235
버트	-11.4236
▁Inter	-11.4248
랬	-11.4259
▁보행	-11.4261
oft	-11.4273
ood	-11.4295
▁고발	-11.4307
킥	-11.4309
▁사우스캐롤라이나	-11.4309
▁와이오밍	-11.4309
궐	-11.4309
됨	-11.4309
뮌	-11.4309
셍	-11.4309
▁with	-11.4309
▁Micro	-11.4309
▁타바스코	-11.4309
ING	-11.431
▁애널리	-11.4311
▁스러웠	-11.4311
▁몰랐	-11.4312
▁척추	-11.4318
▁냉각	-11.4319
▁브래드	-11.4322
▁므	-11.4323
63	-11.4327
▁생겼	-11.4328
▁카누	-11.433
▁그래미	-11.433
▁선제	-11.4331
▁블로	-11.4331
▁바스크	-11.4332
▁쥬	-11.4333
▁뚜	-11.4333
▁비즈니스	-11.4333
▁트랙	-11.4335
▁벌어들	-11.4335
day	-11.4336
▁유독	-11.4336
▁워너	-11.4336
▁정규	-11.4338
밍	-11.434
▁우연	-11.434
▁스트로	-11.4342
▁설계	-11.4343
▁아흐메	-11.4344
▁뮤	-11.4348
▁엠	-11.4357
▁탐지	-11.4357
▁취업	-11.4359
▁매달	-11.4362
▁스카이	-11.437
▁외계	-11.4374
▁세인트	-11.4375
▁진공	-11.4385
▁마침	-11.4388
▁문명	-11.4389
▁정복	-11.439
ress	-11.4392
▁삼성	-11.4394
▁FC	-11.44
88	-11.4403
trol	-11.4408
▁순회	-11.4411
▁발매	-11.4413
▁교류	-11.4413
▁젖	-11.4414
▁걸프	-11.442
▁브리티	-11.4426
통상	-11.4426
▁기둥	-11.4427
▁줘	-11.4431
▁헤이	-11.444
▁남서	-11.4443
칼	-11.4446
▁가이드	-11.4452
▁Q	-11.4456
비대	-11.4458
보이	-11.4462
머스	-11.4466
퀘	-11.4469
▁제국	-11.4472
300	-11.4482
▁개설	-11.4485
▁각성	-11.4485
딴	-11.4497
▁오프	-11.4506
▁판정	-11.4512
▁레이더	-11.4513
▁로렌	-11.4517
▁루마	-11.4521
신병	-11.4522
▁라트	-11.4531
룸	-11.4532
▁아이디	-11.454
묵	-11.4542
농	-11.4545
아일랜드	-11.4547
팔	-11.4547
뉴욕	-11.4547
미얀	-11.4551
즉	-11.4552
버지니아	-11.4553
▁UC	-11.4556
▁헤드	-11.4565
▁학부	-11.457
▁SAR	-11.4572
▁비르	-11.4573
펠로	-11.4575
▁역전	-11.4584
동맹	-11.4586
in	-11.4595
▁홀리	-11.4605
▁번식	-11.4609
▁경유	-11.4611
코브	-11.4611
▁캐리	-11.4613
AO	-11.4626
▁팽	-11.4628
▁주머니	-11.4628
의사	-11.4642
▁피우	-11.4651
▁말레	-11.4651
▁"19	-11.4653
레이크	-11.4665
아누	-11.4673
▁청원	-11.4679
▁유아	-11.4686
스팅	-11.469
▁집안	-11.4692
▁왓	-11.4715
▁려다	-11.4723
▁브레	-11.4725
▁BO	-11.4728
▁하트	-11.4746
▁키티	-11.4746
▁PP	-11.4747
ow	-11.4763
▁웨스	-11.4782
c	-11.4811
▁발행	-11.4819
▁수년	-11.4837
h	-11.4841
▁180	-11.4864
▁112	-11.4873
▁Associat	-11.4884
타인	-11.4884
▁유태	-11.4891
르트	-11.4894
▁기한	-11.4896
면서	-11.4897
▁수면	-11.4903
▁프린스	-11.4912
▁데려	-11.4934
700	-11.4936
썩	-11.4937
▁넬	-11.4943
▁앞당	-11.4948
▁영원	-11.495
▁In	-11.4971
▁본다	-11.4981
▁커스	-11.4984
▁350	-11.5003
▁간다	-11.5017
▁웅	-11.5018
▁비틀	-11.5026
▁사정	-11.5043
▁카지	-11.5047
▁장신	-11.5058
▁팩	-11.5059
▁바레	-11.5064
▁캘	-11.5066
▁방사	-11.5073
▁텔레	-11.5075
±	-11.5079
▁서둘러	-11.5079
▁아닙니다	-11.5079
▁횡단	-11.5079
反	-11.5079
괜	-11.5079
뚫	-11.5079
띠	-11.5079
륭	-11.5079
몫	-11.5079
쉴	-11.5079
잎	-11.5079
컸	-11.5079
▁사우스다코타	-11.5079
▁브뤼	-11.5079
▁시에라	-11.5079
▁이바노	-11.508
▁미시간주	-11.508
▁카리브	-11.508
am	-11.508
▁물러난	-11.5081
▁무너졌	-11.5082
▁FI	-11.5084
▁텔레비	-11.5084
▁올라왔	-11.5085
▁성범죄	-11.5085
▁블로그	-11.5086
▁미주리	-11.5089
▁민족주의	-11.5089
▁풍경	-11.5092
ence	-11.5092
▁몰래	-11.5094
릴랜드	-11.5096
▁우울	-11.5099
▁잔디	-11.5102
▁베테	-11.5103
▁펄	-11.5103
▁욕구	-11.5103
▁매몰	-11.5104
▁댕	-11.5104
▁Intel	-11.5104
▁캔자스	-11.5104
▁정밀	-11.5105
▁채굴	-11.5106
200	-11.5107
▁지닌	-11.5107
▁거둔	-11.5111
네그로	-11.5111
국제	-11.5116
▁휴식	-11.5122
▁발레	-11.5127
▁퀴	-11.5129
▁스튜어	-11.513
▁St	-11.5133
▁취약	-11.5136
▁하얀	-11.5138
▁시켜야	-11.514
▁마누	-11.5143
▁기획	-11.5147
▁애니	-11.5158
▁스코	-11.516
▁향한	-11.5165
▁멜리	-11.5167
▁불가사	-11.5175
▁계절	-11.5178
▁호스트	-11.518
▁항공모	-11.5181
▁일단	-11.5182
▁유해	-11.5202
▁위생	-11.5207
▁끌려	-11.5216
▁잘라	-11.5217
▁마르	-11.5218
▁129	-11.523
▁서약	-11.5245
▁연례	-11.5245
▁th	-11.5246
▁프로세	-11.525
▁우르	-11.5253
▁코너	-11.5257
제이	-11.5262
젤	-11.5263
bo	-11.5272
달리	-11.5278
▁대조	-11.5298
▁빅토	-11.5302
처리	-11.5308
국민	-11.5311
an	-11.5321
x	-11.5323
▁제정	-11.5329
▁찌	-11.5331
흙	-11.5346
▁아흐마디	-11.5348
앤	-11.5349
피소	-11.536
▁루카	-11.5361
all	-11.5372
첨	-11.5375
프랑스	-11.5377
큐	-11.5377
▁기다려	-11.5379
잠	-11.5379
옷	-11.5382
잉글랜드	-11.5382
봤	-11.5383
▁어른	-11.5397
▁제약	-11.54
▁193	-11.5402
▁79	-11.5402
▁대담	-11.5407
파리	-11.5414
191	-11.5424
▁피로	-11.5452
th	-11.5486
일치	-11.5498
로이드	-11.5499
▁파기	-11.55
▁독점	-11.55
▁번화	-11.551
▁프레드	-11.551
보호	-11.5513
▁호이	-11.5519
18	-11.552
▁반도	-11.5523
▁새우	-11.5561
기업	-11.5569
40	-11.5572
연애	-11.5575
93	-11.5591
▁확고	-11.5621
보라	-11.5623
▁중도	-11.5628
▁써	-11.5632
▁신성	-11.5634
▁새겨	-11.5649
▁모나	-11.5653
99	-11.5663
▁부동	-11.5664
▁단기	-11.5671
까	-11.5679
▁비전	-11.5685
안경	-11.5694
니에	-11.5697
레즈	-11.5714
▁브라이	-11.5722
▁대학원	-11.5724
라미	-11.575
960	-11.5753
▁브레이	-11.5759
▁USA	-11.5759
▁동남	-11.5781
타운	-11.5789
▁결장	-11.5792
▁부산	-11.58
이드	-11.58
톨릭	-11.5803
마오	-11.5817
▁바바	-11.5819
▁230	-11.5822
▁증인	-11.5828
▁바드	-11.5828
▁하여	-11.5835
▁AB	-11.5841
▁렘	-11.585
lo	-11.5857
▁개회	-11.5862
븐	-11.5871
▁기아	-11.5878
▁인접	-11.5884
▁도서	-11.5888
▁강의	-11.5894
WF	-11.5895
▁하버드	-11.5904
▁재활	-11.5909
▁Societ	-11.5912
▁뽑아	-11.5912
▁흩어	-11.5912
市	-11.5912
깐	-11.5912
늬	-11.5912
닿	-11.5912
밭	-11.5912
썹	-11.5912
픔	-11.5912
▁윌리암	-11.5912
▁틀림없	-11.5912
▁UNHC	-11.5912
▁뉴멕시코	-11.5912
▁나뭇	-11.5913
▁맞붙	-11.5913
▁자이언	-11.5913
▁클레멘	-11.5913
▁디젤	-11.5913
뱅크	-11.5914
▁메뉴	-11.5914
▁소매업	-11.5916
▁스턴트	-11.5916
▁찾아냈	-11.5916
▁탄광	-11.5919
▁리프트	-11.5919
▁들어왔	-11.5919
캐슬	-11.592
▁들어와	-11.5922
▁들어올	-11.5922
동물	-11.5926
▁친밀	-11.5928
▁농담	-11.5928
▁아닐	-11.5928
▁애리조나	-11.5929
▁태생	-11.5932
▁울프	-11.5933
▁농경	-11.5935
▁알바니	-11.5935
▁마쓰	-11.5938
▁챙	-11.5939
▁도둑	-11.5939
▁오클라호마	-11.594
▁돌아와	-11.5941
▁97	-11.5942
▁퍼져	-11.5945
▁속한	-11.5949
▁지나친	-11.595
▁알베르	-11.5951
▁녹색	-11.5953
▁코레	-11.5953
▁바우	-11.5954
▁스폰	-11.5954
▁첨가	-11.5955
▁트래	-11.596
▁그랬	-11.5972
▁더블	-11.5983
▁혁	-11.5984
GH	-11.5989
▁급진	-11.5991
만두	-11.5992
▁베스트	-11.5996
▁산유	-11.6003
AF	-11.6007
니케	-11.601
▁크리	-11.601
▁빠져나	-11.601
▁체크	-11.6012
▁회색	-11.6023
나갔	-11.6024
드라	-11.6025
▁임원	-11.6038
▁돌아갈	-11.604
▁차이나	-11.6043
▁학회	-11.6064
▁버크	-11.6068
▁라인	-11.6068
▁반란	-11.6069
▁FT	-11.607
▁제트	-11.6072
ase	-11.6075
▁안젤	-11.6079
▁미친	-11.6083
ist	-11.6089
▁빈번	-11.6092
▁이겨	-11.6098
▁공방	-11.6098
96	-11.61
▁벌인다	-11.61
▁동남아	-11.6101
▁상환	-11.6104
▁살라	-11.6118
▁관중	-11.6129
▁스텔	-11.6134
▁나란	-11.6139
▁집속	-11.6167
▁한계	-11.6182
▁배아	-11.6189
▁드리	-11.6193
▁리트	-11.6195
▁진열	-11.6198
▁연출	-11.6199
▁드미	-11.6202
▁추모	-11.6204
▁젤	-11.6209
▁모래	-11.6218
AU	-11.622
66	-11.6228
▁말라	-11.6236
▁요한	-11.624
▁도라	-11.6248
▁암스	-11.6252
▁반다	-11.6266
▁발명	-11.6267
빠	-11.6278
딜	-11.6286
넓	-11.6286
홀	-11.6287
▁Vi	-11.6288
뼈	-11.6289
듀	-11.6289
CNN	-11.629
자르	-11.6291
맞	-11.6293
넘	-11.6294
▁이브	-11.6295
▁로페	-11.6296
▁스프레	-11.6307
AP	-11.6315
▁쓰인	-11.6317
교육	-11.6317
레바	-11.632
▁주권	-11.6321
ur	-11.6323
▁무산	-11.6325
이스라	-11.6336
▁비스	-11.6345
▁까	-11.6356
▁흘러	-11.6356
▁부추	-11.6359
▁라시	-11.6369
퇴근	-11.6376
▁조니	-11.6388
to	-11.6393
▁최상	-11.6402
▁지표	-11.6405
▁방수	-11.6411
▁세관	-11.6416
▁내비	-11.6418
▁공상	-11.6431
메라	-11.6447
▁춘	-11.6454
▁알자	-11.6455
▁렀다	-11.6471
호주	-11.6471
▁선진	-11.649
▁자부	-11.6493
▁실바	-11.65
ar	-11.6504
바키	-11.6513
128	-11.6515
레비	-11.6529
▁중산	-11.6538
▁세르	-11.654
▁피어	-11.6544
▁고생	-11.6559
▁코프	-11.6559
란드	-11.657
오리	-11.6574
라마	-11.6591
▁만료	-11.6592
도르	-11.6601
▁스나	-11.6603
올랐	-11.6616
fe	-11.6616
PA	-11.6617
▁주어진	-11.6626
▁아미	-11.663
무라	-11.6631
▁통일	-11.6651
▁페트	-11.6657
▁표지	-11.6665
46	-11.6676
▁기어	-11.6677
▁줄리	-11.668
▁모레	-11.6687
09	-11.6739
스테	-11.674
▁봐	-11.6745
테리	-11.6759
▁겐	-11.676
수수	-11.6775
놨	-11.678
▁제다	-11.6781
▁컬	-11.6795
데르	-11.6795
자국	-11.6798
▁영장	-11.6804
▁노리	-11.6814
▁메릴랜드	-11.6815
▁꼬	-11.6817
▁허리	-11.6818
▁New	-11.6819
셨	-11.6821
뚝	-11.6821
쩔	-11.6821
▁Commission	-11.6821
▁갤러	-11.6821
▁앵커	-11.6821
▁엔지니어	-11.6821
▁타블로이드	-11.6821
▁프란체스	-11.6821
▁햇빛	-11.6821
돔	-11.6821
륜	-11.6821
맑	-11.6821
볕	-11.6821
슘	-11.6821
윅	-11.6821
탓	-11.6821
펫	-11.6821
▁페널티킥	-11.6821
▁휘둘	-11.6821
▁some	-11.6821
▁노스웨스트	-11.6821
able	-11.6822
▁Day	-11.6822
▁아쿠아	-11.6822
▁사격	-11.6822
▁혈액	-11.6824
▁즐겨	-11.6825
▁카메	-11.6825
▁노리에	-11.6825
et	-11.6826
PS	-11.6826
08	-11.6827
▁알바니아	-11.6828
▁콜럼	-11.6829
▁치러졌	-11.683
▁브래	-11.683
▁치렀	-11.6831
▁황열	-11.6831
▁수확	-11.6831
▁존엄	-11.6835
▁켄트	-11.6835
V	-11.6838
▁강철	-11.6841
▁식민	-11.6842
▁안겨	-11.6843
▁궁금	-11.6844
▁머무	-11.6845
▁플로	-11.6845
▁삽	-11.6848
▁냉동	-11.6848
▁펼쳐진	-11.6848
▁무서	-11.6849
▁굿	-11.6851
▁샴	-11.6851
▁아르메니아	-11.6851
▁독립선언	-11.6852
▁닥	-11.6857
▁군수	-11.6859
▁기네스	-11.6859
AX	-11.6861
▁학습	-11.6862
▁검열	-11.6862
▁우호	-11.6865
▁엠마	-11.6872
▁타이거	-11.6891
▁타니	-11.6894
▁연극	-11.6899
▁신생	-11.6903
▁코네티컷	-11.6904
▁소유주	-11.6906
▁병역	-11.6912
▁티크	-11.6916
▁국유	-11.6916
▁페어	-11.6924
터너	-11.6925
▁계란	-11.6929
▁완성	-11.6931
멜라	-11.6934
▁가톨릭	-11.6941
▁공범	-11.6956
▁브리지	-11.6958
코트	-11.6959
▁헬로	-11.696
▁터치	-11.6964
비야	-11.6968
▁저격	-11.6977
▁이뤘	-11.6978
▁포츠	-11.699
기스	-11.699
▁줄였	-11.6992
▁데이비스	-11.6996
▁나스	-11.6999
pe	-11.7003
▁구스	-11.7004
▁세탁	-11.7005
틸	-11.7009
65	-11.7013
가오	-11.7013
▁재임	-11.7014
▁오존	-11.7016
려왔	-11.7018
ED	-11.7019
▁심정	-11.702
▁이스트	-11.7021
개구리	-11.7026
▁레인	-11.7026
up	-11.7031
▁파이어	-11.7033
▁아시	-11.7041
▁샘	-11.7048
▁주소	-11.7058
▁나간다	-11.7063
ner	-11.7068
▁양식	-11.7072
▁콕	-11.7072
▁곰	-11.7072
▁g	-11.7077
▁트루	-11.7086
▁간접	-11.7089
▁사바	-11.7096
시간	-11.711
▁라틴	-11.712
▁건조	-11.7123
▁체스	-11.7123
▁싼	-11.7135
▁구직	-11.7141
ID	-11.7143
용지	-11.7146
▁머레	-11.7161
▁그라	-11.717
▁본국	-11.7174
64	-11.7176
▁닝	-11.7177
▁라로	-11.7182
▁아웃	-11.7189
보냈	-11.7195
▁예고	-11.7196
▁정비	-11.7203
▁Be	-11.7206
▁그려	-11.7207
▁다이어	-11.7213
▁경의	-11.7217
▁그레이	-11.7217
▁t	-11.7257
훈	-11.726
뉘	-11.7263
영화	-11.7265
▁박수	-11.7271
왓	-11.7271
김	-11.7279
인터	-11.7283
뱀	-11.7285
▁떠오	-11.7286
깃	-11.7288
컨	-11.7289
혐	-11.7289
좌석	-11.7292
▁안다	-11.7293
딸	-11.7294
▁슐	-11.7296
브라운	-11.7297
▁톡	-11.7303
하워	-11.7305
오늘	-11.7308
장자	-11.731
트러	-11.7314
▁로케	-11.7316
▁보디	-11.7319
ma	-11.7321
▁아디	-11.7324
루트	-11.7338
CC	-11.7338
센터	-11.734
PL	-11.7342
▁휴스	-11.7344
▁들소	-11.7346
▁뉘	-11.7355
▁스트리	-11.7361
조합	-11.739
살레	-11.7396
청소	-11.74
연방	-11.7403
26	-11.7407
베르	-11.7418
▁이탈	-11.7418
▁몰리	-11.7424
투스	-11.7429
이너	-11.7432
▁Dis	-11.7435
노동	-11.7435
▁자질	-11.7439
크라	-11.7454
▁알프레	-11.7454
▁트라	-11.7464
EI	-11.7469
▁"198	-11.7481
연구	-11.7481
리츠	-11.7482
나라	-11.749
네스	-11.7492
제품	-11.7505
난민	-11.7519
니치	-11.7521
레스테	-11.7521
클라렌	-11.7526
▁Eng	-11.7531
▁190	-11.7533
▁아나	-11.7537
▁자란	-11.7545
바르	-11.7569
ttle	-11.757
▁191	-11.7589
▁450	-11.7591
▁나비	-11.7595
▁렉	-11.7597
75	-11.7598
ot	-11.7601
▁시트	-11.7673
▁버려	-11.7677
▁낸다	-11.7715
▁부속	-11.7724
저우	-11.7724
▁성전	-11.7725
▁접어	-11.7729
EP	-11.7743
▁숨겨	-11.7748
▁마주	-11.7751
벤자	-11.7753
▁왈	-11.7755
칸다	-11.7761
▁IR	-11.7763
EF	-11.7766
▁융	-11.7769
▁제라	-11.7774
사절	-11.7777
ell	-11.7778
화물	-11.7778
▁보스	-11.7784
노이	-11.7788
둑	-11.7789
비스	-11.7796
▁크라	-11.7811
▁세운	-11.7816
▁사르	-11.7819
듬	-11.7819
▁떨어뜨	-11.7819
적절	-11.7821
놈	-11.7821
닮	-11.7821
뜰	-11.7821
룻	-11.7821
릅	-11.7821
샷	-11.7821
싣	-11.7821
윔	-11.7821
▁즐긴다	-11.7821
▁터무니	-11.7821
▁몬태나	-11.7821
▁포토맥	-11.7821
▁요하네스	-11.7821
▁뇌졸	-11.7821
▁꾸준	-11.7822
▁갖춰	-11.7822
▁숭배	-11.7822
▁Sun	-11.7824
▁제국주의	-11.7824
▁니켈	-11.7826
▁글렌	-11.7826
▁라자스탄	-11.7827
▁괴롭	-11.7828
▁돌아온	-11.7829
▁블래	-11.783
▁희귀	-11.7831
▁버섯	-11.7831
▁잡혔	-11.7832
▁가상	-11.7832
수감	-11.7832
▁스마트	-11.7834
▁두꺼	-11.7834
▁크라우	-11.7835
▁노숙	-11.784
▁늘려	-11.784
▁마신	-11.7841
▁엄중	-11.7841
▁앙겔	-11.7843
tic	-11.7843
ad	-11.7843
▁이루어진	-11.7846
reat	-11.7847
▁05	-11.7848
커다	-11.785
▁화염	-11.785
▁끔	-11.7854
▁로맨틱	-11.7855
▁휘두	-11.7864
▁스킨	-11.7865
▁320	-11.7865
▁뒤집	-11.7869
USS	-11.7869
▁CES	-11.7872
▁후안	-11.7872
▁면밀	-11.7872
▁역설	-11.7873
▁쌓인	-11.7873
▁들어간다	-11.7878
▁크릴	-11.7878
▁지나갔	-11.7881
▁전인	-11.7882
▁’,	-11.7883
▁섬유	-11.7883
▁팔려	-11.7885
▁550	-11.7892
▁유괴	-11.7893
mic	-11.79
▁연령	-11.7905
▁증오	-11.7908
카르	-11.7912
▁콜린	-11.792
트로이	-11.792
▁메이어	-11.7922
▁헤비	-11.7923
▁태워	-11.7925
벨리	-11.7927
▁모자	-11.793
▁알레	-11.7936
▁777	-11.7939
CJ	-11.7939
▁유네	-11.7941
▁96	-11.7943
▁바이오	-11.7943
▁민영	-11.7943
이어	-11.7944
▁올바	-11.796
▁샌더	-11.7962
▁모험	-11.7965
셀라	-11.7965
▁까를	-11.7966
▁단호	-11.7976
▁마르코	-11.7978
테로	-11.7979
wa	-11.798
▁변동	-11.7982
▁발렌	-11.7986
▁순수	-11.7987
800	-11.799
▁더글	-11.7992
▁비만	-11.7993
LA	-11.7998
CE	-11.7999
▁혼인	-11.8002
▁비밀리	-11.8006
▁결단	-11.8006
▁몰린	-11.802
자메	-11.8025
르모	-11.8028
▁옥스	-11.8029
▁킴	-11.8035
▁짝	-11.8042
▁실직	-11.8056
▁스위	-11.8057
▁발리	-11.8074
▁툴	-11.809
아가	-11.809
▁샬	-11.8096
▁바지	-11.812
드로	-11.8122
▁십자	-11.8129
▁보증	-11.8131
ish	-11.8139
▁공통	-11.814
▁아이스	-11.814
▁성교	-11.8141
19	-11.8143
▁형편	-11.8145
▁여인	-11.8158
▁열린다	-11.8161
▁생선	-11.8163
▁채소	-11.8167
리치	-11.8175
▁타르	-11.8178
소시	-11.8185
▁추출	-11.8186
네바	-11.8188
▁사미	-11.8195
▁조세	-11.8205
회생	-11.8207
ey	-11.821
폭력	-11.821
▁인내	-11.8212
▁쾌	-11.8215
▁잡아	-11.8218
▁쯔	-11.8222
▁Ro	-11.8234
▁신비	-11.824
▁스와	-11.824
캐	-11.8242
▁AE	-11.8248
▁최후	-11.8249
▁처했	-11.8257
미스	-11.8268
톡	-11.8268
▁장성	-11.8279
▁디지	-11.8287
▁설사	-11.8303
▁헬리	-11.8304
▁나타난다	-11.8312
▁135	-11.8322
▁배신	-11.8326
ess	-11.8328
▁마카	-11.8332
eop	-11.8333
▁베이스	-11.8344
춤	-11.8346
콥	-11.8347
찍	-11.835
▁푼	-11.8351
▁검시	-11.8357
겔	-11.8362
▁Ch	-11.8363
▁IT	-11.837
▁타스	-11.837
푼	-11.8371
AE	-11.8374
슐	-11.8375
▁앞선	-11.8384
둘	-11.8386
▁서기	-11.8386
팍	-11.8387
▁호스	-11.8388
▁ET	-11.8389
▁마하	-11.8393
묘	-11.8399
윤	-11.84
독점	-11.8401
톰	-11.8403
팔레	-11.8403
삭	-11.8404
힐러	-11.8407
▁훈	-11.8408
▁보낸다	-11.8414
600	-11.8415
▁틸	-11.8427
교환	-11.8431
▁바이에	-11.8432
dy	-11.8432
헤이	-11.8433
▁행해	-11.8441
웨스트	-11.8453
▁분화	-11.8472
▁마지	-11.8475
▁우드	-11.8477
MS	-11.8479
▁득	-11.848
▁팔리	-11.8513
▁대국	-11.8513
▁전공	-11.8517
▁돌려보	-11.8538
▁On	-11.8549
▁세레	-11.855
▁흙	-11.8551
▁서구	-11.8556
즈니	-11.8563
▁상실	-11.8569
어들	-11.857
행금지	-11.8583
▁노린	-11.8583
▁자위	-11.8593
400	-11.8598
▁오지	-11.8601
부인	-11.8615
▁파브	-11.8624
▁소렌	-11.8626
스필	-11.8627
▁Al	-11.8628
▁전경	-11.8634
ster	-11.8637
▁사나	-11.8638
▁공로	-11.8643
▁조속	-11.8648
▁미드	-11.8655
el	-11.8658
▁라티	-11.8663
▁중력	-11.8665
▁UF	-11.8666
IM	-11.8668
키티	-11.8674
쿠바	-11.8684
▁480	-11.8686
▁다닐	-11.8701
at	-11.8702
▁구해	-11.8712
▁닉	-11.8733
▁프란시스	-11.8734
86	-11.8737
▁레즈	-11.8754
우디	-11.8756
▁룬	-11.8757
man	-11.8758
본다	-11.8759
▁이른다	-11.8766
베라	-11.8783
23	-11.8813
트라	-11.8814
▁기권	-11.8815
▁동행	-11.8822
▁피카	-11.8833
프레드	-11.8836
▁미세	-11.8845
ture	-11.8901
블리	-11.8904
▁201	-11.8913
▁뒤따	-11.8927
▁Ka	-11.8928
▁안타까	-11.8931
esearch	-11.8932
ASH	-11.8932
▁굶주	-11.8932
▁미네소타	-11.8932
▁아보카도	-11.8932
▁펼칠	-11.8932
省	-11.8932
갚	-11.8932
깎	-11.8932
꽉	-11.8932
둡	-11.8932
륨	-11.8932
맵	-11.8932
뭘	-11.8932
쐈	-11.8932
얇	-11.8932
캇	-11.8932
킷	-11.8932
튠	-11.8932
퍽	-11.8932
▁Russia	-11.8932
▁제이콥	-11.8932
▁링컨	-11.8933
▁Journal	-11.8933
▁Wild	-11.8933
▁Work	-11.8933
▁트레이너	-11.8934
▁Corp	-11.8934
▁체육	-11.8935
▁가르쳐	-11.8935
▁찍힌	-11.8935
▁News	-11.8935
▁TG	-11.8936
▁돌아섰	-11.8936
▁어려웠	-11.8937
tan	-11.8938
▁목욕	-11.8939
▁컨설	-11.894
▁습득	-11.894
▁망설	-11.8942
▁내려갔	-11.8943
▁세워졌	-11.8944
▁롤러	-11.8946
▁리투	-11.8948
▁넘쳐	-11.8948
▁카르발	-11.8949
▁들어온	-11.8949
아갈	-11.8949
월드	-11.8949
▁범람	-11.8951
▁부흥	-11.8952
▁꾸며	-11.8952
▁스몰	-11.8953
▁미용	-11.8956
기증	-11.8958
▁카렌	-11.896
▁허탈	-11.896
▁입찰	-11.8962
▁문학	-11.8968
▁굽	-11.897
▁곤잘	-11.897
▁Agenc	-11.8971
▁콜로라도	-11.8972
▁애호	-11.8974
ANC	-11.8978
코프	-11.8978
▁돌연	-11.898
▁음란	-11.8982
▁놨다	-11.8983
▁미켈	-11.8986
▁물리학	-11.8994
▁활력	-11.8995
▁움직였	-11.8996
▁Time	-11.8997
▁운반	-11.8999
▁극소	-11.9001
▁가져다	-11.9004
▁스파	-11.9004
▁올라간다	-11.9007
▁Chin	-11.9008
▁였을	-11.9008
CB	-11.9012
▁발레리	-11.9018
▁서서	-11.902
▁찔	-11.9033
▁댓	-11.9035
▁라르	-11.9037
수막	-11.9044
▁행방	-11.9048
▁시어	-11.9051
▁블록	-11.9054
▁오케	-11.9055
소니	-11.9061
▁농구	-11.9063
▁Mo	-11.9066
▁야영	-11.9069
▁백일	-11.9075
▁CA	-11.9077
▁Y	-11.9077
▁활기	-11.9087
▁노바	-11.9091
▁행크	-11.9093
대국	-11.9095
▁적대	-11.9099
▁꼽	-11.9103
지아	-11.911
브스	-11.9115
▁신드	-11.9123
▁웬	-11.9124
▁수잔	-11.9126
▁UNI	-11.9129
크리	-11.9131
▁채무	-11.9134
▁편의	-11.9135
▁Right	-11.9139
▁복음	-11.9155
▁우물	-11.9156
▁장외	-11.9163
스토니	-11.9179
▁금주	-11.918
▁발송	-11.9183
▁카나	-11.9184
▁지나간	-11.9185
오스	-11.9185
▁구급	-11.9186
▁자매	-11.9186
▁견인	-11.9195
른다	-11.9196
▁3200	-11.9213
▁걸음	-11.9216
▁쫓아	-11.9224
ts	-11.9236
▁전제	-11.9239
▁돌아간	-11.9243
▁오크	-11.9245
리누	-11.9257
케이프	-11.9259
타이	-11.926
HA	-11.926
▁펜스	-11.9261
▁무자	-11.9261
나이	-11.9268
▁메가	-11.9268
▁시몬	-11.9276
스케	-11.9276
▁산토	-11.9279
▁커티	-11.9287
▁둥	-11.93
▁끌어	-11.9301
▁내게	-11.9317
▁비하	-11.9319
▁수신	-11.9327
▁콜레	-11.933
플로렌	-11.9339
▁타일	-11.9349
▁베일	-11.9352
▁원내	-11.9362
▁하와	-11.9365
▁초상	-11.9366
q	-11.9369
▁do	-11.9371
▁피오	-11.9374
▁파비	-11.9386
▁페테르	-11.939
▁기동	-11.9393
one	-11.9401
▁불어	-11.9415
▁Re	-11.9416
인도	-11.9431
▁소금	-11.9432
▁핑	-11.9436
어설	-11.9438
lay	-11.944
▁카우	-11.9471
녀자	-11.9472
▁포격	-11.9476
▁Or	-11.948
na	-11.9485
▁해왔으	-11.9491
▁동정	-11.9499
co	-11.9504
▁리프	-11.9505
35	-11.9515
▁섰	-11.9527
▁바비	-11.9528
▁도피	-11.9531
▁겔	-11.9536
핏	-11.9539
▁소변	-11.9541
▁구상	-11.9543
▁경질	-11.9552
스퍼	-11.9557
▁현행	-11.9565
DM	-11.9569
육	-11.957
터키	-11.9583
▁II	-11.9583
▁470	-11.9584
붓	-11.9591
▁코르	-11.9603
ear	-11.9604
▁일어	-11.961
흥	-11.963
티스	-11.9633
-	-11.9634
팽	-11.9634
랭	-11.9639
▁마우	-11.9642
71	-11.9642
▁스페	-11.9646
닫	-11.9646
흘	-11.9648
▁심해	-11.965
일부	-11.9656
24	-11.9657
▁나타낸	-11.9659
질러	-11.9659
31	-11.9676
▁Sa	-11.9682
▁와일	-11.9691
파울	-11.9695
외과	-11.9699
CR	-11.9701
러시아	-11.9702
▁트레일	-11.9703
연료	-11.9719
▁산시	-11.9721
son	-11.973
개발	-11.9739
ight	-11.9756
란다	-11.9762
여행	-11.977
교황	-11.9773
▁로즈	-11.9783
▁105	-11.9789
▁퇴근	-11.9793
even	-11.9796
900	-11.9805
MP	-11.9814
▁팔린	-11.9817
▁마니	-11.9832
▁나아	-11.9835
ven	-11.9836
축구	-11.9837
▁강간	-11.9839
▁NH	-11.9841
▁소다	-11.9849
닌	-11.9852
▁가공	-11.9853
크림	-11.9872
테오	-11.9879
▁대니	-11.9884
▁이슬라	-11.9885
▁카바	-11.9886
▁113	-11.9889
53	-11.989
ic	-11.9891
오프	-11.9913
90	-11.9926
폴리	-11.9929
▁오즈	-11.9937
바닥	-11.9937
ine	-11.9949
▁인쇄	-11.9954
▁쫓	-11.9977
아나	-11.9981
어스	-11.9996
rk	-12.0011
▁버린다	-12.0018
려갔	-12.0025
MA	-12.0065
ra	-12.0067
▁오메	-12.0067
▁가비	-12.0083
미트	-12.0097
▁구이	-12.0101
RW	-12.0117
▁바오	-12.0118
대기	-12.0121
▁샤프	-12.014
하루	-12.017
AT	-12.0171
욱	-12.0173
▁Bl	-12.0174
▁프랑	-12.0175
▁플레	-12.0177
▁Administrat	-12.0182
`	-12.0182
▁Science	-12.0182
▁윌킨	-12.0182
▁홉킨	-12.0182
긱	-12.0182
꿨	-12.0182
덱	-12.0182
뎁	-12.0182
럿	-12.0182
룽	-12.0182
볍	-12.0182
샅	-12.0182
쉘	-12.0182
젼	-12.0182
쳇	-12.0182
퉁	-12.0182
▁유방암	-12.0182
▁엑셀	-12.0182
▁무너뜨	-12.0182
▁Green	-12.0182
▁가브리엘	-12.0182
▁Tele	-12.0182
▁Franc	-12.0183
▁불꽃	-12.0183
▁Off	-12.0183
▁Face	-12.0183
▁레오	-12.0183
▁상관없	-12.0183
▁결핍	-12.0183
▁셰르파	-12.0183
▁Bot	-12.0183
▁Watch	-12.0184
▁날카로	-12.0185
앤젤	-12.0187
▁리베라	-12.0189
▁뜨거	-12.0189
▁생겨	-12.0189
▁클리브	-12.0192
27	-12.0192
▁탈옥	-12.0192
▁앞질렀	-12.0195
▁느껴	-12.0195
AG	-12.0196
▁헤딩	-12.0198
▁특허	-12.0198
▁벌어질	-12.0202
▁귀족	-12.0203
▁창립	-12.0204
SAD	-12.0206
▁브라우	-12.0207
▁거느	-12.0207
▁우익	-12.0208
▁스쿠	-12.021
▁107	-12.0214
▁징크	-12.0215
▁오르내	-12.0217
▁콰	-12.0219
▁줄어든	-12.0221
▁창업	-12.0221
▁러브	-12.0224
▁공백	-12.0224
▁家	-12.0225
▁퐁	-12.0225
▁흥행	-12.0225
▁돋	-12.0225
mmuni	-12.0226
▁프랜	-12.0226
▁휴양	-12.0228
▁완강	-12.0229
동참	-12.023
이란	-12.023
▁냉소	-12.0231
▁세척	-12.0231
▁골절	-12.0234
▁귀중	-12.0235
▁심판	-12.0238
▁비평	-12.0238
▁JT	-12.024
▁콜라	-12.0243
▁앨런	-12.0245
▁기븐	-12.0245
▁깔린	-12.0248
▁솟	-12.025
▁방패	-12.0252
▁세밀	-12.0254
▁죄수	-12.0255
메네	-12.0263
▁Star	-12.0265
▁Isla	-12.0278
▁웃음	-12.0279
▁철권	-12.0288
▁삼키	-12.0288
▁Cit	-12.0291
▁정한	-12.0291
RI	-12.0293
▁하누	-12.0293
▁공작	-12.0294
NDO	-12.0295
▁비서	-12.0298
▁튀	-12.0298
▁South	-12.0301
네이더	-12.0318
이저	-12.032
▁로열	-12.0322
지금	-12.0323
▁요크	-12.0326
도시	-12.0329
▁싸이	-12.0333
ther	-12.0334
▁칼로	-12.0335
▁파란	-12.0338
▁치타	-12.0342
▁우체	-12.0357
▁생식	-12.0365
▁크레이	-12.0366
▁MR	-12.0367
▁헐리	-12.0369
▁기숙	-12.0373
▁양성	-12.0373
▁근대	-12.0377
67	-12.0377
▁열려	-12.0381
▁현저	-12.0387
▁몽고	-12.0402
코노	-12.0406
▁사라져	-12.0411
▁절단	-12.0416
워키	-12.0424
▁야스	-12.0427
▁레프	-12.0431
▁여신	-12.0433
▁알렉산드	-12.0445
▁철학	-12.0446
하스	-12.045
이터	-12.0458
▁불거	-12.0465
워졌	-12.0466
루지	-12.047
ron	-12.0477
▁Me	-12.049
▁Girl	-12.049
▁금성	-12.0495
▁104	-12.0506
▁충성	-12.0517
▁밀수	-12.0518
▁도밍	-12.0519
▁Tru	-12.0521
▁어울	-12.0526
▁교차	-12.0534
▁연습	-12.0543
▁포유	-12.0548
▁박동	-12.0549
▁절도	-12.055
ICA	-12.0569
iz	-12.0571
▁집어	-12.0575
생물	-12.0577
▁주행	-12.0582
변기	-12.0583
BN	-12.0584
22	-12.0584
▁PE	-12.0589
▁124	-12.0594
▁NT	-12.0612
페타	-12.0618
▁우디	-12.0627
▁스프링스	-12.0635
▁사하	-12.0637
브르	-12.064
AC	-12.0641
▁세리	-12.0659
▁루스	-12.0685
정보	-12.0686
▁요하	-12.07
▁실력	-12.0712
▁벨로	-12.0714
AD	-12.0716
▁자비	-12.0729
▁리베	-12.0741
ie	-12.0742
마초	-12.0744
▁휘	-12.0744
▁의석	-12.0748
▁Un	-12.0754
라프	-12.0762
▁시추	-12.0769
▁OD	-12.0777
ost	-12.0784
▁당파	-12.0784
뭄바	-12.0812
▁티모	-12.0812
▁베르니	-12.083
les	-12.0839
▁불태	-12.084
▁실베	-12.0845
슬라	-12.0848
▁교정	-12.0859
▁호프	-12.0862
▁Free	-12.0865
▁Ma	-12.0867
ah	-12.0873
▁Pa	-12.0875
▁Pre	-12.0881
▁슬라	-12.0885
라이버	-12.0903
RG	-12.0909
하일	-12.0916
웅	-12.0927
▁치우	-12.0928
CT	-12.0969
멧	-12.0975
▁"3	-12.0982
조업	-12.0986
▁손가	-12.0999
팸	-12.1005
▁치나	-12.1018
스프레	-12.1018
벡	-12.1034
쾌	-12.1044
페테르	-12.1047
샘	-12.105
쯔	-12.1052
▁던진	-12.1055
▁복사	-12.1056
아웃	-12.1059
멜	-12.1064
앞	-12.1064
믹	-12.1065
턱	-12.107
▁Part	-12.1071
아냈	-12.1078
긍	-12.1079
희	-12.1082
밤	-12.1082
▁Gro	-12.1083
명사	-12.1084
벨트	-12.1096
범죄	-12.1098
과학자	-12.1108
우주	-12.1118
▁촌	-12.1124
독일	-12.1133
세워	-12.1135
▁비단	-12.114
▁갈아	-12.115
▁그럴	-12.115
▁베티	-12.1178
화학	-12.118
▁첼	-12.1185
수술	-12.1186
ank	-12.1198
로우	-12.12
상승	-12.121
제작	-12.121
▁프레이	-12.121
78	-12.1216
▁210	-12.1218
▁엘레	-12.1221
▁b	-12.1222
▁네드	-12.1226
조건	-12.1232
▁딴	-12.1232
티에	-12.1242
GA	-12.1246
▁밍	-12.1253
브린	-12.1257
▁블리	-12.1272
▁Do	-12.1273
▁군주	-12.1274
▁테라	-12.1275
▁빌라	-12.1301
▁이스터	-12.1306
그만	-12.1314
▁x	-12.1315
▁Sh	-12.1323
콜로	-12.1324
▁꿀	-12.1326
티모	-12.1333
아프	-12.1342
공화	-12.1342
생생	-12.1346
▁Mi	-12.1358
▁휘슬	-12.1359
▁클린	-12.1362
수료	-12.1362
프트	-12.1379
▁Qu	-12.1404
▁Har	-12.1414
보드	-12.1425
르베	-12.143
▁톱	-12.1432
.	-12.1435
▁fa	-12.1443
▁360	-12.1446
FL	-12.1465
28	-12.1467
990	-12.1471
카르도	-12.1481
▁도르	-12.1481
RS	-12.1509
▁투스	-12.151
SL	-12.1512
▁115	-12.1516
자료	-12.1519
ke	-12.1535
▁두르	-12.1536
매장	-12.1537
대부	-12.1565
▁나눈	-12.1571
▁잠자	-12.1595
LD	-12.1597
▁Ira	-12.1604
cation	-12.1605
▁Academ	-12.1611
▁Foundation	-12.1611
▁Gartner	-12.1611
▁Kurdis	-12.1611
▁SUV	-12.1611
▁굉장	-12.1611
▁깅그리치	-12.1611
▁발루치스탄	-12.1611
▁스쿨	-12.1611
▁알츠하이머	-12.1611
▁키쿠유	-12.1611
▁훌리	-12.1611
對	-12.1611
귄	-12.1611
렷	-12.1611
몄	-12.1611
볐	-12.1611
샨	-12.1611
숍	-12.1611
슭	-12.1611
윰	-12.1611
줌	-12.1611
텀	-12.1611
횟	-12.1611
▁Zoe	-12.1611
▁펀자브	-12.1611
▁사피엔	-12.1611
▁Black	-12.1611
▁페덜라인	-12.1611
▁디에고	-12.1611
▁실리콘	-12.1611
▁High	-12.1611
▁사로잡	-12.1611
▁쫓겨	-12.1611
▁아틀레	-12.1611
ww	-12.1611
▁Air	-12.1612
▁스카이다이	-12.1612
▁컨셉	-12.1612
▁모랄레	-12.1613
▁세르게이	-12.1613
▁물러났	-12.1613
▁Awa	-12.1614
▁플랫	-12.1614
▁휘말	-12.1615
▁밍크	-12.1615
▁초고속	-12.1615
▁끌어내	-12.1616
▁기울여	-12.1617
▁Red	-12.1617
▁오리건주	-12.1617
▁설욕	-12.1618
▁울렸	-12.1618
▁원활	-12.1618
thing	-12.1618
▁메트로	-12.1618
▁합쳐	-12.1619
▁툴라	-12.162
▁브렌	-12.1623
▁휘트	-12.1624
▁보육	-12.1627
PAC	-12.1629
▁헨드	-12.1629
ical	-12.163
▁움직여	-12.1631
▁Blue	-12.1634
▁데스크	-12.1637
▁난투	-12.1638
▁필름	-12.164
▁토너	-12.164
▁퍼스	-12.164
▁베르나르	-12.1644
▁브란	-12.1644
▁ES	-12.1646
EV	-12.1648
▁플로리	-12.1648
▁뒤쳐	-12.1651
▁Art	-12.1654
▁키워	-12.1654
▁칼럼	-12.1659
▁내몰	-12.166
▁히드라	-12.1661
▁샐	-12.1661
▁알레한드	-12.1661
▁맘	-12.1663
▁캔버	-12.1663
▁장갑	-12.1664
▁부드러	-12.1665
▁기형	-12.1665
▁세르비	-12.1666
▁메타	-12.1667
시스	-12.1668
▁깨진	-12.1669
▁패러	-12.1669
▁루시아	-12.1671
▁빨라	-12.1671
▁크로커	-12.1674
라이딩	-12.1674
▁네이션	-12.1674
▁브로스	-12.1674
▁헬만	-12.1675
▁파블로	-12.1676
▁사단	-12.1678
레인	-12.1679
▁145	-12.1681
▁Lo	-12.1682
▁방청	-12.1686
▁법령	-12.1688
▁주먹	-12.1689
▁떠돌	-12.1692
▁마술	-12.1695
▁퇴직	-12.1697
▁크라이	-12.1701
▁브론	-12.1701
▁우루	-12.1701
▁특공	-12.1703
▁할까	-12.1708
IC	-12.1714
▁칼리아	-12.1716
▁판매업	-12.1716
▁난방	-12.1718
▁외설	-12.1719
▁합성	-12.1721
▁펠리	-12.1722
op	-12.1722
들레	-12.1729
▁메이드	-12.1731
▁내린다	-12.1732
▁마이어	-12.1734
▁노렸	-12.1735
▁폴라	-12.1738
프링	-12.1743
▁앰	-12.1748
▁틈	-12.1748
성애	-12.175
age	-12.1751
▁놀란	-12.1754
▁도요	-12.1754
▁충실	-12.1757
41	-12.1759
it	-12.176
nation	-12.1764
▁엘도	-12.1764
▁스노	-12.1773
레반	-12.1778
릴라	-12.1784
▁메신	-12.1787
▁"200	-12.1787
레가스	-12.1788
▁ICE	-12.1791
FCC	-12.1792
버거	-12.1799
▁시차	-12.1802
▁재계	-12.1805
▁골라	-12.181
▁니키	-12.181
스펜	-12.1813
k	-12.1816
▁임파	-12.1822
▁토미	-12.1831
lif	-12.1832
tc	-12.1836
▁양파	-12.1836
▁경작	-12.1842
▁평상	-12.185
▁물려	-12.1853
▁몬트	-12.1859
▁No	-12.188
▁생긴다	-12.1882
mg	-12.1885
▁불명	-12.1888
▁페이	-12.1891
▁야심	-12.1894
44	-12.1902
▁94	-12.1912
▁살바	-12.1917
z	-12.1917
라트	-12.1921
브라이	-12.1924
▁적당	-12.1929
▁야마	-12.193
▁출근	-12.1945
▁리얼	-12.1949
▁마커	-12.1951
▁총살	-12.1955
▁Pe	-12.196
lli	-12.1976
▁아덴	-12.198
▁외식	-12.1981
▁만든다	-12.1983
▁길라	-12.1989
▁Spa	-12.1993
▁마가	-12.1996
들러	-12.2002
▁점보	-12.2003
▁맞물	-12.2011
▁인류학	-12.2012
▁피그	-12.2023
▁페레	-12.2024
▁푸드	-12.2025
▁셈	-12.2028
시오	-12.2033
▁이사벨	-12.2033
▁보살	-12.2035
▁원만	-12.2036
▁나폴리	-12.2043
own	-12.2082
▁그늘	-12.2083
▁성형	-12.2102
▁마인	-12.2103
▁피운	-12.2107
pice	-12.2119
▁공과	-12.2129
중생	-12.2132
폴로	-12.2145
▁되돌	-12.2167
포트	-12.2171
▁스프	-12.2175
▁풍자	-12.2181
타리	-12.2186
▁310	-12.2188
▁처녀	-12.2195
▁힌	-12.2202
158	-12.2208
두르	-12.2211
▁벡	-12.2223
▁475	-12.2223
▁때려	-12.223
▁소용	-12.2239
▁정해진	-12.2249
리스토	-12.2264
▁함부	-12.2275
ive	-12.2275
▁hav	-12.2281
▁분비	-12.2286
▁호기	-12.2304
▁숭	-12.2305
▁룩	-12.2326
▁Bi	-12.2357
시위	-12.2361
▁베트	-12.2368
▁무용	-12.2369
olog	-12.2371
▁코디	-12.2382
▁아돌	-12.2421
▁프로이	-12.2425
▁버로	-12.2427
▁시가	-12.2429
▁콥	-12.2431
▁카리	-12.2453
구리	-12.2462
21	-12.2465
돌려	-12.2468
ent	-12.247
▁대공	-12.247
▁AG	-12.2485
▁자회	-12.2485
▁입주	-12.2486
▁사스	-12.2487
▁토프	-12.2493
자와	-12.2497
▁are	-12.2507
out	-12.2513
한다면	-12.2524
가드	-12.2542
▁뒤진	-12.2547
얀	-12.255
▁기생	-12.2555
따라	-12.2557
▁개개	-12.2561
수면	-12.2569
FT	-12.257
▁로빈	-12.2579
스트리	-12.258
▁외과	-12.258
book	-12.2582
메리	-12.2582
맷	-12.2593
▁피에	-12.2607
▁Th	-12.2613
▁For	-12.2615
리타	-12.2616
sion	-12.2623
▁타케	-12.2623
pace	-12.2624
▁De	-12.2625
▁Car	-12.2628
▁설리	-12.2629
▁치아	-12.2633
▁141	-12.2644
도저	-12.2649
래드	-12.2664
fa	-12.2664
폼	-12.2676
리코	-12.2677
▁전초	-12.268
수르	-12.2688
눌	-12.2689
엽	-12.2692
찌	-12.2702
활	-12.2704
진다	-12.2708
▁버터	-12.2708
스프링스	-12.2709
▁분주	-12.2715
▁Sho	-12.2721
me	-12.2725
▁주어	-12.2729
켄	-12.2736
갖	-12.2739
▁Her	-12.274
콜롬비	-12.2743
웰	-12.2744
햄	-12.2745
네덜란드	-12.2746
앉	-12.2747
▁죽인	-12.2749
줬	-12.2749
흑	-12.2749
곧	-12.2749
ite	-12.275
검찰	-12.275
레오	-12.2752
빌라	-12.2757
당국	-12.2769
로버트	-12.2771
▁제네	-12.2774
te	-12.2778
▁Ha	-12.2797
여러	-12.2802
▁토리	-12.2803
실험	-12.2806
ngs	-12.2814
베이스	-12.2819
▁포레	-12.2823
이몬	-12.2834
이탈리아	-12.2835
tone	-12.2835
뉴스	-12.2836
AA	-12.2838
▁제니	-12.2847
새우	-12.2855
▁할로	-12.2876
ful	-12.2876
레드	-12.2898
atch	-12.2907
▁루트	-12.2908
▁바쿠	-12.2913
다르	-12.2916
운전	-12.2933
▁물린	-12.2938
▁셀레	-12.2946
살라	-12.2955
▁디나	-12.2956
▁원시	-12.2956
라디	-12.296
뤘	-12.2985
ba	-12.2999
tes	-12.3
▁메모	-12.3013
그래	-12.3023
▁소프	-12.3036
프레스	-12.3041
ds	-12.3051
스페인	-12.3059
수아	-12.3062
▁Ne	-12.3064
▁제조업	-12.3069
▁레이크	-12.3083
체어	-12.3089
뢰	-12.3093
경보	-12.3096
▁통지	-12.31
서전	-12.3104
▁나탈리	-12.3107
니카	-12.3109
파예	-12.3111
▁나니	-12.3113
▁타타	-12.3115
▁저기	-12.3128
▁베드	-12.313
▁GD	-12.3131
레이트	-12.3139
▁330	-12.3148
▁Po	-12.3149
국영	-12.3154
긋	-12.3171
▁390	-12.3189
▁161	-12.3208
▁Ba	-12.322
▁보드	-12.322
벅	-12.3232
현지	-12.3247
▁점원	-12.3264
no	-12.3267
▁650	-12.3268
men	-12.3271
▁휩싸	-12.3272
뱅	-12.3273
▁Australia	-12.3277
▁Democra	-12.3277
▁Royal	-12.3277
▁Service	-12.3277
▁마땅	-12.3277
▁빼돌	-12.3277
▁뿌려	-12.3277
▁뿌렸	-12.3277
▁옐로	-12.3277
▁온타리오	-12.3277
▁왼손	-12.3277
種	-12.3277
誌	-12.3277
깅	-12.3277
꽤	-12.3277
눅	-12.3277
댔	-12.3277
딤	-12.3277
떳	-12.3277
띤	-12.3277
맙	-12.3277
빽	-12.3277
샀	-12.3277
쑤	-12.3277
씰	-12.3277
짱	-12.3277
▁Transport	-12.3277
▁Picture	-12.3277
▁민방위	-12.3277
▁VIP	-12.3277
▁가라앉	-12.3277
▁헤르난데	-12.3278
▁God	-12.3278
▁Health	-12.3278
▁UNMI	-12.3278
▁Animal	-12.3278
데자네이	-12.3278
▁LPG	-12.3278
▁엇갈	-12.3278
▁Sex	-12.3278
▁생겨났	-12.3279
▁cap	-12.3279
gan	-12.3279
▁Soft	-12.328
▁헤르만	-12.328
▁280	-12.328
▁Will	-12.328
▁브룩	-12.3282
▁싸웠	-12.3282
FOR	-12.3283
▁비춰	-12.3283
▁가져왔	-12.3283
▁내세웠	-12.3284
▁Td	-12.3284
▁꾸민	-12.3285
▁묻혀	-12.3285
UR	-12.3285
▁찾아온	-12.3285
▁헤엄	-12.3286
▁패트리	-12.3286
▁Food	-12.3286
uch	-12.3288
▁Euro	-12.3288
▁선보인다	-12.3289
▁비벌리	-12.3289
▁나타낼	-12.3289
▁시킴	-12.329
▁뒤따라	-12.3291
▁헌팅	-12.3291
▁프렌치	-12.3292
▁Le	-12.3292
▁Lea	-12.3293
ors	-12.3293
▁King	-12.3294
▁블러	-12.3295
▁머물러	-12.3296
▁코메	-12.3298
▁브릿지	-12.3299
▁나간	-12.3301
▁Mon	-12.3301
▁리틀	-12.3302
NN	-12.3302
ny	-12.3302
▁으니	-12.3309
▁혈연	-12.331
▁각본	-12.3312
▁멀미	-12.3313
▁아이젠	-12.3316
▁끝났	-12.3319
다닌다	-12.332
▁마르세	-12.3321
▁Medic	-12.3322
ew	-12.3326
▁내륙	-12.3331
▁순교	-12.3331
PR	-12.3332
▁돌렸	-12.3332
▁액세	-12.3334
화산	-12.3336
HM	-12.3336
▁벵	-12.3337
▁펭	-12.3337
▁놔	-12.3337
▁솜	-12.3337
▁매리너	-12.3338
브라	-12.3339
▁눌러	-12.334
▁대금업	-12.3341
ves	-12.3342
▁지질학	-12.3342
▁걸린다	-12.3343
▁삼각	-12.3352
▁메릴랜드주	-12.3355
▁베이비	-12.3355
▁벗겨	-12.3357
▁그레이트	-12.3361
타워	-12.3363
▁티오	-12.3365
▁리만	-12.3372
▁컨버	-12.3375
▁창조	-12.3376
에어	-12.3377
▁철거	-12.3379
▁WM	-12.338
▁올레	-12.3388
▁보르	-12.339
▁세네	-12.3406
▁re	-12.341
▁하모니	-12.3424
ones	-12.3436
▁문화재	-12.3439
▁평론	-12.344
AMA	-12.3441
▁Music	-12.3442
▁친목	-12.3442
▁선풍	-12.3444
▁프랑코	-12.3447
▁린드	-12.345
▁전몰	-12.345
겨진	-12.3451
▁Gr	-12.3461
▁통역	-12.3466
▁루빈	-12.347
▁성취	-12.347
▁스릴	-12.3471
세르	-12.3473
▁카발	-12.3474
▁AN	-12.3476
▁꾸려	-12.3483
▁워싱턴주	-12.3484
▁울리	-12.3486
▁광동	-12.349
▁저명	-12.35
▁헤로	-12.3502
▁아브	-12.3508
▁산산	-12.351
▁미스터	-12.3521
들이	-12.3522
▁마이크로	-12.3529
▁미들	-12.3532
▁잘려	-12.3534
urch	-12.3537
▁Tri	-12.3538
▁스트라	-12.354
▁아랫	-12.3545
▁An	-12.3551
▁스톡	-12.3552
▁닛	-12.3552
IB	-12.3562
앙카	-12.3563
▁밀어	-12.3566
▁트리니	-12.3572
AM	-12.3581
▁사운드	-12.359
lim	-12.3596
▁리야	-12.3601
개인	-12.3606
▁매립	-12.3606
▁동화	-12.3616
mon	-12.362
아들	-12.3622
▁not	-12.3628
▁붙인	-12.3632
▁델리	-12.3634
urit	-12.3635
IN	-12.3635
▁실리	-12.364
▁벨라	-12.3641
TF	-12.3646
트레	-12.3646
ant	-12.3651
▁Gu	-12.3651
▁전폭	-12.3671
▁격전	-12.368
트만	-12.3694
as	-12.3719
▁안티	-12.3725
▁배달	-12.373
에트	-12.3737
▁마법	-12.3747
06	-12.375
▁Pr	-12.3755
▁샌드	-12.3762
오르	-12.3764
▁리어	-12.3784
▁결속	-12.3791
▁에드먼	-12.3793
▁빈센	-12.3805
▁스모	-12.383
▁Ca	-12.3831
ng	-12.3832
▁빠뜨	-12.3854
nger	-12.3861
ake	-12.3864
▁판문	-12.3866
light	-12.3867
▁fro	-12.3873
▁사절	-12.3878
렉시	-12.3892
라우	-12.3893
▁눌	-12.3895
▁엽	-12.3899
했었	-12.3909
SB	-12.3913
▁맞대	-12.3922
▁리라	-12.3927
▁등산	-12.393
▁양어	-12.3934
▁조인	-12.3952
▁해리스	-12.3954
▁ADH	-12.3959
▁소모	-12.3978
장난	-12.3979
티노	-12.3988
▁바크	-12.3989
▁투우	-12.3996
▁니시	-12.3996
ead	-12.4001
카나	-12.4002
▁호르	-12.4037
▁공직	-12.4039
건주	-12.4043
모니	-12.4056
91	-12.4059
▁구토	-12.4062
▁대금	-12.409
▁차입	-12.4095
▁베니	-12.4095
▁o	-12.4103
ift	-12.4105
▁고메	-12.4109
▁감전	-12.412
▁미확인	-12.4121
일간	-12.4122
▁쓰여	-12.4126
▁벨트	-12.413
▁불시	-12.4134
▁티에	-12.4142
▁붓	-12.4144
▁당할	-12.4145
탈레	-12.4153
보였	-12.4153
airs	-12.4156
▁사교	-12.4156
었었	-12.4157
▁탄원	-12.4158
▁전과	-12.4165
▁포용	-12.4169
ch	-12.4181
▁여긴	-12.4188
▁크림	-12.4203
레스티	-12.4212
▁리바	-12.4215
▁Val	-12.4219
▁케이프	-12.4244
사실	-12.4248
리케이	-12.4264
▁Par	-12.4272
ologic	-12.4274
49	-12.4283
▁Ri	-12.4296
LC	-12.4298
▁병마	-12.4312
▁떠들	-12.4317
▁수세	-12.4318
97	-12.4319
종일	-12.4337
의장	-12.4345
▁과일	-12.4349
른다고	-12.4354
▁Ju	-12.4368
▁Te	-12.4373
ean	-12.4376
92	-12.4387
▁안토	-12.4428
ash	-12.4429
▁핵폭	-12.4433
▁부티	-12.4438
태국	-12.4443
ff	-12.4446
▁so	-12.4447
▁Ir	-12.4451
싹	-12.4455
▁Cu	-12.4457
LO	-12.4489
▁불신	-12.4489
▁김대	-12.4491
▁Brit	-12.4491
ex	-12.45
▁부러	-12.4507
▁패리	-12.4548
▁테레	-12.4554
bal	-12.4568
▁NS	-12.4571
이제	-12.4581
▁Inc	-12.4584
ama	-12.4587
렙	-12.4606
윙	-12.4606
뎀	-12.4609
셰르	-12.4616
타스	-12.4632
▁무단	-12.4637
X	-12.4643
ian	-12.4645
tter	-12.4645
ens	-12.4646
▁마키	-12.466
▁포상	-12.4671
▁에쿠	-12.4678
▁재경	-12.4682
▁Sch	-12.4684
ool	-12.4698
왈	-12.4699
셈	-12.4706
슈타	-12.4708
께	-12.4715
▁세라	-12.4715
샬	-12.4722
▁무소	-12.4722
툴	-12.4723
ove	-12.4731
탱	-12.4735
좁	-12.4739
닷	-12.4739
GM	-12.4739
팀	-12.474
잘	-12.474
썼	-12.4741
벗	-12.4742
▁fi	-12.4743
흔	-12.4743
꿈	-12.4747
헬	-12.4747
FAR	-12.4748
카메라	-12.4757
중독	-12.4766
ube	-12.4781
피어스	-12.4786
랑가	-12.479
▁한테	-12.4794
▁뒀	-12.4795
▁마그	-12.4798
나폴리	-12.4811
▁퀘	-12.4814
id	-12.4815
▁133	-12.4821
▁조이	-12.4826
▁fr	-12.4827
16	-12.4849
결합	-12.4853
cal	-12.487
플로	-12.487
▁폐경	-12.487
ure	-12.4875
▁열기	-12.4878
▁139	-12.488
▁Jo	-12.4886
▁En	-12.4888
▁돌봐	-12.4891
▁바보	-12.4921
▁어웨이	-12.4939
▁수호	-12.4949
▁Ko	-12.4961
▁"4	-12.4977
하모	-12.4979
▁중세	-12.498
▁비야	-12.4988
사람	-12.4998
▁내보	-12.5007
트레일	-12.5016
목격	-12.5031
▁캐스	-12.505
▁"7	-12.5053
▁아티	-12.5054
아바	-12.5056
빠졌	-12.5059
밀리	-12.5091
벌리	-12.5092
게이	-12.5093
▁다뤄	-12.5095
▁All	-12.5099
▁몰라	-12.5114
▁at	-12.5115
▁AA	-12.512
▁f	-12.5124
▁Na	-12.5129
48	-12.5138
뜨렸	-12.5142
래스카	-12.5152
77	-12.5153
루프	-12.5167
be	-12.5168
벼	-12.5172
▁Exp	-12.5173
그리스	-12.518
ill	-12.518
▁Wi	-12.5188
ign	-12.5194
▁정수	-12.5196
▁Cons	-12.5199
▁Ala	-12.52
ld	-12.5204
des	-12.5205
ast	-12.5209
질라	-12.5211
▁420	-12.5212
▁540	-12.5214
데라	-12.5218
▁개도	-12.5219
학원	-12.5222
▁부적	-12.5256
네베	-12.5256
▁최전	-12.5258
▁브릿	-12.5258
시르	-12.5259
ray	-12.5261
▁분수	-12.5264
▁스프링	-12.5265
▁270	-12.5265
85	-12.5269
▁이룬	-12.5269
▁올가	-12.5273
▁Am	-12.5274
▁Council	-12.5277
▁Electronic	-12.5277
▁Heart	-12.5277
▁Tibet	-12.5277
▁Writer	-12.5277
▁깊숙	-12.5277
▁떨쳐	-12.5277
▁빚어	-12.5277
▁죠지	-12.5277
▁산부인과	-12.5277
▁까다로	-12.5277
▁파킨슨	-12.5277
▁Institut	-12.5277
▁Holly	-12.5277
▁tru	-12.5277
▁변함없	-12.5278
▁Sec	-12.5278
▁치아파스	-12.5278
▁제레미	-12.5278
▁Out	-12.5278
▁수마트라	-12.5278
▁독립운동	-12.5278
▁Mac	-12.5278
▁Conf	-12.5278
place	-12.5278
lig	-12.5278
line	-12.5278
▁거둬	-12.5279
▁right	-12.5279
▁Night	-12.5279
▁티그리스	-12.5279
▁Hel	-12.5279
▁끌어올	-12.5279
ook	-12.5279
▁Water	-12.5279
▁Bur	-12.5279
▁템플	-12.5281
▁뒤흔	-12.5281
▁Cry	-12.5282
▁쌓여	-12.5282
▁Flo	-12.5283
urvive	-12.5283
stro	-12.5283
리조나	-12.5283
▁Ethi	-12.5284
▁CPS	-12.5284
▁App	-12.5284
▁컬럼	-12.5284
▁삽입	-12.5285
▁쿠푸	-12.5285
라테스	-12.5285
▁Res	-12.5286
▁그리워	-12.5286
▁오리건	-12.5286
▁바닷	-12.5286
스피	-12.5286
▁액션	-12.5286
▁프렌	-12.5286
▁아멜리	-12.5287
▁맡겨	-12.5288
▁버밍	-12.529
▁부끄러	-12.529
▁싸워	-12.5292
ampa	-12.5292
▁Toy	-12.5294
▁소홀	-12.5294
▁흡입	-12.5296
▁학술	-12.5296
▁AK	-12.5296
▁염색	-12.5297
▁투숙	-12.5299
▁Data	-12.5299
▁쓸모	-12.5299
▁트랜스	-12.53
▁투르크	-12.5301
gy	-12.5302
▁레오나	-12.5303
62	-12.5304
▁골드스	-12.5304
▁산둥	-12.5304
▁소매상	-12.5306
▁어긋	-12.5306
eek	-12.5307
▁청취	-12.5307
▁can	-12.5308
▁세운다	-12.5308
dio	-12.5309
▁애쉬	-12.5309
▁넘긴	-12.531
▁납세	-12.5311
CIO	-12.5313
▁손잡	-12.5316
플루	-12.5319
▁뛰어내	-12.532
▁이맘	-12.532
친다	-12.532
▁725	-12.5321
▁CO	-12.5321
▁좁혀	-12.5322
▁진찰	-12.5322
▁다카야	-12.5325
▁브랑	-12.5326
▁KC	-12.5326
▁휴교	-12.5327
lf	-12.5327
▁갈릴	-12.5328
▁기념품	-12.5329
▁신앙	-12.5332
▁귀여	-12.5333
라렌	-12.5334
▁들여다	-12.5335
▁신랄	-12.5339
▁숙련	-12.534
▁136	-12.5341
▁사라진	-12.5346
▁l	-12.5347
▁비닐	-12.5348
▁채워	-12.5349
▁져야	-12.5349
▁뻔	-12.5352
▁뽀	-12.5352
▁갓	-12.5352
구조	-12.5352
▁Report	-12.5353
▁102	-12.5353
▁165	-12.5353
▁Hop	-12.5353
▁출입국	-12.5354
▁Ass	-12.5355
리프	-12.5356
▁젤리	-12.5359
▁날렸	-12.5362
▁NG	-12.5363
▁state	-12.5364
▁페스	-12.5365
▁프랑스와	-12.5371
▁서해	-12.5373
▁무척	-12.5374
▁260	-12.5375
▁ROM	-12.5375
▁온건	-12.5378
▁만두	-12.538
▁심했	-12.5381
1948	-12.5384
▁나눈다	-12.5385
▁순환	-12.5386
▁늘어난다	-12.5387
▁Sea	-12.5388
▁융자	-12.5388
▁제랄	-12.5391
로페	-12.5392
▁봉급	-12.5395
▁Sky	-12.5397
▁발칸	-12.5402
경비	-12.5402
▁싸운	-12.5408
▁에두아르	-12.541
▁프로그래	-12.5414
▁처참	-12.5417
로하	-12.5418
▁일까	-12.542
국방	-12.5422
▁포틀	-12.5423
▁말끔	-12.5427
▁출품	-12.5427
▁코스타	-12.5428
▁히로	-12.5431
▁사무엘	-12.5439
▁중소	-12.5441
▁모리스	-12.5443
▁고추	-12.5446
가르시아	-12.5447
▁트럼	-12.5449
▁개척	-12.5452
▁유니버	-12.5453
베드	-12.5454
교수	-12.5455
▁밀반	-12.5458
▁검역	-12.5463
▁매트	-12.5476
▁식용	-12.5478
공격	-12.5481
▁뱃	-12.5484
▁프런티	-12.5485
▁증류	-12.5488
▁KG	-12.5489
▁is	-12.5491
▁참수	-12.5494
▁실버	-12.5499
▁떨어진다	-12.5504
▁one	-12.5504
▁프래	-12.5505
▁go	-12.5513
▁구석	-12.5514
▁모네	-12.5515
▁리니	-12.5518
29	-12.5529
▁매표	-12.5537
ef	-12.5541
▁백상	-12.5543
▁린스	-12.5553
▁헤르	-12.5558
보내	-12.5562
▁해독	-12.5576
▁라데	-12.5577
▁카디	-12.5577
▁쓰일	-12.5583
▁"10	-12.5586
▁천재	-12.5589
▁화살	-12.56
조지	-12.56
▁AM	-12.5615
▁케미	-12.5616
▁페터	-12.562
▁엘스	-12.5625
▁Bay	-12.5626
▁간담	-12.5635
▁기병	-12.5641
CD	-12.5641
르완	-12.5643
▁블랑	-12.5644
▁난다	-12.5655
▁비쳐	-12.5668
▁레버	-12.5669
들썩	-12.5681
▁네티	-12.5689
▁슈마	-12.569
▁깨뜨	-12.5702
▁입방	-12.5723
폭발	-12.5724
▁코모	-12.5725
▁포티	-12.5727
화기	-12.5729
▁연말	-12.5729
롤라이	-12.573
계엄	-12.5733
드문	-12.5737
▁센티	-12.5738
포머	-12.575
WB	-12.5751
장성	-12.5754
▁교과	-12.5771
▁imp	-12.5775
39	-12.578
▁전임	-12.5792
▁전세	-12.5799
▁배반	-12.5814
나디	-12.5825
▁유고	-12.5832
▁북적	-12.5841
▁메티	-12.5853
▁Thi	-12.5857
▁농사	-12.5871
▁워즈	-12.5889
▁트랜	-12.5891
▁Indian	-12.5913
▁관개	-12.5915
▁비웃	-12.593
▁Gi	-12.595
▁무가	-12.5953
▁mo	-12.5954
ccess	-12.5957
▁무르	-12.5962
▁마타	-12.5962
▁동호	-12.5992
▁수학	-12.5994
제프	-12.5995
▁양조	-12.6018
▁순다	-12.6025
▁투구	-12.6026
ton	-12.6042
슈티	-12.6056
▁Tour	-12.606
▁강해	-12.606
▁에버	-12.6062
▁폼	-12.6064
▁영사	-12.6065
▁방탄	-12.6067
min	-12.6082
기사	-12.6084
립스	-12.6086
레코	-12.6102
▁오디	-12.6103
83	-12.6108
슬란	-12.6115
▁제타	-12.6121
▁헤라	-12.613
CL	-12.6151
▁지바	-12.6151
데일	-12.6153
글리	-12.6154
금년	-12.6161
f	-12.6162
아오	-12.6163
▁무언	-12.6166
▁DN	-12.6169
▁타미	-12.6177
j	-12.6179
ali	-12.6182
▁신조	-12.6192
▁Wh	-12.6205
▁시연	-12.6211
▁내걸	-12.6214
▁팸	-12.622
▁나타낸다	-12.6223
▁메트	-12.6224
야마	-12.6227
per	-12.6229
▁둔다	-12.6229
▁의해서	-12.6237
ARI	-12.6243
▁차려	-12.6249
▁대행	-12.6256
▁레터	-12.6257
▁셋	-12.6287
수도	-12.6299
시불	-12.6314
do	-12.6321
aq	-12.634
▁관세	-12.6349
▁중화	-12.6353
ha	-12.6354
ifor	-12.6359
▁로버	-12.6365
▁나일	-12.6397
프라	-12.6398
▁태어	-12.6399
▁진원	-12.641
▁에이브	-12.6422
▁반항	-12.6423
테베	-12.6431
il	-12.6436
슈미	-12.6455
▁동급	-12.6481
ai	-12.6491
IE	-12.6508
▁흘러나	-12.652
▁되살	-12.6533
▁뛰어나	-12.6564
▁성실	-12.6569
▁질러	-12.6576
샤리	-12.6616
MI	-12.6617
도로	-12.6647
sch	-12.6664
▁네이	-12.6679
ese	-12.6681
▁세미	-12.6703
OR	-12.6705
▁네버	-12.6705
serv	-12.6716
르기	-12.6728
▁장미	-12.6741
리아노	-12.6744
고르스	-12.6756
▁입소	-12.6756
ro	-12.6761
▁여긴다	-12.6766
▁총무	-12.6771
으로	-12.6779
ome	-12.6831
리얼	-12.6833
웃	-12.6836
▁PA	-12.6854
▁217	-12.6858
망상	-12.6872
▁su	-12.6898
▁We	-12.69
▁베를	-12.6901
꾼	-12.6901
94	-12.6901
▁버드	-12.6902
ER	-12.691
ning	-12.6914
▁방관	-12.6938
OS	-12.6955
▁사각	-12.6955
▁카타	-12.6958
▁밀로	-12.6963
▁쉬워	-12.6963
비키	-12.6986
▁생리	-12.6991
寶	-12.6993
▁사물	-12.7001
버려	-12.7016
▁재조	-12.7022
템	-12.7039
nia	-12.7042
이먼	-12.705
NP	-12.7068
ect	-12.7075
▁느낀	-12.7076
▁PG	-12.7082
ern	-12.7083
res	-12.7084
궈	-12.7094
▁신기	-12.7095
tte	-12.7096
ix	-12.7099
해진	-12.7113
신문	-12.7114
▁카시	-12.7115
된	-12.7119
BO	-12.7123
▁솔리	-12.7126
▁사유	-12.7133
세비	-12.7153
▁아유	-12.7156
툰	-12.7163
보기	-12.7164
▁천정	-12.7175
으면	-12.7175
사파	-12.719
▁181	-12.7191
보수	-12.7197
킴	-12.7204
▁Bri	-12.7208
bur	-12.7212
덩	-12.7213
▁타가	-12.7216
따	-12.7225
Q	-12.7234
셰	-12.7236
윗	-12.7236
파이어	-12.7238
▁243	-12.724
첫	-12.7242
워싱턴	-12.7243
멕시코	-12.7243
댈	-12.7244
녹	-12.7244
244	-12.7244
앨	-12.7245
윌리엄	-12.7245
뉴질랜드	-12.7246
졸	-12.7246
캠프	-12.7246
압둘라	-12.7247
맡	-12.7247
늦	-12.7248
더욱	-12.7249
▁주안	-12.7251
스위스	-12.7252
브라질	-12.7253
lan	-12.7253
애플	-12.7255
▁Federa	-12.7257
평균	-12.7259
독립	-12.7261
▁Terr	-12.7262
도밍	-12.7267
백악	-12.7268
오스카	-12.7273
세웠	-12.7279
코너	-12.7285
▁과민	-12.7291
클레이	-12.7294
gu	-12.7297
aria	-12.7299
▁La	-12.73
앤드	-12.7302
▁그렸	-12.7305
생물학	-12.7306
AR	-12.7307
▁롤라	-12.7308
air	-12.7311
▁375	-12.7321
cy	-12.733
▁119	-12.7339
old	-12.734
ck	-12.7342
플라	-12.7343
▁로크	-12.7348
▁고집	-12.7354
▁히카	-12.7361
▁Su	-12.7363
공연	-12.7364
얼마	-12.7367
놀이	-12.737
▁파스	-12.7376
일대	-12.7379
배심	-12.7381
마이크	-12.739
로그	-12.7396
방송	-12.7408
▁백스	-12.7411
im	-12.7418
ph	-12.742
히드	-12.7421
OSC	-12.7426
▁Bo	-12.743
ual	-12.7437
▁377	-12.7438
랜스	-12.7438
▁640	-12.744
▁프루	-12.7442
TT	-12.7445
▁Che	-12.7451
줄기	-12.7451
나르	-12.7453
관광	-12.7456
ward	-12.7458
ech	-12.747
ise	-12.747
RE	-12.7482
▁넌	-12.7482
▁해진다	-12.7483
종양	-12.7493
▁아세	-12.751
복용	-12.751
플레이	-12.7514
▁관제	-12.7521
바샤	-12.7521
▁카사	-12.7532
▁134	-12.7534
▁참고	-12.754
▁182	-12.7544
▁적색	-12.7546
▁아타	-12.7553
▁Ge	-12.7562
ig	-12.7568
타임	-12.7573
▁San	-12.7574
▁Can	-12.7584
ilit	-12.7585
▁121	-12.7589
여성	-12.759
▁헨	-12.7595
▁440	-12.7613
▁Cas	-12.762
▁Fu	-12.7638
기념	-12.764
▁나카	-12.7645
과거	-12.7648
드레	-12.7649
▁460	-12.765
▁헤리	-12.767
▁Del	-12.7672
que	-12.7677
▁은밀	-12.7678
▁세속	-12.7678
▁늘어난	-12.7688
ve	-12.7689
▁122	-12.7691
그런	-12.7692
▁IC	-12.7693
▁아쉬	-12.7697
▁모세	-12.77
▁Stu	-12.7702
피해	-12.7708
▁오사	-12.771
교도	-12.7711
젤로	-12.7719
gen	-12.772
sse	-12.7725
▁자가	-12.7725
워스	-12.7732
▁부화	-12.7738
rida	-12.7748
17	-12.7759
TE	-12.7762
뇨	-12.7766
리티	-12.7771
▁바꾼	-12.7773
owa	-12.7773
OAS	-12.7774
꼈	-12.7776
reet	-12.7777
thod	-12.7777
olution	-12.7777
▁Depart	-12.7777
▁Economic	-12.7777
▁MACHO	-12.7777
▁Survey	-12.7777
▁버뮤다	-12.7777
▁싫어	-12.7777
▁옮긴	-12.7777
▁잊어버	-12.7777
▁찢어	-12.7777
▁태즈메이니아	-12.7777
▁페네르바체	-12.7777
▁Cruise	-12.7777
▁옷차림	-12.7777
▁Refuge	-12.7777
▁buy	-12.7777
▁Divers	-12.7777
▁Informa	-12.7777
▁Island	-12.7777
▁예카테	-12.7778
▁Technolog	-12.7778
▁take	-12.7778
▁몰아붙	-12.7778
▁멈춰	-12.7778
▁Progr	-12.7778
▁Clu	-12.7778
▁세계무역	-12.7778
▁Commi	-12.7778
▁Public	-12.7778
▁퍼뜨	-12.7778
walk	-12.7778
▁kiss	-12.7778
▁meet	-12.7778
▁교통안전	-12.7778
▁Count	-12.7778
▁서커스	-12.7778
ism	-12.7778
▁Power	-12.7779
▁Bell	-12.778
▁Regi	-12.778
▁Tra	-12.778
마쳤	-12.778
▁멈춘	-12.7781
▁Pro	-12.7781
▁펄럭	-12.7781
▁다우닝	-12.7782
▁주파수	-12.7782
chae	-12.7782
▁Fight	-12.7782
▁엔젤	-12.7782
어붙	-12.7782
MIT	-12.7782
▁Act	-12.7783
▁어지러	-12.7783
▁레닌	-12.7783
▁Fil	-12.7783
▁흐른다	-12.7784
▁두드러진	-12.7785
▁식민주의	-12.7785
▁움직인다	-12.7785
▁찾아왔	-12.7785
▁162	-12.7785
▁마운틴	-12.7786
▁네팔	-12.7786
▁part	-12.7786
yan	-12.7787
▁헬싱	-12.7787
enti	-12.7788
▁저질러	-12.779
러졌	-12.7791
▁twi	-12.7791
▁돈독	-12.7792
립니다	-12.7795
▁탐색	-12.7795
▁틀림	-12.7796
▁라이플	-12.7799
▁내려와	-12.78
▁쾌속	-12.78
달려	-12.7801
▁레인보	-12.7802
PH	-12.7802
▁히데	-12.7803
▁캐쉬	-12.7803
직원	-12.7803
▁르네	-12.7804
▁CP	-12.7804
▁흉악	-12.7804
명예	-12.7806
▁슬퍼	-12.7807
▁보수주의	-12.7809
▁페예	-12.781
▁마젤	-12.7812
▁시오	-12.7813
▁운반선	-12.7814
▁분홍	-12.7815
▁아웅	-12.7817
IF	-12.7817
▁엎	-12.7819
▁숨긴	-12.782
org	-12.7821
▁올리브	-12.7821
조각	-12.7821
▁공공연	-12.7821
▁치켜	-12.7822
▁폐막	-12.7822
omen	-12.7827
▁엄연	-12.7828
iss	-12.7829
▁후베이	-12.7829
협상	-12.7831
▁서슴	-12.7832
low	-12.7833
▁입헌	-12.7833
가르	-12.7833
▁순손	-12.7834
▁행해졌	-12.7834
▁변환	-12.7835
▁포르토	-12.7838
▁Dre	-12.7842
▁배운다	-12.7844
▁미친다	-12.7844
▁힘써	-12.7847
▁블라	-12.7855
맨스	-12.7857
▁네온	-12.7858
sche	-12.7858
act	-12.7858
▁쿼	-12.786
▁시크	-12.7863
mage	-12.7864
▁쿠츠	-12.7865
▁가르친	-12.7867
▁각별	-12.787
IS	-12.7872
ral	-12.7872
▁요령	-12.7876
▁곱슬	-12.7876
▁break	-12.7877
▁루치아	-12.7878
▁목축	-12.788
른스트	-12.7882
ten	-12.7882
▁time	-12.7882
▁퇴각	-12.7882
▁찔러	-12.7883
▁환경보호	-12.7883
▁페티	-12.7884
코슬로	-12.7884
▁재활용	-12.7884
▁리커	-12.7885
▁일으킨다	-12.7888
icul	-12.7888
▁Net	-12.789
전쟁	-12.789
▁AL	-12.7892
▁ER	-12.7892
ness	-12.7893
▁객관	-12.7896
▁315	-12.7897
▁종착	-12.7898
으름	-12.7899
▁양부	-12.7906
▁선천	-12.7913
▁베르디	-12.7913
▁링크	-12.7914
▁자유주의	-12.7918
▁프레임	-12.7918
▁광업	-12.7918
▁이력서	-12.7919
▁헤더	-12.7929
▁아데	-12.793
rie	-12.7931
orld	-12.7933
▁유시	-12.7935
이후	-12.794
▁퍼디	-12.7942
NHC	-12.7943
▁울려	-12.7943
▁렌트	-12.7947
▁Port	-12.7952
▁분해	-12.7953
▁신봉	-12.7956
▁높여	-12.7956
▁코멘	-12.7957
▁윈도	-12.7959
▁Chi	-12.7967
▁Mari	-12.797
▁줄인	-12.797
▁IP	-12.7971
▁괴로	-12.7973
61	-12.7973
▁니클	-12.7975
▁실비	-12.7976
▁공고	-12.7979
▁주름	-12.798
▁윈터	-12.7986
▁수혜	-12.7995
▁State	-12.8001
두아르	-12.8009
▁김태	-12.8019
▁드럼	-12.8021
▁쿠르	-12.8029
ska	-12.8032
▁소울	-12.8037
▁Bar	-12.8041
돌이	-12.8045
rove	-12.805
▁海	-12.8052
▁렝	-12.8052
▁왁	-12.8052
▁얹	-12.8052
▁콰이어	-12.8053
▁톨로	-12.8054
▁"196	-12.806
ord	-12.806
▁후생	-12.8063
▁소극	-12.8064
스캐	-12.8065
▁Stor	-12.8067
▁치사	-12.8067
▁합해	-12.8068
▁카루	-12.8071
MD	-12.8071
▁Mad	-12.8072
▁아넬	-12.8083
미츠	-12.8084
▁노란	-12.8088
▁Ver	-12.809
▁창의	-12.8095
▁특산	-12.8097
▁거쳤	-12.8101
37	-12.8101
▁서민	-12.8104
▁그랑	-12.8106
▁내려다	-12.8108
ail	-12.8109
▁MC	-12.8115
▁무정부	-12.8118
▁스커	-12.8134
필리	-12.8145
▁중개	-12.8145
▁청동	-12.8176
▁어딘	-12.8186
▁마구	-12.8189
▁당한다	-12.8189
왕좌	-12.8192
read	-12.8192
▁조그	-12.8194
▁미혼	-12.8199
ir	-12.8202
▁조문	-12.8205
▁타바	-12.8206
▁Tr	-12.8206
▁방울	-12.8211
▁농수	-12.8213
▁맥카	-12.8219
▁방망	-12.8224
손가	-12.8233
ME	-12.8233
▁겹	-12.8236
▁비틀거	-12.8237
▁Sola	-12.8238
▁누아	-12.825
▁투모	-12.8255
▁디야	-12.8271
▁담화	-12.8273
tric	-12.828
▁스웨	-12.828
▁Col	-12.8289
79	-12.8314
유치원	-12.8316
▁실권	-12.8318
서클	-12.8322
▁파루	-12.8326
▁날아간	-12.8326
▁동맥	-12.8328
▁공병	-12.833
나카	-12.8333
▁Mus	-12.8335
후보	-12.8347
▁니트	-12.8349
▁구강	-12.8351
848	-12.8355
라스무	-12.8361
비브	-12.8368
omputer	-12.8381
▁NE	-12.8386
▁ver	-12.8409
▁ME	-12.8411
▁중죄	-12.8418
▁나선다	-12.8419
▁리브	-12.843
486	-12.843
▁사학	-12.8431
▁툰	-12.8432
ull	-12.8434
▁궈	-12.8439
브러	-12.8445
top	-12.8457
지라	-12.8481
▁양자	-12.8483
프란	-12.8485
▁마추	-12.8488
권력	-12.8491
▁모라	-12.8499
▁Associate	-12.8501
▁It	-12.851
▁푸아	-12.8538
▁비어	-12.8541
▁구명	-12.8545
공예	-12.8547
▁넬리	-12.8551
tch	-12.8554
▁더러	-12.8554
328	-12.8556
uild	-12.8569
▁접대	-12.8576
ound	-12.8584
rea	-12.8589
▁620	-12.8595
▁선교	-12.8596
nois	-12.8597
▁였음	-12.8597
82	-12.8598
▁유언	-12.8601
반대	-12.8601
▁강습	-12.8609
▁오레	-12.8622
▁벌어진다	-12.8625
76	-12.8636
tech	-12.8647
ting	-12.8657
저기	-12.8661
▁사모	-12.8686
▁유망	-12.8704
영장	-12.8723
▁가벼워	-12.8727
ken	-12.8732
▁라니	-12.8734
▁시더	-12.8741
▁무법	-12.8746
477	-12.8749
랑드	-12.8758
loy	-12.8793
▁미연	-12.8794
SEA	-12.8798
▁연무	-12.8804
▁"6	-12.8821
▁난도	-12.8827
▁주워	-12.8829
▁사열	-12.8831
일단	-12.8831
▁la	-12.8831
와히	-12.8835
SID	-12.8839
▁세스	-12.8852
▁여교	-12.8853
▁04	-12.8859
▁리카	-12.8894
▁마츠	-12.8922
ina	-12.8923
▁Hi	-12.8928
파르	-12.8933
아르	-12.8935
▁호아	-12.8935
ack	-12.8937
려졌	-12.8943
포도	-12.8945
LE	-12.8949
urs	-12.895
▁보병	-12.8952
▁466	-12.8958
제라	-12.8962
325	-12.8978
타카	-12.8979
▁세례	-12.8987
hip	-12.9004
경봉	-12.9012
ls	-12.9017
▁장례	-12.9033
▁FL	-12.9034
▁카로	-12.906
▁i	-12.9061
est	-12.9065
▁멧	-12.907
ib	-12.907
▁토이	-12.9105
우량	-12.9107
51	-12.914
▁클라우	-12.9144
01	-12.9154
ap	-12.9165
ren	-12.9188
레로	-12.919
▁타카	-12.9201
▁오성	-12.9206
▁이어져	-12.922
구르	-12.9221
ort	-12.9227
via	-12.9229
▁불경	-12.9236
나갈	-12.924
▁군용	-12.9263
로디	-12.9263
줘	-12.928
남아	-12.9283
ge	-12.929
▁핏	-12.9303
▁가져온	-12.9335
미레이	-12.9342
발사	-12.9342
ADH	-12.935
▁억지	-12.9376
▁j	-12.9377
▁Fa	-12.9378
pon	-12.9394
▁버거	-12.9444
vo	-12.9444
igh	-12.947
아리	-12.9478
▁Brita	-12.95
유니	-12.9508
ru	-12.9534
ug	-12.9535
73	-12.9542
소장	-12.9583
▁Kit	-12.96
34	-12.9614
어졌	-12.9644
▁아키	-12.9664
hoo	-12.9667
ding	-12.9672
▁파상	-12.9672
if	-12.9674
모토	-12.9686
리건	-12.9699
LL	-12.9703
dge	-12.9704
어갔	-12.9708
ong	-12.9734
ame	-12.9736
까워	-12.974
▁마요	-12.9746
통치	-12.9746
fo	-12.9748
▁아름	-12.9748
해진다	-12.9748
je	-12.9763
▁마차	-12.9768
▁970	-12.977
ire	-12.9773
로라	-12.9775
지방	-12.9791
▁아델	-12.9802
준다	-12.9817
요르	-12.9819
▁바그	-12.9824
04	-12.9827
▁Swee	-12.9828
▁드레이	-12.9829
▁당당	-12.9833
▁Ar	-12.9857
▁마테	-12.9865
RA	-12.9896
▁Son	-12.9903
▁들린다	-12.9919
▁148	-12.9919
▁직선	-12.9923
리버	-12.9926
▁신상	-12.9941
la	-12.9946
▁미뤄	-12.9951
건축	-12.9964
네츠	-12.9965
▁키프	-12.9968
▁챙긴	-12.9971
sk	-12.9975
벨라	-12.9979
몬스	-12.9991
hat	-12.9994
▁상급	-12.9995
▁159	-13.0029
▁Gene	-13.0029
▁알프	-13.0035
▁da	-13.0036
ag	-13.0069
▁카나리	-13.007
보도	-13.007
▁con	-13.0077
kin	-13.0093
▁Mos	-13.0098
▁KN	-13.0108
ut	-13.0116
▁Vis	-13.0127
ille	-13.0136
ol	-13.0146
톨	-13.0153
글러	-13.0156
▁Em	-13.0182
다오	-13.0183
확	-13.0189
▁시급	-13.0201
테레	-13.0202
상학	-13.0219
32	-13.0233
ever	-13.0238
ace	-13.0241
▁fl	-13.0253
hen	-13.0254
▁"20	-13.0266
▁AH	-13.0276
▁가로지	-13.028
가와	-13.0283
war	-13.029
stat	-13.0326
▁사재	-13.0338
under	-13.0354
벵골	-13.0355
▁토코	-13.0402
▁아만	-13.041
ip	-13.0427
cess	-13.043
rm	-13.0441
56	-13.0446
▁Ed	-13.0446
▁Se	-13.0456
넬리	-13.0463
뮬	-13.0464
텍	-13.0467
▁864	-13.0487
PD	-13.0494
산업	-13.0499
겹	-13.0504
테러	-13.0504
IR	-13.0519
Bay	-13.0522
151	-13.0522
ee	-13.0526
닛	-13.0537
붙	-13.054
▁못지	-13.0551
▁DE	-13.0552
꼽	-13.0553
푸아	-13.0557
▁미주	-13.0558
뒤	-13.0558
팩	-13.0562
프로세	-13.0567
텍사스	-13.0569
젖	-13.0569
댄	-13.0572
웹	-13.0573
브리티	-13.0574
쉐	-13.0574
블랑	-13.0575
닭	-13.0575
캐나다	-13.0576
쌀	-13.0576
쏘	-13.0577
스웨덴	-13.0577
The	-13.0578
뉴햄프셔	-13.0579
오하이오	-13.0579
사우디아	-13.0579
꼭	-13.0579
잇	-13.058
즐	-13.058
흡연	-13.0581
낙	-13.0582
롤링	-13.0582
▁Lu	-13.0583
농민	-13.0588
라비	-13.059
니버	-13.0592
소평	-13.0593
농업	-13.0595
착륙	-13.0597
▁183	-13.0597
카를로	-13.0599
말레이	-13.0604
▁Est	-13.0607
솔직	-13.0628
urt	-13.0633
▁데스	-13.0634
빨간	-13.064
세탁	-13.0641
exa	-13.0646
ter	-13.065
몽고	-13.0652
변호	-13.0655
mb	-13.0656
라이나	-13.066
▁오비	-13.0678
방글	-13.0692
미술	-13.0694
칼라	-13.0701
안토니	-13.0709
헤드	-13.0709
▁막아	-13.0709
케르	-13.0714
ta	-13.0716
▁GE	-13.0717
ier	-13.0732
ps	-13.074
▁490	-13.0751
edi	-13.0756
▁바트	-13.076
생산	-13.076
▁Mot	-13.0761
불명	-13.0764
DV	-13.0765
▁no	-13.0768
▁Ra	-13.0774
길레	-13.0801
▁타지	-13.0802
피카	-13.0803
▁매운	-13.0805
sh	-13.0811
돌아갈	-13.0813
네트	-13.0814
▁Liv	-13.0816
▁DR	-13.0819
경영	-13.082
전화	-13.0821
▁205	-13.0821
광고	-13.0824
책임	-13.0826
NE	-13.083
nt	-13.083
nd	-13.0831
▁"5	-13.0832
▁168	-13.0833
수염	-13.0837
rst	-13.084
올라	-13.0841
경계	-13.0847
페이	-13.086
▁맥그	-13.0861
▁144	-13.0862
루아	-13.0877
스톡	-13.088
ang	-13.0881
ave	-13.0902
롤리	-13.0904
주머니	-13.0905
ft	-13.0905
▁Ex	-13.0909
▁108	-13.091
▁선도	-13.0919
▁차오	-13.092
ARA	-13.0922
토레	-13.0947
▁War	-13.0949
비탈	-13.0961
춰	-13.0972
▁기저	-13.0977
▁TM	-13.098
▁410	-13.0982
▁스도	-13.0988
벨로	-13.0998
ump	-13.1002
소득	-13.1006
nhe	-13.1008
▁Tod	-13.1011
wi	-13.1017
줄리	-13.1019
그리	-13.1036
디부	-13.1047
▁Bat	-13.1052
다우	-13.1061
▁바니	-13.1065
▁여중	-13.1068
rio	-13.1068
ars	-13.1068
▁어설	-13.1071
▁850	-13.1074
▁dr	-13.1079
▁깨어	-13.1084
ute	-13.1088
sen	-13.1094
bad	-13.1097
cra	-13.1097
꿔	-13.1103
ert	-13.1104
핍	-13.1108
음악	-13.1109
껴	-13.1109
overnment	-13.111
낀	-13.111
낄	-13.111
▁Authori	-13.1111
▁Earth	-13.1111
▁Gov	-13.1111
▁Univers	-13.1111
▁consider	-13.1111
▁Africa	-13.1111
▁Current	-13.1111
▁Happ	-13.1111
▁Japan	-13.1111
▁Mirror	-13.1111
▁President	-13.1111
▁Travel	-13.1111
▁iTune	-13.1111
▁problem	-13.1111
▁produc	-13.1111
▁굳어	-13.1111
▁궤양	-13.1111
▁드네프르	-13.1111
▁똑똑	-13.1111
▁뜻밖	-13.1111
▁마르티네	-13.1111
▁마지못해	-13.1111
▁붉은	-13.1111
▁뽑혔	-13.1111
▁쌍동	-13.1111
▁씌운	-13.1111
▁우타르프라데시	-13.1111
▁잦아	-13.1111
▁핸드	-13.1111
▁Arab	-13.1111
▁거침없	-13.1111
NCIS	-13.1111
▁Change	-13.1111
▁Tepozt	-13.1111
▁롬바르디	-13.1111
omorr	-13.1111
▁Movie	-13.1111
▁휘청거	-13.1111
dvertis	-13.1111
▁Child	-13.1111
▁BFM	-13.1111
▁Half	-13.1111
의학	-13.1111
▁Know	-13.1111
▁Proce	-13.1111
water	-13.1111
▁System	-13.1111
hysic	-13.1111
▁hotel	-13.1111
▁카탈로	-13.1111
▁Cross	-13.1111
▁해수욕	-13.1111
phi	-13.1111
▁anti	-13.1111
▁요시노	-13.1111
qui	-13.1111
▁Produc	-13.1111
▁good	-13.1111
▁Walk	-13.1111
니엘	-13.1111
▁일부다처	-13.1111
pos	-13.1112
▁wall	-13.1112
ordin	-13.1112
point	-13.1112
rder	-13.1112
▁Home	-13.1112
▁곰곰	-13.1112
▁Ya	-13.1112
government	-13.1112
▁Palm	-13.1112
▁마그네	-13.1112
▁총사령	-13.1112
shop	-13.1112
deo	-13.1112
언론	-13.1112
rup	-13.1112
▁Mira	-13.1113
▁페밀리	-13.1113
mun	-13.1113
cean	-13.1113
▁턱없	-13.1113
▁밀어붙	-13.1113
▁force	-13.1114
▁Plan	-13.1114
▁make	-13.1114
ating	-13.1114
▁아조프	-13.1114
▁스탬	-13.1114
▁KT	-13.1115
▁Mor	-13.1115
▁나라얀	-13.1115
AND	-13.1115
Critic	-13.1115
▁340	-13.1116
▁펠리시아	-13.1116
▁어지럽	-13.1116
▁글래스	-13.1116
▁Come	-13.1116
▁Wind	-13.1116
▁머릿	-13.1117
▁오스트랄	-13.1117
ihad	-13.1117
▁other	-13.1117
▁리듬	-13.1117
▁Post	-13.1117
▁ST	-13.1118
rid	-13.1118
PB	-13.1119
▁알렉산드리아	-13.1119
분석	-13.112
▁카멜	-13.1121
nder	-13.1121
▁WX	-13.1122
▁가리킨	-13.1122
▁Ku	-13.1122
▁내보낸	-13.1123
▁디렉	-13.1123
▁Op	-13.1124
▁Sm	-13.1124
▁루벤	-13.1125
▁흘러내	-13.1126
lag	-13.1126
막염	-13.113
cons	-13.113
yd	-13.1132
▁바꾼다	-13.1134
▁쿼터	-13.1134
▁Ab	-13.1134
▁스틸	-13.1134
▁틸라	-13.1136
세스	-13.1136
▁부쳐진	-13.1137
Rai	-13.1137
파티	-13.1138
▁가둬	-13.1138
▁918	-13.114
▁430	-13.1141
▁허베이	-13.1141
▁Ni	-13.1141
르바	-13.1143
▁메흐	-13.1143
▁곡예	-13.1143
▁느려진	-13.1144
▁꺼려	-13.1145
issing	-13.1146
▁매겨진	-13.1147
aw	-13.1148
▁앤드루	-13.1148
▁굴러	-13.1148
▁wh	-13.1149
▁WBA	-13.115
ips	-13.1151
▁슈와	-13.1152
▁Area	-13.1154
끄러	-13.1157
▁날랐	-13.1159
▁창작	-13.116
▁통렬	-13.1161
간접	-13.1162
▁디스코	-13.1164
by	-13.1165
▁페데	-13.1165
gai	-13.1166
▁하버드대	-13.1167
▁Gar	-13.1168
▁어찌	-13.117
▁생리학	-13.1171
▁리알	-13.1172
▁Gold	-13.1175
sth	-13.1175
▁피웠	-13.1177
uation	-13.1178
▁고령	-13.1179
▁산등	-13.118
uca	-13.1181
▁저술	-13.1182
▁아브라	-13.1186
▁외과의	-13.1189
▁엎드	-13.119
▁209	-13.1191
▁놓아	-13.1191
▁혼례	-13.1191
메니	-13.1198
AIR	-13.1203
UNA	-13.1207
evel	-13.1209
▁오퍼레이	-13.121
781	-13.1212
uit	-13.1213
ver	-13.1214
dule	-13.1217
▁베르나	-13.1221
▁215	-13.1229
▁브런	-13.1229
▁응모	-13.123
▁구룡	-13.1232
트웨	-13.1232
▁좋아해	-13.1233
oman	-13.1235
▁엘리트	-13.1235
▁환송	-13.1239
▁물리친	-13.1242
▁브리즈	-13.1243
정책	-13.1243
▁Fire	-13.1244
▁CSI	-13.1244
▁아닐지	-13.1246
▁an	-13.1246
3510	-13.1246
▁각축	-13.1254
ira	-13.1256
▁하와이주	-13.1256
▁Business	-13.1257
▁뤼	-13.126
▁수에즈	-13.126
▁어우러	-13.126
▁갈리아	-13.1261
▁일어난다	-13.1262
▁Fit	-13.1263
▁마르시아	-13.1266
▁KO	-13.1267
▁양봉	-13.127
▁편집국	-13.1271
▁페레이	-13.1271
▁차선	-13.1272
경제	-13.1273
▁Ke	-13.1275
usic	-13.1277
▁레지	-13.1277
▁토착	-13.1285
▁파슈	-13.1287
▁마사히	-13.1288
하이머	-13.1289
▁대홍	-13.129
▁치와	-13.1291
▁타액	-13.1295
▁자릿	-13.1295
▁포켓	-13.1303
▁김미	-13.1307
다이스	-13.1308
▁에스파	-13.1312
▁달라진	-13.1313
▁나아간	-13.1314
▁그리스어	-13.1315
▁Fact	-13.1318
▁di	-13.1319
미노	-13.132
국립	-13.1321
▁국책	-13.1323
arri	-13.1323
▁막연	-13.1327
xx	-13.1327
▁어획	-13.1328
▁파블	-13.133
▁레반	-13.1332
▁Arm	-13.1332
▁니코	-13.1339
▁용접	-13.1342
▁무스타	-13.1351
▁침례	-13.1354
▁무제	-13.1359
▁미완	-13.1359
▁송신	-13.136
▁니자	-13.1363
▁렀	-13.1365
▁바렌	-13.1366
▁Mar	-13.1366
▁브록	-13.1367
▁각색	-13.1374
▁진통	-13.1377
▁릿	-13.1379
▁드래	-13.138
elation	-13.1387
▁자랄	-13.1387
▁티티	-13.1387
▁이어진	-13.139
PN	-13.1395
▁스칼	-13.1396
▁크래	-13.1407
eff	-13.1415
▁판타	-13.1437
지푸	-13.1437
▁곤두	-13.1438
▁마쳐	-13.144
▁맥아	-13.1441
erman	-13.1441
▁sp	-13.1444
▁파고	-13.1456
힐리	-13.1457
서울	-13.1457
▁스러우	-13.1458
▁마취	-13.146
니컬	-13.1461
▁리메	-13.1464
▁철통	-13.1464
▁드와이	-13.1464
▁발데	-13.1465
crea	-13.1465
▁걸어간	-13.1467
▁킬라	-13.1467
992	-13.1467
▁교향	-13.1468
시쿠	-13.1469
▁Emp	-13.1474
꾸러	-13.1474
▁ab	-13.1483
VA	-13.149
▁초저	-13.149
▁벌거	-13.1492
val	-13.1499
▁고생물	-13.15
낸다	-13.1503
ridge	-13.1507
▁김성	-13.1513
▁하틀	-13.1515
▁work	-13.1519
▁탬	-13.152
ouse	-13.1522
동성	-13.1524
▁리모	-13.1525
▁에드가	-13.1525
▁베버	-13.1528
▁PD	-13.1528
our	-13.154
▁거북	-13.1545
▁whi	-13.155
▁루비	-13.1555
▁CHP	-13.1559
▁페로	-13.1563
oint	-13.1563
▁이어진다	-13.1563
▁코코	-13.1565
▁Pho	-13.1571
▁쿠페	-13.1573
웅거	-13.158
02	-13.1592
▁박지	-13.1596
ide	-13.1603
▁Monte	-13.1611
▁알마	-13.1614
▁베니스	-13.1621
▁성조	-13.1627
공정	-13.1628
▁앤트	-13.1631
▁지긋	-13.1637
이라	-13.1638
▁네모	-13.1648
▁날카	-13.1663
후세	-13.1664
▁dis	-13.167
▁네그	-13.1677
▁Esta	-13.1678
▁동북	-13.169
코소	-13.1701
▁래피	-13.1701
▁교습	-13.1707
▁내국	-13.1717
▁카티	-13.1721
▁간사	-13.1737
▁골목	-13.1738
250	-13.1747
▁반등	-13.1756
rate	-13.176
▁언행	-13.1766
▁길리	-13.1767
FC	-13.177
▁담보	-13.1774
▁릴리	-13.1781
태웠	-13.1784
▁부풀	-13.1784
▁오타	-13.1784
ala	-13.1785
▁드러낸	-13.1789
리비에	-13.1793
eti	-13.1793
팩트	-13.1796
▁텍	-13.1798
si	-13.1799
▁바이런	-13.18
arge	-13.1801
▁뮬	-13.1801
▁부재	-13.1807
코르	-13.1812
▁Sp	-13.1816
▁면책	-13.1816
▁ML	-13.1819
끌려	-13.182
▁두루	-13.1821
NZ	-13.1826
led	-13.184
705	-13.1849
516	-13.1872
야오	-13.1872
mge	-13.1881
▁아틀	-13.1883
▁도청	-13.1887
▁빠져버	-13.189
해왔	-13.1893
▁부끄	-13.1895
▁산출	-13.1902
▁프리스	-13.1904
▁단단	-13.1905
put	-13.1907
분명	-13.1911
ink	-13.1914
▁618	-13.1928
nmar	-13.1943
▁받아들인다	-13.1943
ocke	-13.1945
미르	-13.1947
sat	-13.1958
떨어진	-13.1969
ust	-13.1974
▁야오	-13.1975
ga	-13.2004
OU	-13.2023
토시	-13.2025
드루	-13.203
▁원추	-13.2033
▁WH	-13.2039
브로	-13.2039
사회생	-13.204
▁타파	-13.2042
▁환전	-13.2043
▁Federal	-13.2048
▁Ga	-13.205
▁계류	-13.206
공안	-13.2062
▁미즈	-13.2062
▁바버	-13.2068
▁콜리	-13.2075
rms	-13.208
BER	-13.2097
보스	-13.2098
▁자랐	-13.2103
▁거시	-13.2105
edia	-13.2105
isco	-13.2108
genc	-13.2113
타주	-13.2121
▁총력	-13.2124
파니	-13.2131
03	-13.2161
카프	-13.2166
llar	-13.2175
▁광선	-13.2177
▁PK	-13.2199
itar	-13.2199
어린	-13.2208
▁박진	-13.221
▁정해져	-13.2211
▁per	-13.2221
▁케어	-13.223
녔	-13.2246
마츠	-13.2255
▁레일	-13.2256
▁Scho	-13.2269
▁샤이	-13.2272
크레	-13.2287
▁시르	-13.23
▁Environment	-13.231
▁사피	-13.2315
래피	-13.2325
▁res	-13.2335
▁안치	-13.2349
▁Da	-13.2355
▁황금시	-13.2361
세운	-13.2369
▁매개	-13.237
▁워스	-13.2375
1450	-13.2393
▁챙긴다	-13.24
화질	-13.2405
▁뎀	-13.2416
▁리퍼	-13.2422
▁렙	-13.2432
▁윙	-13.2432
176	-13.244
▁KA	-13.245
아닌	-13.2455
르쿠	-13.2462
com	-13.2465
▁알메	-13.2468
▁야단	-13.2472
세일	-13.2473
▁바타	-13.2481
▁거품	-13.2482
DH	-13.2484
loc	-13.2501
뤄진	-13.2509
ob	-13.2517
▁라베	-13.2547
cot	-13.2548
대통령	-13.2548
▁중복	-13.2568
▁Bu	-13.2571
▁차우	-13.2586
▁투르	-13.2588
ike	-13.2594
▁셰르	-13.2607
▁Humanit	-13.2622
FO	-13.2628
▁"8	-13.2644
lly	-13.2654
ore	-13.2655
weet	-13.2655
▁574	-13.2681
▁도약	-13.2684
프로스	-13.2702
▁오클	-13.2711
span	-13.2719
han	-13.272
tar	-13.2726
▁산성	-13.2729
▁Gen	-13.2735
54	-13.2739
케트	-13.2742
르디	-13.2743
▁반역	-13.2743
cke	-13.2751
36	-13.2755
어진	-13.2765
▁선구	-13.2775
▁쿠디	-13.2779
▁맷	-13.2785
▁루시	-13.2785
저버	-13.2815
▁book	-13.2816
▁이루어져	-13.2824
hine	-13.2826
러진	-13.2827
레스트	-13.2831
비어	-13.2868
▁호시	-13.2886
▁카인	-13.2888
▁Chu	-13.2917
▁티어	-13.2922
▁에어리	-13.2931
stor	-13.2936
캐년	-13.2949
▁포항	-13.2951
▁유나	-13.2952
rial	-13.2966
리학	-13.2968
인민	-13.2974
▁아베	-13.2978
ark	-13.2994
▁DS	-13.2994
▁out	-13.3012
플라이	-13.3012
▁Wa	-13.303
▁Di	-13.3037
도록	-13.3042
iva	-13.3061
▁Cru	-13.3072
▁응한	-13.3073
웨이크	-13.3073
▁Dai	-13.3078
tom	-13.3096
토프	-13.3099
hn	-13.3106
wai	-13.3118
트너	-13.313
una	-13.3135
va	-13.3141
두각	-13.315
▁케네	-13.3154
▁배기	-13.3175
▁바나	-13.3178
13	-13.318
슈어	-13.319
▁중추	-13.3194
▁비례	-13.3197
모하	-13.321
ana	-13.3215
자벨	-13.3218
iel	-13.3229
▁동방	-13.3239
▁동업	-13.3246
vis	-13.3257
eb	-13.3259
▁외로	-13.3272
▁콜로니	-13.3283
▁배운	-13.3289
릴리	-13.3299
▁nu	-13.3301
▁UNAM	-13.3304
ero	-13.3317
▁당구	-13.332
▁질라	-13.3334
호세	-13.3335
▁스며	-13.3339
▁유카	-13.3375
▁아연	-13.3384
▁202	-13.3402
▁물으	-13.3458
▁셀리	-13.3459
IT	-13.3465
피크	-13.3477
페르	-13.3483
마일	-13.3497
▁EC	-13.3503
▁whe	-13.3507
▁미러	-13.3516
▁이긴	-13.3527
▁산호	-13.3527
▁Fun	-13.3541
베타	-13.3551
▁니카	-13.3554
▁MB	-13.3633
umb	-13.3646
▁오티	-13.3678
란티	-13.3695
와트	-13.3717
use	-13.3717
레타	-13.3718
로피	-13.3721
tain	-13.3746
사업	-13.3761
865	-13.3789
ower	-13.3798
ais	-13.3808
▁Fore	-13.3828
▁Sur	-13.3838
EL	-13.387
달린	-13.3913
▁거스	-13.3914
▁거미	-13.392
▁대초	-13.3934
▁나트	-13.3934
▁v	-13.3952
▁도매	-13.396
▁임해	-13.3962
Sit	-13.3979
레디	-13.398
▁실베스	-13.3984
pt	-13.3989
43	-13.3993
▁원고	-13.4004
▁Mag	-13.4008
eha	-13.4029
▁수산	-13.403
▁폭음	-13.4044
vent	-13.4046
▁ex	-13.4047
ulo	-13.407
▁공보	-13.4085
▁use	-13.4094
CO	-13.4106
▁Ja	-13.4106
레버	-13.4136
네시	-13.4148
▁대법	-13.415
▁해설	-13.416
▁884	-13.4166
▁로워	-13.4171
탈린	-13.418
ind	-13.4183
▁Ze	-13.4204
▁라바	-13.4249
DN	-13.4257
▁She	-13.4261
wn	-13.4326
yp	-13.4327
▁초당	-13.434
에드	-13.4342
정상	-13.4356
스텔	-13.4365
tle	-13.438
go	-13.4382
▁625	-13.4386
ns	-13.4413
EM	-13.4419
H	-13.442
▁India	-13.4457
▁아리아	-13.4458
▁rep	-13.4479
르츠	-13.4486
▁지브	-13.4502
ize	-13.452
▁아흐마	-13.4545
르푸	-13.4562
▁Hu	-13.4564
레모	-13.4584
▁돌린	-13.4584
▁서사	-13.4591
ick	-13.4606
▁Tre	-13.4613
▁743	-13.4616
▁grou	-13.4637
남방	-13.4654
▁했으	-13.4657
▁오베	-13.4677
▁suc	-13.4682
eas	-13.4693
▁판매원	-13.4696
alis	-13.4714
ms	-13.4753
▁불린	-13.4769
▁Acc	-13.4782
pi	-13.4782
lab	-13.4806
내버	-13.4824
▁Go	-13.4827
”	-13.4845
ca	-13.4847
▁Goo	-13.4858
▁Bro	-13.486
▁밑바	-13.4871
▁Hea	-13.4875
▁804	-13.4959
▁무직	-13.4974
US	-13.4991
브리스	-13.5007
▁Je	-13.5015
▁Alo	-13.5016
▁브릴	-13.5025
▁원두	-13.5027
▁138	-13.5029
ko	-13.5075
▁Ban	-13.5079
▁End	-13.5079
ris	-13.5106
▁Edi	-13.5118
tin	-13.5137
▁Cli	-13.5151
▁Ta	-13.5152
모아	-13.5163
get	-13.5165
ON	-13.5168
▁El	-13.5169
lace	-13.5178
eco	-13.5198
▁Meta	-13.5204
되	-13.5215
▁Sta	-13.5217
▁152	-13.5224
열대	-13.5248
▁Tas	-13.5255
ses	-13.5272
▁배수	-13.5273
ct	-13.5322
its	-13.5344
alo	-13.5346
end	-13.5354
▁구부	-13.5358
hom	-13.5371
awa	-13.5404
소식	-13.5404
가운	-13.5416
라메	-13.5419
▁CH	-13.5421
rre	-13.5428
PM	-13.5432
erie	-13.5443
탬	-13.547
▁Miss	-13.5472
work	-13.5477
fi	-13.5478
Pho	-13.5497
ndit	-13.5502
콰이어	-13.5512
海	-13.5514
렝	-13.5514
얹	-13.5514
왁	-13.5514
CS	-13.552
Net	-13.5521
프런티	-13.5531
뱃	-13.5532
▁아메	-13.5534
AB	-13.5539
뮤	-13.5541
프랑코	-13.5543
KG	-13.5544
인류학	-13.5546
엠	-13.5547
쫓	-13.555
혁	-13.555
티베트	-13.5551
앰	-13.5552
틈	-13.5552
South	-13.5556
튀	-13.5558
찔	-13.5558
댓	-13.5562
캘리포니아	-13.5564
PE	-13.5564
ND	-13.5565
코네티컷	-13.5567
바그다	-13.5568
플로리다	-13.557
듯	-13.5571
헐리	-13.5571
펜실베이니아	-13.5572
희생	-13.5573
몸	-13.5573
쓸	-13.5577
이집트	-13.5577
갱	-13.5578
허리케인	-13.5579
칩	-13.5579
탔	-13.5579
천문학	-13.558
라파엘	-13.558
밸	-13.558
쓴	-13.558
페르난데	-13.558
블라디미	-13.558
포르투갈	-13.558
공산주의	-13.5581
일리노이	-13.5581
호흡	-13.5581
세인트	-13.5581
샌디에	-13.5581
적십자	-13.5581
Co	-13.5581
젊	-13.5581
Mo	-13.5581
덴마크	-13.5581
베트남	-13.5582
낭	-13.5582
펌	-13.5582
숀	-13.5582
지긋	-13.5583
혁명	-13.5583
니콜라	-13.5584
묻	-13.5584
맛	-13.5584
뒷	-13.5584
파나마	-13.5586
같이	-13.5587
골목	-13.559
콜린	-13.5592
도쿄	-13.5597
▁Guil	-13.5598
정확	-13.5602
스탈린	-13.5611
메티	-13.5612
도미니	-13.5613
뮤지	-13.5613
암살	-13.5616
ild	-13.5616
올림	-13.5616
▁밝아	-13.5618
센티	-13.5618
합니다	-13.562
반등	-13.5626
Con	-13.5628
입니다	-13.5635
시크	-13.5637
UE	-13.5639
천연	-13.5644
엘리자	-13.5644
▁239	-13.5646
베네	-13.5647
gle	-13.5648
클라	-13.5651
고고학	-13.5658
생존	-13.5665
숙박	-13.5667
▁은닉	-13.567
북극	-13.5673
스파이	-13.5675
▁DI	-13.5677
슈퍼	-13.5679
▁Cla	-13.5681
오프라	-13.5686
▁드웨	-13.5686
걸음	-13.5686
어느	-13.5687
롤린	-13.5689
밀려	-13.5692
far	-13.5696
▁je	-13.5697
네티	-13.5701
▁SI	-13.5702
쿠레	-13.5706
다비	-13.571
바람	-13.5711
▁Mc	-13.5714
ban	-13.5716
엔테	-13.5716
발렌	-13.5723
네브	-13.5725
데이비	-13.5727
tri	-13.5729
▁받아들인	-13.5733
글라	-13.5734
루빈	-13.5735
stal	-13.574
hiba	-13.5747
알코	-13.5749
▁Hol	-13.5755
lation	-13.576
ston	-13.5761
▁카푸	-13.5766
▁299	-13.5767
공학	-13.5767
모델	-13.5768
▁137	-13.5774
수잔	-13.5776
ti	-13.5779
오존	-13.5781
에드워	-13.5782
슬로	-13.5782
캐리	-13.5786
DO	-13.5786
ua	-13.5792
커피	-13.5793
최고	-13.5794
방울	-13.5795
이브라	-13.5797
▁레슬	-13.5797
ders	-13.5804
휴전	-13.5806
발굴	-13.5813
cur	-13.5816
▁Il	-13.5819
오레	-13.5821
▁Cha	-13.5825
돌아왔	-13.5825
너무	-13.5826
▁Per	-13.5827
워라	-13.5829
SAN	-13.5829
건설	-13.5831
경매	-13.5842
▁Rev	-13.5848
남동	-13.5852
▁256	-13.5858
▁Tu	-13.5863
▁Prince	-13.5865
38	-13.5869
care	-13.588
▁Cent	-13.5881
골든	-13.5882
블록	-13.5882
동맥	-13.5895
살바	-13.5897
ws	-13.5906
새로	-13.5907
Comp	-13.591
eight	-13.5914
58	-13.5922
▁Lib	-13.5922
""	-13.5935
▁tea	-13.5936
▁Ce	-13.5944
pend	-13.5945
AI	-13.5948
Mu	-13.5953
석유	-13.5954
▁Du	-13.5954
▁사만	-13.5959
gic	-13.5961
ount	-13.5965
ja	-13.5967
뤄졌	-13.5969
▁Man	-13.597
▁del	-13.5972
set	-13.5972
참모	-13.5974
수천	-13.5976
▁Sk	-13.5989
연습	-13.5998
▁306	-13.6002
빙하	-13.6003
드와이	-13.6013
버렸	-13.6028
현실	-13.6029
kar	-13.6032
▁sw	-13.6039
uc	-13.6042
184	-13.6046
lle	-13.6056
평화	-13.6057
쿄	-13.6065
ava	-13.6066
▁870	-13.6073
▁262	-13.6078
eau	-13.6079
ger	-13.6093
▁두드러	-13.6096
▁Agr	-13.6102
잠비	-13.6105
aba	-13.6105
▁spe	-13.6107
assi	-13.6107
▁라미	-13.6107
cus	-13.6108
▁채워져	-13.6108
ffic	-13.6109
emo	-13.6109
solv	-13.6109
sale	-13.611
teve	-13.611
tra	-13.611
▁윌리	-13.611
▁pro	-13.611
late	-13.611
urge	-13.611
ealth	-13.611
▁끊임	-13.611
끗	-13.611
▁페널티	-13.6111
▁wea	-13.6111
▁Boul	-13.6111
ult	-13.6111
▁difficult	-13.6111
▁trans	-13.6111
▁Gynecolog	-13.6111
▁Massac	-13.6111
▁explo	-13.6111
agree	-13.6111
claim	-13.6111
omplete	-13.6111
scribe	-13.6111
▁Aeros	-13.6111
▁Basic	-13.6111
▁Dungeon	-13.6111
▁Fujitsu	-13.6111
▁Second	-13.6111
▁Silver	-13.6111
▁Spirit	-13.6111
▁Vega	-13.6111
▁concern	-13.6111
▁confidence	-13.6111
▁direct	-13.6111
▁dramatic	-13.6111
▁extend	-13.6111
▁period	-13.6111
▁poll	-13.6111
▁specifi	-13.6111
▁temp	-13.6111
▁구석구석	-13.6111
▁굳건	-13.6111
▁굳힌	-13.6111
▁덧없	-13.6111
▁뜯어	-13.6111
▁밥티스	-13.6111
▁쓸데없	-13.6111
▁잊혀	-13.6111
▁잿빛	-13.6111
▁카마리네스	-13.6111
▁타마울리파스	-13.6111
▁포테이토	-13.6111
▁히스파니올라	-13.6111
엑스엑스	-13.6111
▁Kunst	-13.6111
▁Wonder	-13.6111
▁알아차렸	-13.6111
heighten	-13.6111
motiv	-13.6111
▁31589	-13.6111
▁Airport	-13.6111
▁Transform	-13.6111
▁appear	-13.6111
▁interest	-13.6111
▁politic	-13.6111
elieve	-13.6111
poe	-13.6111
▁Louis	-13.6111
▁Dutch	-13.6111
▁Prepar	-13.6111
▁help	-13.6111
▁31284	-13.6111
▁like	-13.6111
▁Auto	-13.6111
▁Hunt	-13.6111
▁Paperin	-13.6111
▁발가벗	-13.6111
▁떠내려	-13.6111
convenien	-13.6111
▁Retail	-13.6111
▁틀어박	-13.6111
푸에고	-13.6111
▁chips	-13.6111
Geograph	-13.6111
easure	-13.6111
▁Christ	-13.6111
▁Reli	-13.6111
▁노스다코타	-13.6111
gypt	-13.6111
▁qua	-13.6111
▁Scan	-13.6111
acco	-13.6111
▁Airline	-13.6111
9769	-13.6111
hra	-13.6111
▁관현악	-13.6111
▁Letter	-13.6111
▁Minute	-13.6111
▁Rock	-13.6111
propos	-13.6111
▁방갈로	-13.6111
▁account	-13.6111
▁MMR	-13.6111
▁Info	-13.6111
nanci	-13.6111
▁Court	-13.6111
▁gest	-13.6111
▁Kenya	-13.6111
▁자가운전	-13.6111
range	-13.6111
▁Fred	-13.6111
▁fish	-13.6111
itz	-13.6111
▁week	-13.6111
▁Sport	-13.6111
▁갈리시아	-13.6111
through	-13.6111
▁그랜드캐년	-13.6111
▁Safe	-13.6111
▁내던져	-13.6111
romise	-13.6111
path	-13.6111
▁마르크스	-13.6111
▁Master	-13.6111
▁구티에레	-13.6111
arco	-13.6111
▁숨김없	-13.6111
▁바르톨	-13.6112
▁stand	-13.6112
▁unp	-13.6112
rovider	-13.6112
▁비스듬	-13.6112
▁Protect	-13.6112
▁House	-13.6112
research	-13.6112
▁튀어나온	-13.6112
▁Explo	-13.6112
uffle	-13.6112
spect	-13.6112
loo	-13.6112
▁북돋	-13.6112
▁곤두박질	-13.6112
▁compan	-13.6112
til	-13.6113
▁변혁	-13.6113
▁Vo	-13.6113
▁겹쳐	-13.6113
▁Bull	-13.6113
Roll	-13.6113
1927	-13.6113
▁뛰쳐나	-13.6113
ider	-13.6113
▁Phar	-13.6113
▁아우구스	-13.6113
▁으셨	-13.6113
▁Bang	-13.6113
win	-13.6113
▁Buy	-13.6113
0497	-13.6113
RAN	-13.6113
erti	-13.6113
▁돌아다닌다	-13.6113
▁Ramb	-13.6113
▁sole	-13.6113
THE	-13.6114
wide	-13.6114
fie	-13.6114
▁받아들여진다	-13.6114
ront	-13.6114
oso	-13.6114
▁부끄러워	-13.6114
nem	-13.6114
nvers	-13.6114
▁fil	-13.6114
▁Maj	-13.6114
▁손꼽	-13.6114
resc	-13.6114
▁Hau	-13.6115
▁Obs	-13.6115
evere	-13.6115
van	-13.6115
▁Whal	-13.6115
▁disc	-13.6115
▁Tree	-13.6115
▁사들였	-13.6115
bron	-13.6115
▁뒤쫓	-13.6115
▁If	-13.6115
▁Coc	-13.6115
▁맹렬	-13.6116
HWA	-13.6116
▁MV	-13.6116
낌없	-13.6116
Price	-13.6116
▁축산업	-13.6116
▁Age	-13.6116
▁Lay	-13.6116
▁토시히	-13.6116
▁울려퍼	-13.6117
▁흘러내려	-13.6117
▁닥쳐	-13.6117
▁고속철	-13.6117
mala	-13.6117
▁안타까워	-13.6117
▁West	-13.6117
cho	-13.6117
▁BAS	-13.6118
aman	-13.6118
▁HI	-13.6118
▁안후이	-13.6118
uj	-13.6118
▁Want	-13.6118
▁Hen	-13.6118
밍턴	-13.6118
터덜	-13.6118
Death	-13.6118
AST	-13.6118
EMA	-13.6119
▁KTV	-13.6119
▁Pan	-13.6119
▁Bir	-13.612
sian	-13.612
▁Jan	-13.612
▁신학	-13.612
table	-13.6121
▁다녀와	-13.6121
▁튀어나	-13.6121
▁Atom	-13.6121
▁후안데	-13.6121
anu	-13.6121
▁물어본	-13.6122
sca	-13.6122
▁2924	-13.6122
▁deal	-13.6122
▁약재	-13.6122
alia	-13.6122
gh	-13.6123
say	-13.6123
▁3164	-13.6123
▁채워져야	-13.6123
▁반듯	-13.6123
AMI	-13.6123
▁Play	-13.6123
▁뎀프	-13.6123
▁생겨난	-13.6124
▁떨어뜨렸	-13.6124
대변	-13.6124
ptop	-13.6124
▁Pine	-13.6124
루이지	-13.6125
▁Pic	-13.6125
▁늘린다	-13.6125
count	-13.6125
nie	-13.6125
▁불태웠	-13.6125
874	-13.6126
▁Ug	-13.6126
▁생김	-13.6126
▁앙골	-13.6126
글리세	-13.6126
▁Dor	-13.6127
▁베벌리	-13.6127
over	-13.6127
▁3147	-13.6128
▁맥케이	-13.6128
▁Kn	-13.6129
olve	-13.6132
▁Year	-13.6133
▁끼쳐	-13.6133
시오네	-13.6133
▁파우	-13.6133
▁Executi	-13.6133
crab	-13.6133
▁Niger	-13.6134
car	-13.6134
▁BG	-13.6135
▁살아왔	-13.6135
▁증오심	-13.6136
▁Buck	-13.6137
ecord	-13.6137
rls	-13.6138
▁new	-13.6138
une	-13.6139
▁교묘	-13.6141
▁RO	-13.6141
▁SK	-13.6143
와니	-13.6144
▁Top	-13.6144
EH	-13.6147
▁아이보리	-13.6149
Point	-13.615
▁Fort	-13.615
▁레지스	-13.6153
842	-13.6154
▁Leg	-13.6154
오스트	-13.6154
▁cit	-13.6155
▁극빈	-13.6156
▁쓸려	-13.6156
tour	-13.6157
uk	-13.6157
▁Class	-13.6158
▁픽업	-13.6158
olida	-13.6158
▁큰곰	-13.6158
CAN	-13.6159
▁마하라	-13.616
▁Dow	-13.616
YF	-13.6161
▁안데르	-13.6162
lock	-13.6162
gg	-13.6163
FRA	-13.6164
clu	-13.6166
▁붙인다	-13.6166
unch	-13.6168
▁윤종	-13.6169
▁통솔	-13.617
▁흐른	-13.6171
▁퍼덕	-13.6171
resh	-13.6171
136	-13.6172
▁셀린	-13.6174
▁가즈히	-13.6174
▁산업단지	-13.6174
▁Hor	-13.6175
anda	-13.6176
터벅	-13.6176
▁랭커	-13.6176
ione	-13.6177
▁Dr	-13.6181
▁스위트	-13.6181
XT	-13.6181
▁크레디	-13.6185
▁맥킨	-13.6185
▁앙겔로	-13.6186
데로	-13.6187
▁건드린	-13.6188
▁710	-13.6188
▁Ag	-13.6188
ANTI	-13.6189
rik	-13.619
▁극악	-13.6197
▁Ann	-13.6197
▁Hal	-13.62
▁애너	-13.62
르게이	-13.6204
어진다	-13.6205
▁291	-13.6206
▁Claus	-13.6211
▁560	-13.6212
▁Flow	-13.6215
PT	-13.6216
▁Gla	-13.6216
▁감싸	-13.6218
▁940	-13.6218
▁발끈	-13.622
DAR	-13.622
공산	-13.6222
▁유나이	-13.6227
mid	-13.623
▁Brad	-13.6235
▁gene	-13.6238
▁593	-13.6239
▁기울였	-13.6241
▁950	-13.6242
▁몰아낸	-13.6244
▁베레	-13.6245
▁손익	-13.6245
cio	-13.6246
▁트렌	-13.6247
▁없앤	-13.6252
▁405	-13.6254
노르테	-13.6255
▁느껴진	-13.6258
nter	-13.6259
ks	-13.626
▁밀려나	-13.6262
▁일궈	-13.6264
ffin	-13.6267
▁김영	-13.6269
▁바이올	-13.627
▁흉내	-13.627
inter	-13.6271
스칼	-13.6271
검사	-13.6272
▁610	-13.6273
하토	-13.6274
▁산골	-13.6276
▁자이로	-13.6277
▁페퍼	-13.6277
화이트	-13.6278
빙글	-13.628
중세	-13.6281
▁되돌아	-13.6282
▁어질러	-13.6283
▁트윈	-13.6285
▁송파	-13.6288
hus	-13.6288
awk	-13.6291
▁514	-13.6296
▁쳐다	-13.6297
spen	-13.6306
▁허풍	-13.6306
usse	-13.6308
▁들춰	-13.6311
▁Compa	-13.6316
▁졸음	-13.6318
▁532	-13.6318
맥도	-13.6322
sco	-13.6329
▁3145	-13.633
▁스톨	-13.633
베레	-13.6331
▁206	-13.6332
▁Tun	-13.6335
총선	-13.6338
▁헌병	-13.634
natu	-13.6343
▁드러난	-13.6343
▁주춤	-13.6344
▁가해진	-13.6348
areer	-13.6349
▁으니까	-13.6351
프리드	-13.6354
셀리	-13.6356
▁죽여	-13.6356
▁Theatre	-13.6357
▁느려	-13.6357
▁액화	-13.6361
▁축산	-13.6365
▁Mont	-13.6367
know	-13.6369
eta	-13.6371
▁언더	-13.6375
▁301	-13.6376
▁look	-13.6379
▁North	-13.6379
▁스펀	-13.638
▁자네	-13.638
▁말린	-13.638
렌시	-13.6382
▁균등	-13.6383
타니	-13.6392
▁TW	-13.6392
▁Pop	-13.6393
▁아리스	-13.6397
▁ball	-13.6399
▁엄숙	-13.6399
▁매겨	-13.6401
▁드림	-13.6402
▁누렸	-13.6402
▁꼬박	-13.6408
아담	-13.6413
▁루퍼	-13.6415
▁디바	-13.6416
▁테츠	-13.6417
servat	-13.6419
▁올라간	-13.642
xpect	-13.6421
▁드렸	-13.6422
▁캘리	-13.6423
▁167	-13.6425
▁Syn	-13.6429
hand	-13.6433
▁CM	-13.6437
▁Fri	-13.6443
▁314	-13.6451
sai	-13.6454
▁비켜	-13.6455
▁미시간	-13.6459
▁shel	-13.6461
외교	-13.6463
▁셀로	-13.6464
배상	-13.6467
▁요악	-13.6475
tail	-13.6478
▁Ae	-13.6479
망친	-13.6482
auman	-13.6485
NO	-13.6488
▁sm	-13.6492
두세	-13.6495
Wis	-13.6495
▁스윈	-13.6496
▁HF	-13.6497
▁친부	-13.6501
cu	-13.6503
▁바이디	-13.6503
▁김용	-13.6507
▁185	-13.6512
그랑	-13.6512
▁but	-13.6516
▁compe	-13.6521
▁우중	-13.6526
▁ho	-13.6531
단호	-13.6531
▁놓여진	-13.6534
reen	-13.6534
anc	-13.6538
▁un	-13.6538
▁스워	-13.6538
▁무궁	-13.6539
▁끌어들인	-13.6544
▁sha	-13.6544
hel	-13.6553
현상	-13.6559
▁맡긴다	-13.6562
haki	-13.6562
ando	-13.6566
di	-13.6566
▁116	-13.6566
공식	-13.6567
▁빌려	-13.6571
of	-13.6574
▁파트리	-13.6577
▁Ox	-13.6579
utter	-13.6588
유산	-13.6588
▁입안	-13.6591
▁으려다	-13.66
▁아흐	-13.661
피트	-13.661
▁Dig	-13.661
▁우타	-13.6613
우승	-13.6619
▁콘스탄	-13.6619
▁Wor	-13.6622
▁선더	-13.6629
LAN	-13.6634
아미노	-13.6636
▁Gett	-13.6636
▁WT	-13.6646
베르니	-13.6652
ller	-13.6657
761	-13.6657
매트	-13.6658
▁보균	-13.6663
▁바란	-13.6663
▁form	-13.6665
▁long	-13.6668
힌다	-13.6674
▁Def	-13.6675
▁할리스	-13.6684
▁Cos	-13.6685
SD	-13.6689
▁gr	-13.6689
턴트	-13.6697
▁병목	-13.67
지휘	-13.6703
DP	-13.6705
타미	-13.6707
▁Jew	-13.6715
▁Kid	-13.6718
허리	-13.6721
▁불변	-13.6728
▁쓰여져	-13.673
▁press	-13.6742
ez	-13.6743
워터	-13.6743
▁109	-13.6743
▁Arch	-13.6743
랑크	-13.6749
▁변함	-13.6755
▁123	-13.6756
▁Haj	-13.676
피로	-13.677
▁밀크	-13.6774
▁슬레	-13.6774
▁정예	-13.6783
▁디모	-13.679
ades	-13.6794
▁니가	-13.6795
러뜨	-13.6798
프래	-13.68
라코	-13.6801
레이더	-13.6802
▁디미	-13.6805
▁불안해	-13.6808
참가	-13.6819
▁ac	-13.6834
▁콩기	-13.6836
raz	-13.6842
▁여주인	-13.6851
ci	-13.6868
OO	-13.6875
▁lab	-13.688
스톱	-13.6881
▁end	-13.6884
그린	-13.6888
베트	-13.6889
▁급식	-13.6895
르벨	-13.6897
hemis	-13.6903
dvance	-13.6908
▁그랜	-13.6909
▁날아오	-13.6915
932	-13.6923
▁무참	-13.693
시험	-13.6935
▁앨리	-13.6974
ette	-13.6985
간호	-13.6993
oth	-13.7006
HB	-13.7006
▁티라	-13.7013
▁앨리스	-13.7027
anta	-13.7034
▁HOT	-13.7036
rim	-13.7048
샘프	-13.7054
▁디프	-13.7056
몰레	-13.7059
티미	-13.7061
기본	-13.7064
comb	-13.7065
▁체질	-13.7066
쉬워	-13.7085
내무	-13.7091
▁승강	-13.7099
▁파나	-13.7099
▁라흐	-13.7101
동영	-13.7114
cientist	-13.7138
쳐진	-13.715
vin	-13.7156
▁Mile	-13.7159
ccur	-13.7161
▁헤아	-13.7163
▁예포	-13.7173
▁아슬	-13.7175
▁bot	-13.7182
에디	-13.7183
qu	-13.7197
봉사	-13.7198
▁DEL	-13.721
▁팔라	-13.7217
▁Prin	-13.7218
order	-13.7226
▁pp	-13.7227
리엄	-13.724
dic	-13.7244
uma	-13.7246
▁치만	-13.7246
▁알베	-13.725
830	-13.7251
볼리	-13.7254
SO	-13.7259
▁들여보	-13.7262
vi	-13.7288
fl	-13.7295
▁hit	-13.7295
AID	-13.7298
▁알아봐	-13.7313
▁And	-13.7319
해상	-13.732
▁스타드	-13.7331
버둥	-13.7334
ask	-13.7357
▁토모	-13.7368
aqu	-13.7369
▁Bod	-13.737
llis	-13.7376
리타니	-13.7389
534	-13.739
▁추도	-13.7397
독자	-13.7398
▁성층	-13.7415
▁rig	-13.7419
aur	-13.7428
▁Tet	-13.7433
▁Whe	-13.7435
▁Ru	-13.7479
▁벵골	-13.7483
shor	-13.7489
에반	-13.7493
▁under	-13.7493
▁들먹	-13.7502
▁더럽	-13.7509
▁진시	-13.7516
omb	-13.7548
▁부쳐	-13.7559
보유	-13.7569
ach	-13.7574
▁데오	-13.758
verg	-13.7588
labor	-13.7607
anni	-13.7607
베나	-13.7615
릴리언	-13.762
▁Div	-13.7622
▁때렸	-13.7623
▁날라	-13.7623
상업	-13.7625
▁클라이	-13.7626
maz	-13.7634
만화	-13.7658
nst	-13.7667
itter	-13.7673
▁래프	-13.7681
▁주어진다	-13.7682
주름	-13.7698
마틴	-13.7745
otel	-13.7751
▁Br	-13.7756
eme	-13.7761
▁캐치	-13.7762
▁바래	-13.7774
산토	-13.7776
▁기독	-13.7799
▁이성애	-13.7802
▁라피	-13.7817
의료	-13.7825
강력	-13.783
▁541	-13.7833
▁자작	-13.7848
뜨	-14.3901
같	-14.5255
맘	-14.5267
콰	-14.5442
돼	-14.5485
높	-14.5486
뤼	-14.5511
좋	-14.5516
뤄	-14.5535
꼬	-14.5548
쿼	-14.5555
엎	-14.5555
덜	-14.5559
갓	-14.557
뻔	-14.557
뽀	-14.557
펀	-14.557
헐	-14.5572
벵	-14.5578
놔	-14.558
솜	-14.558
펭	-14.558
낮	-14.5582
캠	-14.5584
믿	-14.5584
돋	-14.5587
샐	-14.5587
봐	-14.5592
家	-14.5592
퐁	-14.5592
므	-14.5594
굽	-14.5596
州	-14.5597
흡	-14.5598
굿	-14.5601
샴	-14.5601
삽	-14.5601
꽃	-14.5601
챙	-14.5603
맺	-14.5603
댕	-14.5604
펄	-14.5604
캘	-14.5604
잭	-14.5604
샌	-14.5605
뚜	-14.5605
쥬	-14.5605
섹	-14.5605
흉	-14.5607
켐	-14.5608
쌓	-14.5608
퀸	-14.5609
걷	-14.5609
멀	-14.5609
뛰	-14.5609
깁	-14.561
붐	-14.561
훼	-14.561
떼	-14.561
밑	-14.561
읽	-14.561
빅	-14.561
댐	-14.561
훔	-14.5611
봄	-14.5611
옛	-14.5611
멈	-14.5611
둬	-14.5987
뭇	-14.6098
눠	-14.6099
u	-14.9522
봅	-15.7504
뀔	-15.7505
뀐	-15.7506
갸	-15.7507
헝	-15.7508
찢	-15.7509
잦	-15.751
쏠	-15.7511
뻗	-15.7512
깜	-15.7513
新	-15.7514
췌	-15.7515
잿	-15.7516
솅	-15.7517
랴	-15.7518
굉	-15.7519
갠	-15.752
잰	-15.7521
쏜	-15.7522
뭔	-15.7523
곁	-15.7524
쿤	-15.7525
씌	-15.7526
뜯	-15.7527
꽂	-15.7528
휠	-15.7529
홉	-15.753
핫	-15.7531
펴	-15.7532
씻	-15.7533
샹	-15.7534
뻐	-15.7535
性	-15.7536
옵	-15.7537
흩	-15.7538
쿨	-15.7539
엉	-15.754
뭉	-15.7541
닙	-15.7542
넥	-15.7543
핸	-15.7544
굶	-15.7545
옐	-15.7546
섞	-15.7547
빵	-15.7548
팰	-15.7549
츄	-15.755
촛	-15.7551
밥	-15.7552
멤	-15.7553
굳	-15.7554
팜	-15.7555
횡	-15.7556
탠	-15.7557
옳	-15.7558
밟	-15.7559
팝	-15.756
띄	-15.7561
냄	-15.7562
갇	-15.7563
묶	-15.7564
듭	-15.7565
됩	-15.7566
뷔	-15.7567
햇	-15.7568
앵	-15.7569
숫	-15.757
잊	-15.7571
싫	-15.7572
!	-15.7573
겸	-15.7574
죠	-15.7575
흰	-15.7576
붉	-15.7577
멍	-15.7578
짧	-15.7579
쏟	-15.758
딪	-15.7581
뿌	-15.7582
똑	-15.7583
돕	-15.7584
왼	-15.7585
릎	-15.7586
궤	-15.7587
캄	-15.7588
얘	-15.7589
멋	-15.759
꺾	-15.7591
휩	-15.7592
훌	-15.7593
뽑	-15.7594
빼	-15.7595
좀	-15.7596
빚	-15.7597
쌍	-15.7598
옆	-15.7599
덮	-15.76
왜	-15.7601
갤	-15.7602
깊	-15.7603
끊	-15.7604
씩	-15.7605
옮	-15.7606
엑	-15.7607
땅	-15.7608
;	-15.7609
홈	-15.761
챔	-15.7611
융	-15.7612
촬	-15.7613
멕	-15.7614
떻	-15.7615
&	-15.7616
펼	-15.7617
렇	-15.7618
윌	-15.7619
잃	-15.762
?	-15.7621
v	-15.7622
끌	-15.7623
떤	-15.7624
끝	-15.7625
:	-15.7626
밖	-15.7627
큰	-15.7628
떨	-15.7629
겠	-15.763
덧	-15.7631
%	-15.7632
될	-15.7633
됐	-15.7634
밝	-15.7635
